<pad>	0
<unk>	0
<s>	0
</s>	0
▁t	-0
▁a	-1
in	-2
he	-3
er	-4
on	-5
re	-6
▁the	-7
at	-8
or	-9
▁s	-10
▁c	-11
nd	-12
es	-13
it	-14
ou	-15
▁w	-16
en	-17
▁p	-18
is	-19
an	-20
▁f	-21
▁o	-22
al	-23
ing	-24
ed	-25
▁b	-26
▁and	-27
ar	-28
▁in	-29
ro	-30
▁of	-31
▁m	-32
ion	-33
ic	-34
▁to	-35
▁"	-36
le	-37
▁d	-38
as	-39
om	-40
▁S	-41
ent	-42
."	-43
▁T	-44
el	-45
il	-46
ct	-47
▁y	-48
▁h	-49
us	-50
▁you	-51
▁re	-52
▁A	-53
et	-54
▁C	-55
▁th	-56
▁l	-57
▁is	-58
ot	-59
ation	-60
▁e	-61
▁n	-62
▁P	-63
ol	-64
ac	-65
id	-66
▁M	-67
ow	-68
ith	-69
st	-70
▁for	-71
ve	-72
am	-73
▁g	-74
ers	-75
▁I	-76
▁on	-77
ig	-78
▁with	-79
ay	-80
ur	-81
▁pro	-82
▁B	-83
im	-84
ut	-85
ad	-86
ce	-87
ir	-88
▁be	-89
▁W	-90
▁H	-91
▁st	-92
ly	-93
▁D	-94
ch	-95
▁F	-96
ter	-97
▁con	-98
ag	-99
pp	-100
ul	-101
▁R	-102
▁-	-103
▁or	-104
ab	-105
ri	-106
ess	-107
est	-108
▁v	-109
em	-110
▁(	-111
▁1	-112
▁G	-113
▁your	-114
ra	-115
▁are	-116
rom	-117
▁an	-118
▁E	-119
os	-120
ill	-121
▁al	-122
un	-123
▁L	-124
▁The	-125
▁that	-126
od	-127
▁2	-128
ity	-129
ort	-130
ver	-131
▁from	-132
if	-133
▁com	-134
pe	-135
our	-136
▁as	-137
▁O	-138
um	-139
res	-140
▁us	-141
qu	-142
ate	-143
▁can	-144
▁it	-145
her	-146
igh	-147
▁wh	-148
▁N	-149
art	-150
ke	-151
ore	-152
out	-153
ment	-154
oc	-155
ist	-156
ect	-157
ew	-158
ant	-159
ies	-160
op	-161
▁de	-162
and	-163
▁su	-164
▁ex	-165
▁by	-166
ain	-167
ust	-168
▁at	-169
▁se	-170
▁he	-171
iv	-172
ine	-173
▁we	-174
▁ha	-175
nt	-176
▁r	-177
▁U	-178
▁sh	-179
ure	-180
ap	-181
se	-182
cc	-183
ial	-184
ight	-185
ive	-186
og	-187
ice	-188
ard	-189
▁will	-190
▁this	-191
ud	-192
▁ch	-193
▁comp	-194
orm	-195
able	-196
00	-197
ld	-198
per	-199
ok	-200
ide	-201
all	-202
ions	-203
ia	-204
pt	-205
ated	-206
age	-207
""	-208
otel	-209
erv	-210
du	-211
th	-212
▁not	-213
ack	-214
▁k	-215
ge	-216
▁pl	-217
▁ad	-218
ast	-219
▁St	-220
▁have	-221
▁cont	-222
are	-223
▁V	-224
▁In	-225
▁u	-226
form	-227
ost	-228
lic	-229
iz	-230
▁K	-231
▁le	-232
ree	-233
act	-234
▁all	-235
ell	-236
ak	-237
ire	-238
ry	-239
rou	-240
ff	-241
ip	-242
ind	-243
ail	-244
ite	-245
▁J	-246
ear	-247
lo	-248
▁acc	-249
ach	-250
▁3	-251
port	-252
▁ab	-253
The	-254
▁app	-255
ich	-256
▁Y	-257
▁en	-258
▁wor	-259
one	-260
ame	-261
ook	-262
▁our	-263
fer	-264
ance	-265
ans	-266
ount	-267
▁tr	-268
ther	-269
▁ne	-270
ations	-271
ie	-272
▁"-	-273
▁has	-274
cl	-275
com	-276
so	-277
ical	-278
ign	-279
▁20	-280
ib	-281
ile	-282
ress	-283
▁man	-284
▁""	-285
ace	-286
duct	-287
hen	-288
▁res	-289
vel	-290
ase	-291
ub	-292
▁was	-293
ord	-294
▁te	-295
ake	-296
▁which	-297
lect	-298
ult	-299
..	-300
ary	-301
ark	-302
▁im	-303
▁per	-304
ong	-305
▁dis	-306
ue	-307
▁ro	-308
ber	-309
▁do	-310
tern	-311
ence	-312
▁cl	-313
ime	-314
ep	-315
▁up	-316
▁so	-317
▁serv	-318
ous	-319
▁more	-320
own	-321
ass	-322
▁Ch	-323
▁use	-324
gh	-325
▁any	-326
▁Th	-327
▁un	-328
pl	-329
ater	-330
▁prov	-331
ish	-332
▁qu	-333
▁part	-334
ose	-335
ata	-336
▁other	-337
▁We	-338
ft	-339
▁j	-340
▁4	-341
▁product	-342
▁off	-343
ll	-344
te	-345
ual	-346
formation	-347
▁spe	-348
ition	-349
▁sa	-350
▁me	-351
ood	-352
ov	-353
ould	-354
ric	-355
ome	-356
iew	-357
▁out	-358
▁5	-359
cess	-360
▁also	-361
ays	-362
▁about	-363
ks	-364
ents	-365
ens	-366
▁Hotel	-367
▁des	-368
▁new	-369
ang	-370
▁their	-371
der	-372
▁Re	-373
oll	-374
clud	-375
erson	-376
cre	-377
▁one	-378
▁fe	-379
ru	-380
▁its	-381
▁add	-382
yst	-383
av	-384
▁Pro	-385
▁pre	-386
▁ar	-387
int	-388
ont	-389
▁information	-390
ors	-391
▁Sh	-392
▁hotel	-393
ices	-394
▁201	-395
ings	-396
ian	-397
ustom	-398
▁It	-399
reat	-400
nder	-401
bs	-402
erm	-403
▁but	-404
▁data	-405
ystem	-406
▁time	-407
ities	-408
▁ag	-409
to	-410
▁includ	-411
cial	-412
ational	-413
▁who	-414
ory	-415
li	-416
any	-417
▁You	-418
▁loc	-419
ond	-420
ows	-421
line	-422
gr	-423
▁work	-424
▁Un	-425
ures	-426
▁min	-427
▁sp	-428
ild	-429
▁Se	-430
▁need	-431
oms	-432
▁they	-433
ck	-434
ade	-435
▁pr	-436
▁person	-437
ower	-438
enter	-439
ely	-440
▁ind	-441
▁supp	-442
▁may	-443
ates	-444
ject	-445
fter	-446
riv	-447
old	-448
▁pe	-449
ne	-450
ments	-451
▁/	-452
▁reg	-453
ces	-454
▁set	-455
▁em	-456
les	-457
▁tra	-458
oth	-459
▁li	-460
ific	-461
▁if	-462
row	-463
ating	-464
ven	-465
ere	-466
very	-467
iness	-468
lp	-469
ob	-470
ype	-471
▁year	-472
▁ph	-473
ove	-474
▁trans	-475
ple	-476
ons	-477
▁free	-478
ph	-479
),	-480
▁Wh	-481
▁them	-482
▁act	-483
▁co	-484
▁This	-485
▁system	-486
ick	-487
▁requ	-488
▁custom	-489
▁process	-490
▁col	-491
ery	-492
ound	-493
▁inst	-494
we	-495
ner	-496
lick	-497
xt	-498
end	-499
▁help	-500
ange	-501
usiness	-502
▁i	-503
ren	-504
▁when	-505
▁6	-506
▁comm	-507
ased	-508
use	-509
▁gu	-510
▁sc	-511
ced	-512
irst	-513
hed	-514
In	-515
▁Com	-516
▁go	-517
ople	-518
here	-519
▁his	-520
▁provid	-521
ement	-522
key	-523
▁–	-524
▁such	-525
ax	-526
ty	-527
ath	-528
▁Ar	-529
alk	-530
ning	-531
pen	-532
ility	-533
▁km	-534
ality	-535
▁Tur	-536
▁get	-537
▁most	-538
▁De	-539
▁Pl	-540
ollow	-541
▁av	-542
chn	-543
▁met	-544
▁Or	-545
▁high	-546
▁car	-547
ible	-548
▁bu	-549
▁10	-550
olog	-551
▁bet	-552
▁&	-553
load	-554
▁right	-555
uring	-556
▁than	-557
▁kn	-558
▁map	-559
▁Ex	-560
▁been	-561
▁offers	-562
▁best	-563
▁over	-564
▁cons	-565
ited	-566
ise	-567
▁bo	-568
▁am	-569
▁fl	-570
▁mon	-571
ious	-572
aw	-573
ps	-574
ool	-575
▁air	-576
▁within	-577
rough	-578
▁make	-579
ests	-580
ting	-581
ipp	-582
▁cre	-583
▁inter	-584
co	-585
ics	-586
ware	-587
▁feat	-588
cy	-589
▁mod	-590
▁there	-591
velop	-592
▁design	-593
ert	-594
ash	-595
ction	-596
▁into	-597
▁service	-598
▁only	-599
▁Ad	-600
▁7	-601
▁An	-602
▁people	-603
▁form	-604
ection	-605
)"	-606
▁under	-607
▁play	-608
▁follow	-609
▁dif	-610
ink	-611
▁Su	-612
iss	-613
hes	-614
ock	-615
▁business	-616
round	-617
wo	-618
ption	-619
▁want	-620
io	-621
▁19	-622
▁pie	-623
▁first	-624
way	-625
ular	-626
▁access	-627
ages	-628
ames	-629
▁down	-630
ful	-631
ener	-632
▁aut	-633
ah	-634
▁used	-635
rol	-636
▁bl	-637
▁sec	-638
▁after	-639
▁find	-640
ork	-641
▁avail	-642
▁no	-643
oss	-644
vent	-645
▁vis	-646
irect	-647
let	-648
bsite	-649
ient	-650
▁rem	-651
view	-652
▁like	-653
▁ac	-654
▁products	-655
ute	-656
▁En	-657
▁fil	-658
▁conf	-659
air	-660
▁proper	-661
▁8	-662
oy	-663
▁these	-664
▁che	-665
▁piece	-666
▁And	-667
up	-668
ally	-669
▁eff	-670
oint	-671
▁Q	-672
▁how	-673
▁det	-674
▁well	-675
rand	-676
fore	-677
ract	-678
get	-679
ized	-680
▁$	-681
▁He	-682
▁some	-683
▁then	-684
▁rel	-685
arket	-686
▁using	-687
...	-688
▁through	-689
ident	-690
▁support	-691
ble	-692
▁How	-693
▁city	-694
▁As	-695
▁develop	-696
▁exper	-697
▁world	-698
▁prot	-699
▁differ	-700
its	-701
▁available	-702
mer	-703
urn	-704
ix	-705
als	-706
utes	-707
▁personal	-708
min	-709
gan	-710
▁Sp	-711
▁ass	-712
gram	-713
▁company	-714
rit	-715
ines	-716
▁count	-717
ale	-718
▁num	-719
▁Al	-720
If	-721
lease	-722
▁rec	-723
pro	-724
az	-725
▁techn	-726
bl	-727
ily	-728
ize	-729
ts	-730
20	-731
els	-732
▁Be	-733
▁If	-734
ternational	-735
ys	-736
▁applic	-737
▁see	-738
indows	-739
land	-740
ivers	-741
ution	-742
ideo	-743
▁special	-744
▁dev	-745
▁each	-746
▁were	-747
ug	-748
ooking	-749
▁walk	-750
ience	-751
▁services	-752
vis	-753
▁game	-754
▁200	-755
▁Free	-756
▁should	-757
▁Go	-758
arch	-759
atch	-760
rib	-761
▁quality	-762
▁Cl	-763
▁Z	-764
▁website	-765
aterial	-766
ied	-767
▁For	-768
▁click	-769
▁pur	-770
ank	-771
▁offer	-772
▁Min	-773
▁New	-774
▁oper	-775
▁eas	-776
▁two	-777
▁X	-778
olic	-779
ton	-780
▁9	-781
▁month	-782
▁cent	-783
▁minutes	-784
▁many	-785
▁good	-786
less	-787
ull	-788
ouse	-789
▁sub	-790
ublic	-791
ium	-792
▁account	-793
▁bel	-794
ca	-795
▁sol	-796
▁prof	-797
uro	-798
▁every	-799
▁att	-800
ars	-801
US	-802
ged	-803
ife	-804
▁Con	-805
▁both	-806
▁Le	-807
▁US	-808
Sh	-809
▁rooms	-810
▁App	-811
▁dist	-812
aking	-813
pect	-814
▁different	-815
▁following	-816
▁stud	-817
▁property	-818
▁where	-819
▁what	-820
▁Windows	-821
part	-822
▁require	-823
ween	-824
Th	-825
wn	-826
▁saf	-827
▁inv	-828
▁order	-829
▁just	-830
▁What	-831
ative	-832
ards	-833
▁ser	-834
▁sur	-835
▁sm	-836
ough	-837
▁view	-838
▁|	-839
▁Tr	-840
▁On	-841
eld	-842
▁take	-843
▁iP	-844
▁back	-845
▁control	-846
bo	-847
▁years	-848
uss	-849
▁rest	-850
▁Te	-851
oun	-852
▁know	-853
▁between	-854
▁said	-855
▁Man	-856
▁All	-857
pos	-858
▁open	-859
▁area	-860
▁including	-861
▁start	-862
ator	-863
ets	-864
▁Bl	-865
▁number	-866
ina	-867
▁Type	-868
ipping	-869
rip	-870
▁market	-871
ries	-872
▁del	-873
▁Is	-874
ER	-875
▁cho	-876
ik	-877
▁ed	-878
ogle	-879
ital	-880
ology	-881
▁Res	-882
▁disc	-883
▁long	-884
▁sit	-885
ral	-886
▁main	-887
▁stand	-888
▁char	-889
ave	-890
alth	-891
red	-892
fect	-893
hip	-894
ict	-895
ftware	-896
▁program	-897
ading	-898
▁conn	-899
▁val	-900
▁mach	-901
▁contact	-902
omen	-903
ee	-904
ional	-905
ien	-906
ness	-907
day	-908
▁very	-909
▁provide	-910
▁list	-911
▁away	-912
▁br	-913
con	-914
▁sk	-915
iron	-916
pr	-917
▁select	-918
ways	-919
▁center	-920
gy	-921
edia	-922
▁mem	-923
ins	-924
▁fr	-925
▁art	-926
ety	-927
We	-928
▁before	-929
▁equ	-930
▁import	-931
icro	-932
▁rece	-933
ature	-934
▁my	-935
▁var	-936
▁made	-937
▁15	-938
inal	-939
▁ins	-940
▁again	-941
▁sim	-942
itt	-943
amp	-944
▁Ro	-945
arm	-946
hone	-947
▁online	-948
ording	-949
▁Serv	-950
▁cap	-951
ron	-952
▁Euro	-953
▁To	-954
:"	-955
ern	-956
▁perform	-957
tain	-958
urity	-959
▁book	-960
▁cur	-961
▁cor	-962
ants	-963
▁mill	-964
▁direct	-965
led	-966
▁water	-967
ues	-968
▁located	-969
rive	-970
▁features	-971
und	-972
uter	-973
▁site	-974
ives	-975
lish	-976
▁sign	-977
▁fun	-978
ene	-979
acy	-980
▁install	-981
ruct	-982
▁pay	-983
▁address	-984
▁without	-985
dit	-986
▁pres	-987
ince	-988
▁hand	-989
▁does	-990
cept	-991
▁Tom	-992
▁dec	-993
▁video	-994
▁Turkey	-995
▁ext	-996
ten	-997
elf	-998
ann	-999
▁cle	-1000
▁way	-1001
ural	-1002
▁adv	-1003
▁opt	-1004
It	-1005
▁Gu	-1006
aly	-1007
▁would	-1008
ining	-1009
ai	-1010
ield	-1011
▁room	-1012
▁review	-1013
▁download	-1014
▁Off	-1015
▁day	-1016
▁child	-1017
ternet	-1018
▁priv	-1019
ote	-1020
fact	-1021
uc	-1022
Show	-1023
ically	-1024
▁TV	-1025
agement	-1026
creen	-1027
▁her	-1028
000	-1029
eth	-1030
▁had	-1031
▁always	-1032
▁Pr	-1033
eng	-1034
que	-1035
▁Google	-1036
roup	-1037
▁organ	-1038
▁incre	-1039
ym	-1040
of	-1041
▁power	-1042
▁gr	-1043
▁exp	-1044
▁Cont	-1045
▁name	-1046
▁United	-1047
▁spec	-1048
▁own	-1049
ather	-1050
▁file	-1051
▁gener	-1052
▁collect	-1053
▁while	-1054
ung	-1055
▁Fe	-1056
▁pass	-1057
ours	-1058
▁def	-1059
▁now	-1060
▁ob	-1061
ode	-1062
other	-1063
▁based	-1064
▁elect	-1065
▁same	-1066
▁men	-1067
▁call	-1068
▁Fr	-1069
▁effect	-1070
▁Air	-1071
▁material	-1072
)."	-1073
ason	-1074
▁activ	-1075
ams	-1076
icle	-1077
▁airport	-1078
▁Europe	-1079
▁place	-1080
▁project	-1081
ros	-1082
▁Co	-1083
riend	-1084
idence	-1085
▁during	-1086
▁Ind	-1087
▁vers	-1088
▁visit	-1089
ability	-1090
ier	-1091
▁must	-1092
ilities	-1093
aur	-1094
ody	-1095
▁result	-1096
▁fam	-1097
▁bre	-1098
star	-1099
▁leg	-1100
uch	-1101
▁even	-1102
▁0	-1103
▁Can	-1104
▁ret	-1105
▁customer	-1106
▁12	-1107
▁lar	-1108
▁end	-1109
▁hair	-1110
raph	-1111
ccess	-1112
work	-1113
▁contin	-1114
ady	-1115
▁fac	-1116
▁indust	-1117
Ad	-1118
▁being	-1119
.1	-1120
▁around	-1121
▁poss	-1122
ization	-1123
come	-1124
.0	-1125
▁rep	-1126
▁email	-1127
▁int	-1128
▁stay	-1129
▁ca	-1130
ister	-1131
ases	-1132
).	-1133
▁iPhone	-1134
akes	-1135
▁type	-1136
▁24	-1137
man	-1138
▁str	-1139
▁users	-1140
▁software	-1141
▁him	-1142
cause	-1143
For	-1144
ogged	-1145
ON	-1146
arn	-1147
▁Eng	-1148
▁term	-1149
ES	-1150
This	-1151
▁inf	-1152
▁cert	-1153
▁There	-1154
rent	-1155
.5	-1156
ms	-1157
▁perfect	-1158
▁days	-1159
ider	-1160
iversity	-1161
▁great	-1162
▁(1	-1163
▁fact	-1164
bers	-1165
▁meet	-1166
pend	-1167
▁appro	-1168
▁level	-1169
AN	-1170
ved	-1171
▁include	-1172
ever	-1173
IN	-1174
▁games	-1175
ser	-1176
yp	-1177
oman	-1178
ished	-1179
ample	-1180
loy	-1181
▁ent	-1182
err	-1183
▁ra	-1184
oot	-1185
▁Mar	-1186
▁life	-1187
▁tri	-1188
▁experience	-1189
▁pack	-1190
▁top	-1191
▁resp	-1192
▁price	-1193
play	-1194
ify	-1195
▁here	-1196
▁she	-1197
obile	-1198
▁Ph	-1199
▁check	-1200
ufact	-1201
▁ve	-1202
▁reserv	-1203
▁upd	-1204
▁autom	-1205
▁rebl	-1206
▁reblogged	-1207
▁addition	-1208
ared	-1209
▁report	-1210
vert	-1211
ats	-1212
ights	-1213
▁Micro	-1214
▁Sc	-1215
▁provides	-1216
▁soc	-1217
▁build	-1218
▁found	-1219
▁Wi	-1220
ex	-1221
▁Comp	-1222
On	-1223
▁Am	-1224
AT	-1225
soft	-1226
▁ref	-1227
▁those	-1228
ified	-1229
▁device	-1230
▁computer	-1231
▁connect	-1232
ined	-1233
▁"""	-1234
▁pop	-1235
▁create	-1236
▁test	-1237
▁30	-1238
ward	-1239
▁production	-1240
▁Tra	-1241
olicy	-1242
▁fin	-1243
▁Des	-1244
▁Trip	-1245
▁sw	-1246
▁•	-1247
▁important	-1248
Fi	-1249
▁Ser	-1250
▁protect	-1251
▁run	-1252
utions	-1253
af	-1254
▁travel	-1255
▁ke	-1256
▁eng	-1257
▁Order	-1258
▁partic	-1259
▁ev	-1260
▁page	-1261
▁di	-1262
▁cost	-1263
viron	-1264
▁'	-1265
cer	-1266
▁tem	-1267
cri	-1268
oor	-1269
▁tool	-1270
aut	-1271
lete	-1272
stan	-1273
▁sl	-1274
▁accom	-1275
ving	-1276
roid	-1277
pport	-1278
ration	-1279
ploy	-1280
joy	-1281
▁customers	-1282
▁enter	-1283
▁drive	-1284
▁health	-1285
▁Col	-1286
▁law	-1287
mod	-1288
▁guests	-1289
▁safe	-1290
▁et	-1291
▁press	-1292
atic	-1293
▁key	-1294
ux	-1295
▁box	-1296
▁phot	-1297
▁machine	-1298
hor	-1299
▁proble	-1300
50	-1301
ites	-1302
▁bath	-1303
▁Ag	-1304
ually	-1305
▁content	-1306
rict	-1307
▁impro	-1308
▁detail	-1309
▁don	-1310
fort	-1311
St	-1312
ots	-1313
▁look	-1314
▁against	-1315
You	-1316
imes	-1317
▁partner	-1318
▁Turk	-1319
▁iss	-1320
10	-1321
ists	-1322
▁At	-1323
▁la	-1324
▁cour	-1325
minute	-1326
ane	-1327
▁profess	-1328
ivid	-1329
▁net	-1330
▁user	-1331
▁Shipping	-1332
▁files	-1333
▁point	-1334
▁est	-1335
att	-1336
▁manufact	-1337
▁security	-1338
yle	-1339
▁next	-1340
▁deli	-1341
angu	-1342
▁commun	-1343
▁mult	-1344
be	-1345
▁because	-1346
▁easy	-1347
ocum	-1348
outh	-1349
▁near	-1350
olid	-1351
▁International	-1352
▁mov	-1353
por	-1354
▁international	-1355
ves	-1356
To	-1357
▁Microsoft	-1358
▁application	-1359
▁full	-1360
▁light	-1361
▁reviews	-1362
▁ens	-1363
..."	-1364
aster	-1365
▁Germ	-1366
meric	-1367
orn	-1368
ission	-1369
▁last	-1370
▁Do	-1371
▁change	-1372
▁country	-1373
▁team	-1374
▁brow	-1375
lex	-1376
vironment	-1377
▁pol	-1378
ification	-1379
irt	-1380
irm	-1381
▁could	-1382
atter	-1383
ique	-1384
▁produ	-1385
▁public	-1386
▁Play	-1387
atform	-1388
imate	-1389
iving	-1390
▁18	-1391
▁cook	-1392
▁home	-1393
aj	-1394
orage	-1395
▁etc	-1396
▁ann	-1397
▁Booking	-1398
orld	-1399
▁three	-1400
▁Fl	-1401
room	-1402
vern	-1403
▁With	-1404
▁provided	-1405
▁real	-1406
ains	-1407
orth	-1408
▁const	-1409
ipment	-1410
aring	-1411
▁field	-1412
▁No	-1413
▁pat	-1414
.9	-1415
▁Russ	-1416
ior	-1417
!"	-1418
yn	-1419
ek	-1420
lier	-1421
OR	-1422
▁So	-1423
▁rele	-1424
▁Br	-1425
ination	-1426
▁treat	-1427
ones	-1428
▁100	-1429
▁11	-1430
▁Our	-1431
▁Che	-1432
ross	-1433
▁quest	-1434
▁print	-1435
▁show	-1436
▁Exp	-1437
ories	-1438
▁mus	-1439
▁bar	-1440
ism	-1441
chool	-1442
▁Sw	-1443
▁possible	-1444
reet	-1445
ashion	-1446
▁food	-1447
.2	-1448
▁Americ	-1449
,"	-1450
▁please	-1451
▁log	-1452
▁stat	-1453
▁shall	-1454
▁version	-1455
ury	-1456
-1	-1457
ott	-1458
▁friend	-1459
AR	-1460
▁sal	-1461
▁14	-1462
ision	-1463
▁location	-1464
▁countries	-1465
▁accommod	-1466
▁Hotels	-1467
▁Em	-1468
▁step	-1469
▁technology	-1470
▁University	-1471
▁keep	-1472
▁current	-1473
▁processing	-1474
iod	-1475
▁much	-1476
▁bas	-1477
▁screen	-1478
▁Inst	-1479
irl	-1480
▁mess	-1481
▁chang	-1482
lim	-1483
▁med	-1484
▁lead	-1485
roll	-1486
▁discount	-1487
▁Turkish	-1488
▁pos	-1489
▁phone	-1490
by	-1491
me	-1492
▁Car	-1493
dition	-1494
ED	-1495
back	-1496
."""	-1497
comm	-1498
▁according	-1499
▁enjoy	-1500
▁choose	-1501
hod	-1502
▁ste	-1503
▁children	-1504
bal	-1505
▁hotels	-1506
visor	-1507
roud	-1508
▁body	-1509
▁Comm	-1510
tings	-1511
▁dr	-1512
▁care	-1513
▁"1	-1514
▁group	-1515
icial	-1516
▁centre	-1517
aces	-1518
ec	-1519
stand	-1520
▁second	-1521
▁come	-1522
▁Cent	-1523
▁proud	-1524
OS	-1525
▁docum	-1526
ownload	-1527
▁typ	-1528
bit	-1529
As	-1530
▁oil	-1531
▁hist	-1532
ately	-1533
▁invest	-1534
▁send	-1535
▁One	-1536
▁text	-1537
gg	-1538
▁cr	-1539
tt	-1540
▁confidence	-1541
With	-1542
▁request	-1543
▁Park	-1544
▁prom	-1545
▁park	-1546
▁host	-1547
uman	-1548
▁working	-1549
▁able	-1550
▁pool	-1551
▁store	-1552
oci	-1553
▁lim	-1554
ches	-1555
▁Me	-1556
ino	-1557
tend	-1558
▁gl	-1559
▁aff	-1560
enef	-1561
▁management	-1562
ember	-1563
ential	-1564
era	-1565
▁web	-1566
▁situ	-1567
ze	-1568
▁Ne	-1569
▁private	-1570
ency	-1571
word	-1572
▁202	-1573
oney	-1574
ividual	-1575
▁Dis	-1576
▁development	-1577
▁method	-1578
ering	-1579
▁brand	-1580
ients	-1581
oh	-1582
de	-1583
bul	-1584
AL	-1585
▁13	-1586
▁head	-1587
conom	-1588
▁range	-1589
cent	-1590
▁clean	-1591
▁systems	-1592
raw	-1593
▁dem	-1594
ids	-1595
▁Pre	-1596
▁Gal	-1597
ulation	-1598
▁close	-1599
▁period	-1600
vers	-1601
▁case	-1602
▁environment	-1603
▁Service	-1604
▁port	-1605
aper	-1606
▁reservations	-1607
▁women	-1608
▁[	-1609
▁Android	-1610
▁Ass	-1611
ger	-1612
ush	-1613
itive	-1614
the	-1615
▁below	-1616
itted	-1617
▁performance	-1618
▁City	-1619
▁did	-1620
▁card	-1621
▁allow	-1622
▁Rep	-1623
ateg	-1624
▁interest	-1625
useum	-1626
ables	-1627
pping	-1628
▁25	-1629
rooms	-1630
▁Data	-1631
▁plan	-1632
cel	-1633
▁post	-1634
▁short	-1635
▁comfort	-1636
itor	-1637
au	-1638
▁line	-1639
aurant	-1640
ream	-1641
Advisor	-1642
ense	-1643
▁few	-1644
side	-1645
▁sing	-1646
▁World	-1647
▁platform	-1648
▁class	-1649
▁aud	-1650
▁Reg	-1651
▁lo	-1652
▁another	-1653
igital	-1654
▁mobile	-1655
,""	-1656
oud	-1657
▁needs	-1658
▁langu	-1659
face	-1660
ift	-1661
gar	-1662
IT	-1663
▁ide	-1664
▁social	-1665
pecial	-1666
▁TripAdvisor	-1667
cell	-1668
▁individual	-1669
▁employ	-1670
▁King	-1671
▁feature	-1672
▁Bo	-1673
▁16	-1674
▁Aut	-1675
▁large	-1676
atural	-1677
▁ele	-1678
▁industry	-1679
▁success	-1680
▁table	-1681
▁buy	-1682
▁Internet	-1683
ring	-1684
partment	-1685
▁give	-1686
▁Ge	-1687
▁transfer	-1688
▁search	-1689
▁Port	-1690
▁storage	-1691
?"	-1692
▁imp	-1693
▁sure	-1694
▁millions	-1695
▁popular	-1696
▁color	-1697
▁better	-1698
▁Ab	-1699
anies	-1700
▁Im	-1701
atest	-1702
▁hard	-1703
▁ident	-1704
.3	-1705
▁ris	-1706
▁necess	-1707
▁night	-1708
▁Part	-1709
▁function	-1710
IS	-1711
lished	-1712
▁whe	-1713
▁professional	-1714
ieve	-1715
.,	-1716
opy	-1717
▁share	-1718
▁Bu	-1719
EN	-1720
cing	-1721
book	-1722
▁Qu	-1723
▁PC	-1724
▁accept	-1725
aging	-1726
▁fore	-1727
commend	-1728
for	-1729
▁display	-1730
▁works	-1731
ditions	-1732
▁read	-1733
▁Par	-1734
▁example	-1735
ource	-1736
go	-1737
▁trad	-1738
▁mil	-1739
▁Net	-1740
▁writ	-1741
ibility	-1742
▁Pres	-1743
anced	-1744
ands	-1745
reen	-1746
▁Bar	-1747
▁options	-1748
▁European	-1749
▁non	-1750
▁Your	-1751
▁conditions	-1752
▁Apple	-1753
▁network	-1754
inc	-1755
▁orig	-1756
stanbul	-1757
▁trips	-1758
▁sat	-1759
▁old	-1760
▁since	-1761
▁present	-1762
lobal	-1763
ming	-1764
▁discounts	-1765
▁low	-1766
▁bro	-1767
astic	-1768
ump	-1769
▁Use	-1770
▁desk	-1771
med	-1772
▁meas	-1773
▁States	-1774
cle	-1775
▁Int	-1776
mber	-1777
▁happ	-1778
top	-1779
▁protection	-1780
▁Name	-1781
▁English	-1782
▁occ	-1783
,000	-1784
▁devices	-1785
▁Mac	-1786
▁Art	-1787
▁family	-1788
unch	-1789
▁dom	-1790
▁tele	-1791
▁various	-1792
▁members	-1793
▁hold	-1794
ived	-1795
▁When	-1796
▁equipment	-1797
ports	-1798
▁China	-1799
▁unt	-1800
▁button	-1801
▁They	-1802
▁toget	-1803
▁benef	-1804
▁comb	-1805
▁together	-1806
ides	-1807
ired	-1808
rop	-1809
▁Ant	-1810
inter	-1811
iven	-1812
▁required	-1813
▁compet	-1814
▁grow	-1815
▁rese	-1816
par	-1817
ling	-1818
rist	-1819
dom	-1820
▁Pol	-1821
ergy	-1822
▁sho	-1823
▁Center	-1824
ng	-1825
▁author	-1826
▁hig	-1827
▁creat	-1828
ising	-1829
gin	-1830
agn	-1831
▁vac	-1832
.6	-1833
▁System	-1834
▁hours	-1835
▁accommodation	-1836
▁el	-1837
▁bed	-1838
.8	-1839
▁option	-1840
▁front	-1841
▁High	-1842
When	-1843
br	-1844
▁Download	-1845
.4	-1846
▁improve	-1847
itc	-1848
ructure	-1849
▁mi	-1850
Cont	-1851
uses	-1852
▁local	-1853
▁50	-1854
▁rights	-1855
▁appear	-1856
▁consider	-1857
▁break	-1858
axy	-1859
▁still	-1860
ara	-1861
▁Inn	-1862
IC	-1863
▁IS	-1864
▁item	-1865
▁vari	-1866
▁sever	-1867
▁series	-1868
ye	-1869
idd	-1870
oon	-1871
▁ensure	-1872
Wh	-1873
▁necessary	-1874
▁turn	-1875
▁via	-1876
ners	-1877
▁heart	-1878
▁fre	-1879
▁respons	-1880
iting	-1881
▁purch	-1882
▁companies	-1883
▁meters	-1884
imum	-1885
▁try	-1886
▁beh	-1887
▁link	-1888
▁ear	-1889
ively	-1890
▁engine	-1891
▁students	-1892
ources	-1893
app	-1894
▁Online	-1895
ently	-1896
▁until	-1897
▁estab	-1898
▁Women	-1899
▁Aust	-1900
▁areas	-1901
▁Beach	-1902
oliday	-1903
ruction	-1904
une	-1905
▁Us	-1906
▁kind	-1907
▁Gener	-1908
ention	-1909
▁applications	-1910
▁recommend	-1911
put	-1912
▁ven	-1913
▁war	-1914
thing	-1915
▁MP	-1916
cription	-1917
▁Pal	-1918
▁terms	-1919
▁par	-1920
▁redu	-1921
▁La	-1922
ilt	-1923
30	-1924
urs	-1925
▁activities	-1926
▁Acc	-1927
▁complet	-1928
▁specific	-1929
lood	-1930
▁making	-1931
ney	-1932
now	-1933
▁cal	-1934
2,	-1935
▁subject	-1936
▁quick	-1937
▁facilities	-1938
▁bal	-1939
▁cam	-1940
yd	-1941
▁Up	-1942
▁energy	-1943
▁woman	-1944
▁Set	-1945
AS	-1946
ww	-1947
fast	-1948
▁due	-1949
▁known	-1950
aff	-1951
▁size	-1952
▁return	-1953
ager	-1954
box	-1955
▁z	-1956
▁Click	-1957
UR	-1958
▁Sk	-1959
tegr	-1960
▁say	-1961
ube	-1962
▁govern	-1963
▁expl	-1964
▁Mod	-1965
▁3-	-1966
▁legal	-1967
▁More	-1968
▁ant	-1969
▁value	-1970
▁amount	-1971
ET	-1972
▁Galaxy	-1973
▁means	-1974
▁cookies	-1975
ey	-1976
ication	-1977
.7	-1978
▁designed	-1979
▁pract	-1980
ences	-1981
▁think	-1982
3,	-1983
ders	-1984
▁apply	-1985
phone	-1986
▁object	-1987
▁big	-1988
▁above	-1989
▁integr	-1990
▁house	-1991
door	-1992
▁put	-1993
▁Brand	-1994
uture	-1995
▁types	-1996
▁date	-1997
▁(2	-1998
▁Travel	-1999
▁latest	-2000
▁educ	-2001
▁expect	-2002
▁common	-2003
▁details	-2004
▁pain	-2005
ference	-2006
▁May	-2007
▁som	-2008
▁side	-2009
osp	-2010
▁move	-2011
▁ask	-2012
yl	-2013
▁cover	-2014
▁skin	-2015
▁let	-2016
▁announ	-2017
▁receive	-2018
▁course	-2019
▁Priv	-2020
▁venue	-2021
▁wire	-2022
▁complete	-2023
eline	-2024
not	-2025
▁Med	-2026
▁won	-2027
▁less	-2028
▁results	-2029
▁Az	-2030
▁materials	-2031
▁Trans	-2032
▁tour	-2033
▁Yes	-2034
▁allows	-2035
▁Term	-2036
▁requirements	-2037
▁standard	-2038
▁certain	-2039
▁article	-2040
iple	-2041
▁update	-2042
▁cell	-2043
▁pan	-2044
acter	-2045
sh	-2046
▁prevent	-2047
60	-2048
▁She	-2049
▁treatment	-2050
ips	-2051
1,	-2052
▁es	-2053
▁beaut	-2054
▁girl	-2055
▁official	-2056
ball	-2057
▁Istanbul	-2058
▁sect	-2059
▁news	-2060
▁Sm	-2061
▁vol	-2062
▁Dr	-2063
rypt	-2064
▁regard	-2065
▁Men	-2066
olution	-2067
▁million	-2068
▁Sec	-2069
▁Services	-2070
▁internet	-2071
ideos	-2072
earch	-2073
▁left	-2074
▁+	-2075
rain	-2076
▁building	-2077
▁related	-2078
▁event	-2079
▁modern	-2080
mit	-2081
ersonal	-2082
▁reach	-2083
▁browser	-2084
ran	-2085
▁Black	-2086
▁particip	-2087
vision	-2088
▁contain	-2089
idge	-2090
▁Direct	-2091
▁cut	-2092
▁President	-2093
change	-2094
▁Out	-2095
edback	-2096
▁Airport	-2097
▁super	-2098
▁media	-2099
▁speed	-2100
AC	-2101
▁times	-2102
board	-2103
▁determ	-2104
▁among	-2105
arden	-2106
▁fast	-2107
ony	-2108
▁money	-2109
▁2015	-2110
▁film	-2111
crib	-2112
▁Bel	-2113
▁four	-2114
ada	-2115
ises	-2116
▁music	-2117
rap	-2118
▁months	-2119
▁increase	-2120
▁distance	-2121
ills	-2122
▁parts	-2123
EC	-2124
ilar	-2125
▁today	-2126
▁effic	-2127
▁>	-2128
▁single	-2129
▁live	-2130
▁Pe	-2131
▁record	-2132
▁payment	-2133
▁Mon	-2134
▁become	-2135
▁Information	-2136
ules	-2137
ird	-2138
atically	-2139
minist	-2140
▁feel	-2141
▁Product	-2142
ID	-2143
resent	-2144
urther	-2145
▁ful	-2146
cover	-2147
urg	-2148
▁consum	-2149
▁Add	-2150
▁mot	-2151
▁human	-2152
▁track	-2153
▁Cas	-2154
▁pot	-2155
▁called	-2156
▁understand	-2157
ags	-2158
▁solutions	-2159
ternal	-2160
▁safety	-2161
▁War	-2162
nov	-2163
ental	-2164
▁research	-2165
ried	-2166
ctor	-2167
uck	-2168
itchen	-2169
▁Techn	-2170
▁lab	-2171
▁El	-2172
ouble	-2173
"",	-2174
wards	-2175
▁pri	-2176
▁along	-2177
▁dress	-2178
▁Stud	-2179
ouch	-2180
▁image	-2181
▁Web	-2182
▁17	-2183
eration	-2184
ask	-2185
▁wind	-2186
▁school	-2187
▁includes	-2188
▁2014	-2189
ION	-2190
▁pub	-2191
ope	-2192
eter	-2193
▁questions	-2194
ised	-2195
▁View	-2196
vious	-2197
ached	-2198
ledge	-2199
▁going	-2200
ley	-2201
self	-2202
▁$1	-2203
▁language	-2204
==	-2205
istry	-2206
ajor	-2207
aim	-2208
▁learn	-2209
AM	-2210
che	-2211
▁dam	-2212
enn	-2213
Contact	-2214
ready	-2215
rial	-2216
ograph	-2217
▁199	-2218
ength	-2219
▁tre	-2220
▁steps	-2221
EM	-2222
▁natural	-2223
▁econom	-2224
sw	-2225
▁Dep	-2226
▁South	-2227
▁Fin	-2228
▁Museum	-2229
▁Street	-2230
▁Germany	-2231
▁pric	-2232
▁space	-2233
Our	-2234
Open	-2235
▁travelers	-2236
▁watch	-2237
▁clos	-2238
▁remov	-2239
▁My	-2240
▁agre	-2241
▁future	-2242
▁code	-2243
aced	-2244
▁Office	-2245
pplier	-2246
▁easily	-2247
ees	-2248
amin	-2249
▁directly	-2250
ffic	-2251
▁sent	-2252
ators	-2253
▁state	-2254
pose	-2255
▁But	-2256
▁shipping	-2257
▁confirm	-2258
▁tot	-2259
Re	-2260
used	-2261
▁San	-2262
▁pict	-2263
aken	-2264
▁Expedia	-2265
oid	-2266
pre	-2267
;"	-2268
raft	-2269
▁Best	-2270
▁Mus	-2271
ops	-2272
istance	-2273
▁contract	-2274
▁might	-2275
▁TH	-2276
▁lot	-2277
▁Fashion	-2278
▁House	-2279
▁Policy	-2280
▁Material	-2281
aser	-2282
▁Fore	-2283
ging	-2284
pper	-2285
201	-2286
clus	-2287
▁depend	-2288
▁policy	-2289
▁looking	-2290
pportun	-2291
▁—	-2292
▁makes	-2293
aby	-2294
aid	-2295
▁General	-2296
lin	-2297
▁several	-2298
aste	-2299
▁Red	-2300
ured	-2301
▁word	-2302
icles	-2303
itch	-2304
▁digital	-2305
▁cult	-2306
▁red	-2307
▁transport	-2308
▁already	-2309
▁changes	-2310
How	-2311
erc	-2312
itions	-2313
▁solution	-2314
alf	-2315
▁week	-2316
▁station	-2317
▁problem	-2318
▁climate	-2319
▁small	-2320
▁comes	-2321
ipped	-2322
amsung	-2323
▁These	-2324
▁loss	-2325
-2	-2326
amic	-2327
▁strong	-2328
▁given	-2329
▁"2	-2330
▁settings	-2331
oking	-2332
▁Italy	-2333
▁God	-2334
▁dest	-2335
▁meeting	-2336
lu	-2337
▁HD	-2338
asing	-2339
▁problems	-2340
▁Are	-2341
lied	-2342
▁Read	-2343
▁Rem	-2344
apan	-2345
ster	-2346
▁*	-2347
ume	-2348
▁risk	-2349
▁added	-2350
▁dise	-2351
iful	-2352
▁IP	-2353
iles	-2354
▁Pric	-2355
▁Republic	-2356
ires	-2357
▁veh	-2358
gest	-2359
ges	-2360
There	-2361
amb	-2362
▁prep	-2363
vell	-2364
EL	-2365
▁age	-2366
▁Per	-2367
arget	-2368
▁reason	-2369
▁jo	-2370
▁blood	-2371
ffee	-2372
▁tools	-2373
▁Personal	-2374
oles	-2375
▁advant	-2376
▁mar	-2377
▁black	-2378
▁Ac	-2379
arth	-2380
▁unique	-2381
rect	-2382
atory	-2383
vant	-2384
▁global	-2385
ram	-2386
▁sens	-2387
aged	-2388
▁wide	-2389
▁continu	-2390
▁opportun	-2391
▁videos	-2392
▁sound	-2393
▁deliver	-2394
arant	-2395
illa	-2396
▁temper	-2397
ibr	-2398
▁created	-2399
▁original	-2400
edd	-2401
itable	-2402
just	-2403
na	-2404
▁Af	-2405
▁things	-2406
▁National	-2407
irc	-2408
▁American	-2409
quare	-2410
ria	-2411
▁Server	-2412
inks	-2413
ige	-2414
TM	-2415
▁general	-2416
▁steel	-2417
▁delivery	-2418
▁automatically	-2419
▁white	-2420
▁Power	-2421
▁additional	-2422
▁win	-2423
▁Face	-2424
▁register	-2425
▁sell	-2426
▁Custom	-2427
▁Kingdom	-2428
ana	-2429
▁major	-2430
ogn	-2431
▁document	-2432
▁held	-2433
▁position	-2434
adem	-2435
tle	-2436
ronic	-2437
▁national	-2438
Ch	-2439
▁Video	-2440
▁clear	-2441
▁x	-2442
ault	-2443
poses	-2444
ched	-2445
ians	-2446
▁friends	-2447
▁foc	-2448
hib	-2449
▁arch	-2450
▁Prof	-2451
Al	-2452
▁rate	-2453
ese	-2454
▁connection	-2455
▁least	-2456
RO	-2457
▁copy	-2458
▁Business	-2459
iet	-2460
olicies	-2461
▁holiday	-2462
▁love	-2463
zz	-2464
▁ago	-2465
▁smart	-2466
▁camp	-2467
▁depos	-2468
▁hot	-2469
▁Please	-2470
alt	-2471
acks	-2472
▁phys	-2473
met	-2474
▁sales	-2475
▁Ste	-2476
▁cannot	-2477
▁condition	-2478
▁aim	-2479
▁4-	-2480
▁flo	-2481
▁history	-2482
▁2017	-2483
▁server	-2484
▁programs	-2485
▁manufactur	-2486
▁model	-2487
▁CO	-2488
mail	-2489
▁region	-2490
uk	-2491
ike	-2492
▁Prot	-2493
▁restaurant	-2494
cast	-2495
▁exist	-2496
▁parking	-2497
rench	-2498
ison	-2499
▁Act	-2500
▁section	-2501
//	-2502
▁ach	-2503
▁subs	-2504
ox	-2505
▁sum	-2506
▁anal	-2507
attery	-2508
ape	-2509
illing	-2510
▁mass	-2511
▁situated	-2512
▁conc	-2513
▁relations	-2514
▁sym	-2515
▁privacy	-2516
▁Met	-2517
▁represent	-2518
▁enc	-2519
ground	-2520
▁Japan	-2521
▁wall	-2522
▁across	-2523
▁menu	-2524
▁password	-2525
4,	-2526
▁shower	-2527
uly	-2528
▁whether	-2529
▁Guests	-2530
▁Samsung	-2531
▁total	-2532
▁Sy	-2533
▁cable	-2534
://	-2535
▁training	-2536
80	-2537
▁Design	-2538
cellent	-2539
▁dry	-2540
▁Terms	-2541
▁By	-2542
ancial	-2543
▁Two	-2544
▁Joh	-2545
▁guest	-2546
▁though	-2547
▁express	-2548
verage	-2549
▁block	-2550
▁simple	-2551
▁comfortable	-2552
▁young	-2553
▁wireless	-2554
artment	-2555
▁Open	-2556
▁travell	-2557
▁foot	-2558
ocated	-2559
▁too	-2560
▁others	-2561
ither	-2562
▁beach	-2563
iol	-2564
anks	-2565
my	-2566
▁Star	-2567
eli	-2568
▁having	-2569
aily	-2570
▁technical	-2571
▁conven	-2572
▁sun	-2573
▁choice	-2574
▁iron	-2575
erg	-2576
▁Allah	-2577
▁Gree	-2578
PS	-2579
▁target	-2580
▁purposes	-2581
▁outside	-2582
older	-2583
▁chann	-2584
▁wa	-2585
40	-2586
illed	-2587
ha	-2588
▁accord	-2589
ittle	-2590
▁Gr	-2591
▁operation	-2592
▁Priceline	-2593
/5	-2594
▁lik	-2595
▁Russian	-2596
▁outdoor	-2597
men	-2598
ondon	-2599
▁Management	-2600
cret	-2601
arent	-2602
td	-2603
rum	-2604
ored	-2605
lee	-2606
▁player	-2607
▁begin	-2608
▁train	-2609
▁operating	-2610
▁40	-2611
ili	-2612
PN	-2613
pecially	-2614
▁respect	-2615
▁After	-2616
ension	-2617
hour	-2618
ivity	-2619
▁projects	-2620
ari	-2621
▁Bre	-2622
asons	-2623
▁Rest	-2624
▁convert	-2625
ocity	-2626
cor	-2627
▁similar	-2628
▁kitchen	-2629
▁previous	-2630
▁land	-2631
An	-2632
▁innov	-2633
plement	-2634
▁taken	-2635
▁Pack	-2636
""."	-2637
▁Inter	-2638
.[	-2639
▁camera	-2640
▁playing	-2641
VD	-2642
After	-2643
entary	-2644
▁Oct	-2645
▁Resort	-2646
▁Spe	-2647
ING	-2648
mm	-2649
based	-2650
ule	-2651
▁apartment	-2652
▁staff	-2653
▁obtain	-2654
▁SA	-2655
ayer	-2656
▁message	-2657
▁Site	-2658
▁accordance	-2659
airs	-2660
▁bott	-2661
▁Law	-2662
12	-2663
ole	-2664
ysis	-2665
▁From	-2666
acity	-2667
error	-2668
▁extra	-2669
▁24-	-2670
▁government	-2671
iency	-2672
▁Har	-2673
▁Cal	-2674
▁Christ	-2675
▁started	-2676
▁tax	-2677
xim	-2678
▁never	-2679
▁Privacy	-2680
▁distrib	-2681
ads	-2682
▁later	-2683
▁bring	-2684
▁France	-2685
▁Isra	-2686
▁face	-2687
▁driv	-2688
▁5-	-2689
▁max	-2690
▁prices	-2691
▁Cor	-2692
▁affect	-2693
ham	-2694
▁Spain	-2695
▁done	-2696
▁Games	-2697
▁North	-2698
▁Val	-2699
ille	-2700
▁Group	-2701
▁built	-2702
▁education	-2703
▁Offline	-2704
▁further	-2705
Pro	-2706
▁member	-2707
▁Pat	-2708
fully	-2709
▁study	-2710
▁particular	-2711
▁fit	-2712
▁London	-2713
imming	-2714
▁supply	-2715
▁bus	-2716
▁Style	-2717
igeo	-2718
▁purpose	-2719
▁upon	-2720
resh	-2721
digeo	-2722
▁marketing	-2723
orks	-2724
▁leading	-2725
lands	-2726
▁Russia	-2727
▁released	-2728
abric	-2729
▁repl	-2730
urch	-2731
▁Dress	-2732
avor	-2733
▁2018	-2734
▁uses	-2735
aint	-2736
▁save	-2737
▁instit	-2738
▁goods	-2739
▁walking	-2740
▁cause	-2741
▁dog	-2742
▁regul	-2743
▁electric	-2744
▁vacation	-2745
istics	-2746
bon	-2747
ples	-2748
▁often	-2749
▁partners	-2750
uty	-2751
▁Travelocity	-2752
medi	-2753
ological	-2754
itect	-2755
▁remove	-2756
▁French	-2757
▁weight	-2758
▁action	-2759
time	-2760
ival	-2761
▁Facebook	-2762
▁factory	-2763
▁htt	-2764
▁prefer	-2765
▁Ed	-2766
▁reli	-2767
▁continue	-2768
▁AP	-2769
▁associ	-2770
6,	-2771
▁tit	-2772
▁announced	-2773
▁reached	-2774
▁controll	-2775
ober	-2776
▁character	-2777
▁experien	-2778
atives	-2779
▁Jan	-2780
▁rent	-2781
DF	-2782
▁ISO	-2783
▁indic	-2784
▁Plus	-2785
emb	-2786
oda	-2787
abled	-2788
▁coffee	-2789
▁source	-2790
▁higher	-2791
▁prior	-2792
▁structure	-2793
reng	-2794
▁Kore	-2795
ooth	-2796
ething	-2797
▁audio	-2798
▁beautiful	-2799
▁wel	-2800
▁Game	-2801
▁running	-2802
▁why	-2803
▁ID	-2804
▁trading	-2805
▁images	-2806
▁refer	-2807
▁Select	-2808
▁anim	-2809
▁coll	-2810
aker	-2811
▁included	-2812
▁providing	-2813
▁release	-2814
▁bag	-2815
river	-2816
▁television	-2817
9,	-2818
▁Sept	-2819
▁items	-2820
itary	-2821
▁Vis	-2822
▁Step	-2823
ague	-2824
▁green	-2825
▁travellers	-2826
▁Program	-2827
▁Lord	-2828
▁Support	-2829
▁Item	-2830
▁AN	-2831
▁Security	-2832
▁multiple	-2833
ctions	-2834
▁issues	-2835
TS	-2836
▁separ	-2837
icon	-2838
▁guarant	-2839
val	-2840
▁Rooms	-2841
▁offered	-2842
▁effective	-2843
▁Mach	-2844
▁breakfast	-2845
▁takes	-2846
▁John	-2847
uel	-2848
▁temperature	-2849
itional	-2850
partments	-2851
▁Ven	-2852
▁sil	-2853
▁developed	-2854
ray	-2855
▁charge	-2856
.00	-2857
izes	-2858
▁implement	-2859
▁lic	-2860
▁Arab	-2861
coming	-2862
▁wr	-2863
▁Note	-2864
▁Austral	-2865
▁proced	-2866
▁received	-2867
ensive	-2868
▁sites	-2869
▁Home	-2870
▁fire	-2871
olf	-2872
▁photos	-2873
▁cases	-2874
▁correct	-2875
▁German	-2876
▁once	-2877
▁past	-2878
▁glass	-2879
▁board	-2880
ilet	-2881
▁deposit	-2882
ably	-2883
▁OF	-2884
▁taking	-2885
▁Elect	-2886
MS	-2887
mark	-2888
iddle	-2889
▁cancer	-2890
▁trade	-2891
ma	-2892
▁variety	-2893
▁circ	-2894
▁levels	-2895
▁protected	-2896
ama	-2897
And	-2898
▁Cap	-2899
▁Station	-2900
▁points	-2901
enities	-2902
▁Supplier	-2903
su	-2904
oice	-2905
▁season	-2906
epend	-2907
▁pressure	-2908
▁construction	-2909
▁sector	-2910
▁Sal	-2911
irus	-2912
▁tab	-2913
ava	-2914
▁IN	-2915
uality	-2916
▁Watch	-2917
fl	-2918
▁II	-2919
fic	-2920
▁central	-2921
rig	-2922
▁paper	-2923
▁format	-2924
▁contrib	-2925
▁compon	-2926
izing	-2927
▁excellent	-2928
▁Er	-2929
aving	-2930
▁domain	-2931
▁Some	-2932
mission	-2933
rency	-2934
othing	-2935
over	-2936
▁Sa	-2937
sel	-2938
AD	-2939
iber	-2940
▁ce	-2941
▁crit	-2942
▁fix	-2943
▁employees	-2944
▁Company	-2945
▁State	-2946
▁monitor	-2947
het	-2948
IP	-2949
▁something	-2950
yes	-2951
▁exam	-2952
▁costs	-2953
chan	-2954
cript	-2955
▁Grand	-2956
▁leave	-2957
▁Av	-2958
▁Super	-2959
gen	-2960
▁talk	-2961
▁cas	-2962
Com	-2963
iation	-2964
IF	-2965
▁Mos	-2966
▁shopping	-2967
▁tell	-2968
▁21	-2969
▁rad	-2970
▁longer	-2971
▁whole	-2972
▁especially	-2973
▁entire	-2974
▁Bit	-2975
▁answ	-2976
▁September	-2977
▁Sim	-2978
▁cou	-2979
▁recogn	-2980
▁Sho	-2981
custom	-2982
leep	-2983
▁knowledge	-2984
▁placed	-2985
istic	-2986
▁Xbox	-2987
▁really	-2988
▁polit	-2989
▁collection	-2990
▁Orders	-2991
proof	-2992
▁ever	-2993
▁Not	-2994
▁Software	-2995
ler	-2996
RE	-2997
▁foreign	-2998
▁purchase	-2999
▁crypt	-3000
▁THE	-3001
▁administ	-3002
most	-3003
▁Now	-3004
▁Cy	-3005
▁photo	-3006
▁claim	-3007
▁Get	-3008
▁June	-3009
▁optim	-3010
▁mean	-3011
adu	-3012
▁bank	-3013
ormal	-3014
cies	-3015
▁advanced	-3016
▁Gold	-3017
▁arriv	-3018
▁(3	-3019
▁installation	-3020
▁Uk	-3021
▁Char	-3022
▁March	-3023
▁attract	-3024
▁Top	-3025
allet	-3026
▁Water	-3027
akers	-3028
▁style	-3029
▁views	-3030
▁October	-3031
covery	-3032
▁credit	-3033
mical	-3034
zer	-3035
▁See	-3036
coin	-3037
▁little	-3038
▁USB	-3039
▁wee	-3040
ances	-3041
App	-3042
aming	-3043
ief	-3044
▁daily	-3045
▁fund	-3046
ologies	-3047
la	-3048
▁window	-3049
atab	-3050
▁Tw	-3051
▁Market	-3052
▁maintain	-3053
ryer	-3054
▁regarding	-3055
rie	-3056
ica	-3057
▁ver	-3058
▁Fac	-3059
▁mount	-3060
cil	-3061
▁Aug	-3062
uration	-3063
▁self	-3064
▁DVD	-3065
▁2-	-3066
▁processes	-3067
ties	-3068
▁remain	-3069
▁five	-3070
▁ways	-3071
ening	-3072
pril	-3073
iam	-3074
▁config	-3075
At	-3076
▁office	-3077
IL	-3078
▁quickly	-3079
▁Access	-3080
▁Health	-3081
▁fully	-3082
▁mark	-3083
house	-3084
tended	-3085
▁living	-3086
▁Road	-3087
▁inform	-3088
▁miss	-3089
pri	-3090
▁secure	-3091
irtual	-3092
▁ready	-3093
atures	-3094
itamin	-3095
▁22	-3096
▁sea	-3097
irth	-3098
▁#	-3099
▁EU	-3100
▁resources	-3101
▁York	-3102
▁apps	-3103
▁offering	-3104
hing	-3105
Ex	-3106
▁Cre	-3107
▁Don	-3108
▁profile	-3109
▁issue	-3110
rant	-3111
▁capacity	-3112
.""	-3113
gress	-3114
umn	-3115
▁Minister	-3116
Be	-3117
inary	-3118
MP	-3119
▁Sol	-3120
▁Word	-3121
▁district	-3122
right	-3123
▁streng	-3124
▁players	-3125
ceed	-3126
▁East	-3127
__	-3128
iding	-3129
▁1,	-3130
IA	-3131
▁potential	-3132
▁documents	-3133
▁base	-3134
▁methods	-3135
nect	-3136
▁battery	-3137
▁Union	-3138
ovember	-3139
ead	-3140
▁viol	-3141
alyt	-3142
▁flat	-3143
▁helps	-3144
▁categ	-3145
▁jour	-3146
aign	-3147
▁party	-3148
▁Saf	-3149
▁financial	-3150
▁Gl	-3151
▁sex	-3152
▁60	-3153
son	-3154
▁Enter	-3155
▁stop	-3156
itation	-3157
▁percent	-3158
▁intro	-3159
▁transact	-3160
▁mode	-3161
▁discuss	-3162
▁standards	-3163
▁princ	-3164
▁satis	-3165
▁OfflineUS	-3166
▁histor	-3167
5,	-3168
▁nature	-3169
▁Show	-3170
▁Afric	-3171
▁ground	-3172
▁Opt	-3173
▁bill	-3174
▁However	-3175
▁places	-3176
▁Here	-3177
▁deg	-3178
▁Back	-3179
▁took	-3180
▁lower	-3181
▁altern	-3182
▁Cour	-3183
umin	-3184
customized	-3185
▁advantage	-3186
uary	-3187
▁adjust	-3188
▁WiFi	-3189
▁init	-3190
▁Phot	-3191
ingo	-3192
▁Host	-3193
▁Pan	-3194
All	-3195
▁West	-3196
▁appoint	-3197
lation	-3198
▁heat	-3199
▁July	-3200
raz	-3201
▁note	-3202
▁pages	-3203
ocol	-3204
▁Cons	-3205
ude	-3206
▁Feedback	-3207
▁mix	-3208
▁Check	-3209
ply	-3210
▁responsible	-3211
▁either	-3212
order	-3213
▁believe	-3214
▁Department	-3215
▁April	-3216
▁established	-3217
igation	-3218
uxury	-3219
OT	-3220
▁organization	-3221
▁came	-3222
abor	-3223
▁advert	-3224
▁fat	-3225
oring	-3226
▁roll	-3227
▁yourself	-3228
though	-3229
▁Central	-3230
▁27	-3231
▁events	-3232
▁Day	-3233
▁conduct	-3234
ores	-3235
▁export	-3236
▁Store	-3237
hest	-3238
▁deal	-3239
▁models	-3240
▁accur	-3241
▁Mary	-3242
▁far	-3243
▁Mal	-3244
antly	-3245
▁fail	-3246
isions	-3247
▁Centre	-3248
▁Manager	-3249
ades	-3250
hers	-3251
light	-3252
▁star	-3253
▁tw	-3254
▁inside	-3255
▁invol	-3256
bsites	-3257
▁double	-3258
▁Website	-3259
▁touch	-3260
▁describ	-3261
Min	-3262
▁draw	-3263
▁suitable	-3264
dryer	-3265
▁usually	-3266
umber	-3267
acing	-3268
▁November	-3269
atible	-3270
▁signific	-3271
cember	-3272
8,	-3273
▁relevant	-3274
itter	-3275
▁mom	-3276
aches	-3277
TC	-3278
nam	-3279
edding	-3280
▁carry	-3281
▁everything	-3282
▁garden	-3283
"""	-3284
▁reasons	-3285
▁gas	-3286
▁exchange	-3287
duction	-3288
Rated	-3289
EO	-3290
EG	-3291
ancy	-3292
ona	-3293
izations	-3294
ustain	-3295
▁surface	-3296
mitted	-3297
▁abs	-3298
▁graph	-3299
▁final	-3300
ij	-3301
▁role	-3302
ya	-3303
▁disease	-3304
99	-3305
hens	-3306
▁complim	-3307
ero	-3308
iqu	-3309
▁wood	-3310
▁Ke	-3311
▁cat	-3312
onse	-3313
ued	-3314
▁Israel	-3315
▁America	-3316
ula	-3317
roups	-3318
▁Azure	-3319
He	-3320
▁effects	-3321
▁wid	-3322
▁package	-3323
▁2016	-3324
▁Mil	-3325
▁sale	-3326
▁sports	-3327
▁"3	-3328
str	-3329
▁immedi	-3330
▁machines	-3331
rome	-3332
▁needed	-3333
▁"•	-3334
▁Bath	-3335
▁equipped	-3336
▁contains	-3337
▁promot	-3338
▁convenient	-3339
apt	-3340
▁Bed	-3341
▁benefits	-3342
▁installed	-3343
▁shows	-3344
▁ple	-3345
▁Coun	-3346
▁Develop	-3347
anc	-3348
▁industrial	-3349
▁fashion	-3350
gage	-3351
urance	-3352
▁Cle	-3353
sk	-3354
Gu	-3355
▁limited	-3356
OL	-3357
▁swimming	-3358
read	-3359
ements	-3360
▁neg	-3361
▁Sing	-3362
▁Stand	-3363
▁reduce	-3364
▁complimentary	-3365
oo	-3366
▁commer	-3367
estern	-3368
▁lies	-3369
▁Max	-3370
▁question	-3371
▁coop	-3372
rast	-3373
▁2022	-3374
▁Fire	-3375
AP	-3376
uge	-3377
alu	-3378
lt	-3379
pond	-3380
▁Ang	-3381
inese	-3382
org	-3383
opt	-3384
▁medical	-3385
Item	-3386
▁match	-3387
▁Call	-3388
mium	-3389
icip	-3390
▁architect	-3391
▁Indust	-3392
▁cleaning	-3393
ani	-3394
ipe	-3395
ficult	-3396
▁December	-3397
oph	-3398
▁regular	-3399
arge	-3400
▁plastic	-3401
▁published	-3402
▁Of	-3403
hood	-3404
wide	-3405
GB	-3406
▁Room	-3407
ellite	-3408
▁iOS	-3409
wise	-3410
▁Roman	-3411
▁August	-3412
▁cast	-3413
▁activity	-3414
▁yet	-3415
anish	-3416
▁Quality	-3417
▁Control	-3418
▁Hot	-3419
11	-3420
▁toilet	-3421
▁enough	-3422
▁Start	-3423
Su	-3424
▁early	-3425
▁heav	-3426
▁wish	-3427
iver	-3428
▁basis	-3429
▁produce	-3430
▁Agoda	-3431
▁rout	-3432
▁Applic	-3433
ban	-3434
▁calc	-3435
▁ball	-3436
▁active	-3437
▁consent	-3438
▁cart	-3439
▁Make	-3440
▁Cam	-3441
▁ess	-3442
▁Australia	-3443
▁connected	-3444
▁Work	-3445
▁capital	-3446
▁Brit	-3447
▁analysis	-3448
▁icon	-3449
duc	-3450
▁effort	-3451
▁User	-3452
ibrary	-3453
attle	-3454
▁UK	-3455
▁Sil	-3456
screen	-3457
▁baby	-3458
▁hands	-3459
▁exerc	-3460
arning	-3461
▁Sant	-3462
▁blue	-3463
▁movie	-3464
date	-3465
wear	-3466
▁written	-3467
verter	-3468
▁2013	-3469
Tube	-3470
▁focus	-3471
▁manage	-3472
▁soon	-3473
road	-3474
errace	-3475
amm	-3476
▁ut	-3477
▁$2	-3478
▁Suites	-3479
▁sugg	-3480
▁campaign	-3481
ided	-3482
▁Ber	-3483
▁Soc	-3484
▁Tingo	-3485
▁doesn	-3486
▁launch	-3487
eters	-3488
▁says	-3489
bre	-3490
▁edit	-3491
Pl	-3492
▁difficult	-3493
ny	-3494
▁delete	-3495
ivil	-3496
▁avoid	-3497
Acc	-3498
▁ideal	-3499
▁relationship	-3500
▁lap	-3501
selves	-3502
erve	-3503
▁Dub	-3504
▁impact	-3505
▁damage	-3506
▁communication	-3507
▁plant	-3508
▁flex	-3509
▁2020	-3510
▁Portug	-3511
alian	-3512
▁command	-3513
▁amenities	-3514
▁Find	-3515
▁movies	-3516
▁Det	-3517
tenance	-3518
hern	-3519
▁favor	-3520
▁Sl	-3521
▁mind	-3522
▁January	-3523
eral	-3524
▁community	-3525
):	-3526
▁obl	-3527
▁Arch	-3528
▁websites	-3529
rug	-3530
▁Del	-3531
70	-3532
▁commercial	-3533
▁establish	-3534
▁agree	-3535
▁flow	-3536
Online	-3537
IM	-3538
▁Bank	-3539
▁cool	-3540
cs	-3541
▁gives	-3542
▁bathrooms	-3543
▁hairdryer	-3544
▁convers	-3545
▁prec	-3546
▁cy	-3547
▁achieve	-3548
▁metal	-3549
rem	-3550
▁words	-3551
▁messages	-3552
bru	-3553
▁seen	-3554
65	-3555
▁measure	-3556
▁Lear	-3557
▁Prov	-3558
▁Paris	-3559
inner	-3560
▁certific	-3561
▁manufacturer	-3562
▁existing	-3563
istration	-3564
ender	-3565
▁Cr	-3566
▁tap	-3567
▁highly	-3568
atabase	-3569
▁That	-3570
▁applied	-3571
ios	-3572
▁throughout	-3573
▁İ	-3574
▁maximum	-3575
▁picture	-3576
nal	-3577
▁Club	-3578
pped	-3579
alytics	-3580
▁Tool	-3581
sc	-3582
▁PDF	-3583
▁flight	-3584
▁getting	-3585
▁surg	-3586
mon	-3587
▁exc	-3588
▁mat	-3589
ighb	-3590
▁ability	-3591
▁policies	-3592
▁Why	-3593
prise	-3594
▁balcon	-3595
▁Pay	-3596
istan	-3597
▁UN	-3598
asy	-3599
look	-3600
uff	-3601
▁School	-3602
amed	-3603
vey	-3604
aurants	-3605
▁mor	-3606
▁operations	-3607
▁tick	-3608
▁thous	-3609
▁shared	-3610
Fe	-3611
▁"(	-3612
▁gre	-3613
▁groups	-3614
ecut	-3615
▁physical	-3616
lies	-3617
▁frequ	-3618
▁selected	-3619
▁2012	-3620
undry	-3621
▁appropri	-3622
xy	-3623
iling	-3624
▁decor	-3625
▁decision	-3626
▁attack	-3627
▁skills	-3628
▁average	-3629
▁sample	-3630
▁enh	-3631
ishing	-3632
▁emb	-3633
asp	-3634
▁got	-3635
Cl	-3636
▁round	-3637
▁Account	-3638
ua	-3639
▁gen	-3640
▁powerful	-3641
▁2010	-3642
▁India	-3643
▁Ret	-3644
▁Card	-3645
▁Color	-3646
vention	-3647
▁PS	-3648
▁op	-3649
▁clients	-3650
ico	-3651
▁job	-3652
▁plug	-3653
▁stream	-3654
▁Chinese	-3655
▁growth	-3656
▁heating	-3657
▁Long	-3658
CD	-3659
▁Will	-3660
▁panel	-3661
▁names	-3662
▁printing	-3663
▁cards	-3664
▁TO	-3665
▁100%	-3666
▁furn	-3667
▁demand	-3668
▁relax	-3669
▁supports	-3670
▁supported	-3671
▁decl	-3672
raine	-3673
omb	-3674
▁Str	-3675
▁agreement	-3676
▁Search	-3677
▁statement	-3678
osed	-3679
oose	-3680
]"	-3681
ourses	-3682
▁death	-3683
▁expected	-3684
agon	-3685
▁Oper	-3686
▁setting	-3687
▁largest	-3688
▁completely	-3689
▁efficient	-3690
▁Den	-3691
▁Just	-3692
▁cheap	-3693
▁evalu	-3694
▁Cast	-3695
▁motor	-3696
By	-3697
▁Full	-3698
▁stars	-3699
▁AM	-3700
▁Associ	-3701
▁Jo	-3702
▁writing	-3703
▁floor	-3704
▁currently	-3705
clusive	-3706
ened	-3707
▁gain	-3708
▁interact	-3709
wh	-3710
▁LED	-3711
▁VPN	-3712
▁pow	-3713
ano	-3714
▁highest	-3715
tr	-3716
▁consult	-3717
oyal	-3718
Ar	-3719
▁Est	-3720
▁Cat	-3721
▁Mot	-3722
▁qual	-3723
ptoms	-3724
▁Form	-3725
▁Mad	-3726
▁iPad	-3727
▁town	-3728
▁boy	-3729
▁Ltd	-3730
▁Restaurant	-3731
▁rules	-3732
ares	-3733
▁sus	-3734
▁Commun	-3735
▁happy	-3736
▁Mov	-3737
▁learning	-3738
▁Java	-3739
▁manufacturing	-3740
▁People	-3741
▁bathroom	-3742
▁Rel	-3743
▁story	-3744
reg	-3745
abet	-3746
▁Engine	-3747
▁famous	-3748
▁paid	-3749
▁cloud	-3750
▁status	-3751
▁cells	-3752
▁values	-3753
▁YouTube	-3754
▁Requ	-3755
▁Buy	-3756
udget	-3757
unt	-3758
▁vehicle	-3759
▁micro	-3760
▁Greece	-3761
▁Other	-3762
▁fight	-3763
▁functions	-3764
ka	-3765
Res	-3766
▁laser	-3767
bruary	-3768
▁listed	-3769
iff	-3770
▁Machine	-3771
▁Project	-3772
▁Organ	-3773
▁White	-3774
▁Swed	-3775
▁doing	-3776
Yes	-3777
▁Process	-3778
▁considered	-3779
▁guide	-3780
▁mechan	-3781
▁interested	-3782
▁Sun	-3783
▁instruct	-3784
ini	-3785
▁peace	-3786
▁Sam	-3787
grade	-3788
▁benefit	-3789
hel	-3790
▁AC	-3791
▁laun	-3792
▁load	-3793
▁stored	-3794
▁applicable	-3795
leeve	-3796
▁basic	-3797
▁23	-3798
porate	-3799
iler	-3800
▁Cond	-3801
▁10-	-3802
▁six	-3803
ga	-3804
tel	-3805
▁reports	-3806
▁USA	-3807
eed	-3808
aps	-3809
▁valid	-3810
▁Hair	-3811
comes	-3812
▁cup	-3813
ald	-3814
▁produced	-3815
▁Bul	-3816
itute	-3817
▁First	-3818
▁Educ	-3819
▁restaurants	-3820
:1	-3821
istant	-3822
urt	-3823
▁fall	-3824
rian	-3825
▁traditional	-3826
▁Canada	-3827
ainless	-3828
▁TripOnline	-3829
uan	-3830
▁Ministry	-3831
osing	-3832
▁pen	-3833
▁consist	-3834
▁Orbit	-3835
▁occur	-3836
7,	-3837
ception	-3838
▁prim	-3839
▁Sea	-3840
▁expert	-3841
▁Amaz	-3842
▁dial	-3843
/2	-3844
nown	-3845
▁appropriate	-3846
▁Loc	-3847
▁carried	-3848
▁technologies	-3849
▁2,	-3850
TR	-3851
▁Light	-3852
itiz	-3853
ellig	-3854
▁Log	-3855
UN	-3856
▁neighb	-3857
site	-3858
▁Sub	-3859
▁updates	-3860
▁Italian	-3861
oom	-3862
▁concern	-3863
▁Ev	-3864
▁cu	-3865
▁sleep	-3866
▁restrict	-3867
ris	-3868
hold	-3869
001	-3870
▁half	-3871
ales	-3872
▁inc	-3873
▁Je	-3874
▁laptop	-3875
▁Sur	-3876
▁Music	-3877
empt	-3878
▁Good	-3879
▁thing	-3880
▁street	-3881
leg	-3882
▁Pa	-3883
porary	-3884
▁OS	-3885
▁Child	-3886
▁Orbitz	-3887
▁Square	-3888
▁opp	-3889
▁independ	-3890
▁third	-3891
▁behind	-3892
otton	-3893
▁military	-3894
▁weeks	-3895
augh	-3896
▁wearing	-3897
▁increased	-3898
▁Class	-3899
new	-3900
▁Sum	-3901
▁visitors	-3902
▁trou	-3903
▁components	-3904
ato	-3905
OM	-3906
▁sitting	-3907
▁complex	-3908
free	-3909
▁Slo	-3910
▁Mobile	-3911
atur	-3912
▁featuring	-3913
▁Fil	-3914
▁electronic	-3915
▁balcony	-3916
▁award	-3917
▁scient	-3918
▁Review	-3919
▁introdu	-3920
DP	-3921
▁aware	-3922
▁Green	-3923
▁answer	-3924
▁kinds	-3925
▁enable	-3926
▁channels	-3927
▁Ve	-3928
.99	-3929
▁Time	-3930
According	-3931
▁February	-3932
▁Gender	-3933
▁Def	-3934
▁Ins	-3935
▁selection	-3936
▁Dav	-3937
una	-3938
ext	-3939
▁univers	-3940
▁interface	-3941
▁Series	-3942
▁efficiency	-3943
▁court	-3944
▁told	-3945
--	-3946
force	-3947
▁sustain	-3948
elling	-3949
▁2021	-3950
odes	-3951
▁reliable	-3952
▁reported	-3953
ategy	-3954
▁sy	-3955
▁opportunity	-3956
▁Board	-3957
▁ep	-3958
▁maintenance	-3959
▁limit	-3960
▁stage	-3961
▁satellite	-3962
▁anti	-3963
▁Technology	-3964
▁broad	-3965
▁surround	-3966
year	-3967
▁Tem	-3968
wood	-3969
▁completed	-3970
lines	-3971
▁measures	-3972
ospital	-3973
▁gold	-3974
▁Key	-3975
▁imm	-3976
▁Ukraine	-3977
▁registered	-3978
ails	-3979
▁chemical	-3980
▁simply	-3981
head	-3982
ellow	-3983
▁Most	-3984
aled	-3985
▁Then	-3986
▁Number	-3987
▁ult	-3988
rm	-3989
-3	-3990
▁suggest	-3991
▁mini	-3992
▁creating	-3993
Located	-3994
▁Council	-3995
▁198	-3996
▁mer	-3997
aza	-3998
▁door	-3999
▁ur	-4000
▁economic	-4001
▁investment	-4002
▁35	-4003
▁political	-4004
ruit	-4005
uzz	-4006
▁eye	-4007
▁Mult	-4008
anger	-4009
aves	-4010
itte	-4011
▁chall	-4012
▁immediately	-4013
▁billion	-4014
▁Aud	-4015
▁Settings	-4016
oke	-4017
▁force	-4018
came	-4019
▁Bitcoin	-4020
▁organizations	-4021
nel	-4022
anch	-4023
▁filter	-4024
▁Fed	-4025
▁coming	-4026
▁Let	-4027
▁default	-4028
olesale	-4029
▁formats	-4030
▁communic	-4031
ocks	-4032
▁guarantee	-4033
▁hy	-4034
arily	-4035
add	-4036
erb	-4037
▁lay	-4038
▁notice	-4039
LE	-4040
▁trust	-4041
▁isn	-4042
▁32	-4043
▁normal	-4044
▁administr	-4045
▁News	-4046
▁Mess	-4047
ifications	-4048
▁Party	-4049
▁attention	-4050
▁Express	-4051
▁essential	-4052
MA	-4053
▁Inf	-4054
▁enabled	-4055
▁500	-4056
iter	-4057
▁Jew	-4058
▁MO	-4059
▁Protection	-4060
estic	-4061
▁Special	-4062
bar	-4063
nds	-4064
inst	-4065
▁Mem	-4066
▁multi	-4067
enger	-4068
rid	-4069
▁automatic	-4070
These	-4071
▁ang	-4072
▁Director	-4073
▁recent	-4074
agram	-4075
▁(""	-4076
▁almost	-4077
▁terrace	-4078
▁links	-4079
VE	-4080
ulated	-4081
▁Fam	-4082
▁laws	-4083
va	-4084
iction	-4085
:00	-4086
▁forward	-4087
rel	-4088
▁reve	-4089
▁fields	-4090
ette	-4091
Se	-4092
▁AND	-4093
▁Sch	-4094
▁error	-4095
▁Es	-4096
▁Phil	-4097
▁folder	-4098
▁(4	-4099
▁became	-4100
▁went	-4101
▁transportation	-4102
▁colors	-4103
illage	-4104
▁Fre	-4105
:2	-4106
▁Blue	-4107
▁situation	-4108
QL	-4109
iples	-4110
▁approach	-4111
▁AS	-4112
▁road	-4113
▁Blu	-4114
aya	-4115
ATION	-4116
More	-4117
▁parties	-4118
tainment	-4119
craft	-4120
etic	-4121
ously	-4122
▁magn	-4123
ken	-4124
▁cutting	-4125
▁didn	-4126
▁appointed	-4127
gn	-4128
▁https	-4129
▁discl	-4130
bol	-4131
▁collected	-4132
▁deb	-4133
ography	-4134
▁sn	-4135
▁seem	-4136
▁detect	-4137
▁successful	-4138
▁Autom	-4139
▁leader	-4140
▁Inc	-4141
▁28	-4142
▁soft	-4143
inate	-4144
▁booking	-4145
▁Network	-4146
acket	-4147
▁Bay	-4148
▁unit	-4149
▁Social	-4150
▁Di	-4151
▁serves	-4152
▁80	-4153
▁traffic	-4154
rown	-4155
draw	-4156
friend	-4157
▁acqu	-4158
▁detailed	-4159
weet	-4160
▁lost	-4161
overs	-4162
Un	-4163
▁harm	-4164
▁matter	-4165
▁Length	-4166
However	-4167
dem	-4168
▁Press	-4169
asc	-4170
za	-4171
▁tow	-4172
▁song	-4173
▁concept	-4174
▁resistance	-4175
▁virtual	-4176
So	-4177
▁drink	-4178
▁patients	-4179
▁capt	-4180
▁opened	-4181
▁Public	-4182
▁birth	-4183
▁sem	-4184
▁packaging	-4185
▁however	-4186
han	-4187
▁Vol	-4188
▁Book	-4189
▁client	-4190
▁fee	-4191
▁Lat	-4192
▁AV	-4193
▁earth	-4194
▁sold	-4195
▁obs	-4196
What	-4197
90	-4198
iety	-4199
iture	-4200
▁Rec	-4201
▁memory	-4202
unction	-4203
mp	-4204
embly	-4205
▁studies	-4206
▁lif	-4207
▁asked	-4208
▁serve	-4209
▁deep	-4210
▁lines	-4211
▁Contact	-4212
TA	-4213
gal	-4214
▁accounts	-4215
ademic	-4216
▁hor	-4217
live	-4218
See	-4219
aling	-4220
oul	-4221
▁properties	-4222
▁hom	-4223
▁Cro	-4224
▁switch	-4225
ession	-4226
▁increasing	-4227
▁king	-4228
ework	-4229
aries	-4230
▁Live	-4231
cluding	-4232
);	-4233
burg	-4234
▁guestrooms	-4235
edic	-4236
▁rev	-4237
▁son	-4238
▁courses	-4239
▁ter	-4240
IR	-4241
off	-4242
▁flights	-4243
▁Ben	-4244
▁scre	-4245
▁removal	-4246
▁Hel	-4247
▁hyd	-4248
▁Mer	-4249
▁bottom	-4250
vest	-4251
nding	-4252
▁path	-4253
▁26	-4254
▁strateg	-4255
▁thanks	-4256
▁Education	-4257
issions	-4258
▁culture	-4259
▁quant	-4260
▁versions	-4261
▁stock	-4262
ament	-4263
WL	-4264
▁Model	-4265
▁chat	-4266
▁Wars	-4267
From	-4268
▁Africa	-4269
▁hour	-4270
▁Count	-4271
▁trip	-4272
▁His	-4273
▁Smart	-4274
▁former	-4275
▁recommended	-4276
works	-4277
▁Ext	-4278
inch	-4279
▁starting	-4280
spe	-4281
▁bad	-4282
▁depending	-4283
▁processed	-4284
▁Hung	-4285
▁joint	-4286
▁friendly	-4287
VID	-4288
▁rob	-4289
▁student	-4290
ae	-4291
set	-4292
▁shut	-4293
▁SP	-4294
▁Pass	-4295
sy	-4296
▁opening	-4297
▁bit	-4298
▁pick	-4299
▁pair	-4300
inger	-4301
▁anything	-4302
▁elements	-4303
▁led	-4304
CE	-4305
▁parent	-4306
▁Nor	-4307
▁someone	-4308
▁exact	-4309
▁Tor	-4310
▁Article	-4311
where	-4312
gypt	-4313
▁Expl	-4314
ounter	-4315
▁Spa	-4316
▁registration	-4317
▁File	-4318
▁instead	-4319
▁exhib	-4320
▁Foreign	-4321
icrow	-4322
▁background	-4323
ocket	-4324
▁fresh	-4325
plant	-4326
▁discover	-4327
▁opportunities	-4328
▁scope	-4329
▁warrant	-4330
urning	-4331
▁Palace	-4332
▁Iran	-4333
▁healthy	-4334
▁cross	-4335
▁Casino	-4336
▁Size	-4337
▁father	-4338
ür	-4339
rical	-4340
▁Cur	-4341
uted	-4342
riger	-4343
Guests	-4344
▁caused	-4345
▁itself	-4346
▁"*	-4347
▁Association	-4348
▁warm	-4349
onia	-4350
15	-4351
▁dishes	-4352
▁Over	-4353
▁fabric	-4354
rest	-4355
▁Bas	-4356
net	-4357
▁Cert	-4358
▁cand	-4359
▁symptoms	-4360
▁Hall	-4361
▁budget	-4362
▁Print	-4363
▁everyone	-4364
4-	-4365
▁Collect	-4366
▁units	-4367
No	-4368
www	-4369
▁Old	-4370
▁summer	-4371
iences	-4372
▁arrival	-4373
▁Media	-4374
▁sand	-4375
▁Tre	-4376
▁Connect	-4377
▁institutions	-4378
▁tables	-4379
▁logo	-4380
ror	-4381
▁sty	-4382
▁mention	-4383
▁surgery	-4384
▁Non	-4385
▁nut	-4386
▁testing	-4387
▁determine	-4388
▁comments	-4389
eds	-4390
▁shown	-4391
▁worldwide	-4392
▁Amazon	-4393
▁otherwise	-4394
▁morning	-4395
▁hous	-4396
emale	-4397
▁Venere	-4398
ashing	-4399
▁associated	-4400
▁Mount	-4401
▁output	-4402
▁USD	-4403
▁length	-4404
▁volume	-4405
▁mm	-4406
inery	-4407
ki	-4408
▁database	-4409
▁cooperation	-4410
▁Mr	-4411
▁plans	-4412
▁Mor	-4413
▁threat	-4414
ximately	-4415
▁likely	-4416
▁vehicles	-4417
▁dark	-4418
▁Spanish	-4419
ipl	-4420
▁developing	-4421
▁numbers	-4422
▁sugar	-4423
hou	-4424
icrowave	-4425
▁templ	-4426
Con	-4427
▁Her	-4428
▁club	-4429
▁internal	-4430
ters	-4431
▁90	-4432
▁pictures	-4433
▁Western	-4434
▁shoes	-4435
▁Dem	-4436
▁provider	-4437
▁tea	-4438
▁Every	-4439
▁vary	-4440
▁environmental	-4441
▁Main	-4442
▁scen	-4443
▁Ult	-4444
enses	-4445
Odigeo	-4446
OdigeoWL	-4447
▁BookingOdigeoWL	-4448
▁bi	-4449
▁title	-4450
rought	-4451
▁integrated	-4452
▁fitness	-4453
lebr	-4454
▁performed	-4455
▁ow	-4456
▁Egypt	-4457
do	-4458
▁Under	-4459
▁ill	-4460
▁Learn	-4461
▁welcome	-4462
▁Tour	-4463
▁mother	-4464
▁Dev	-4465
▁Feature	-4466
▁patient	-4467
▁towards	-4468
▁respond	-4469
▁45	-4470
ocr	-4471
uggage	-4472
abetes	-4473
paper	-4474
▁Aff	-4475
eria	-4476
▁separate	-4477
▁markets	-4478
▁delet	-4479
asts	-4480
▁Install	-4481
▁Twitter	-4482
▁launched	-4483
▁Found	-4484
▁Where	-4485
▁upload	-4486
venue	-4487
▁museum	-4488
ENT	-4489
▁Otel	-4490
IG	-4491
▁GB	-4492
▁Mc	-4493
▁innovative	-4494
itude	-4495
rapy	-4496
▁fitted	-4497
cut	-4498
osure	-4499
hol	-4500
▁useful	-4501
▁compared	-4502
▁Econom	-4503
▁kids	-4504
▁rich	-4505
▁"4	-4506
▁adult	-4507
sm	-4508
▁factors	-4509
ky	-4510
asks	-4511
▁Head	-4512
▁leaders	-4513
▁Island	-4514
▁strength	-4515
▁Standard	-4516
▁Lo	-4517
zech	-4518
▁Dist	-4519
▁prepared	-4520
▁goal	-4521
▁acid	-4522
othes	-4523
▁Break	-4524
ulture	-4525
reement	-4526
▁Profess	-4527
ih	-4528
▁nav	-4529
▁advance	-4530
itu	-4531
▁70	-4532
▁Cloud	-4533
isation	-4534
▁shape	-4535
ius	-4536
term	-4537
▁Development	-4538
▁Gen	-4539
ta	-4540
▁Wall	-4541
32	-4542
▁requires	-4543
▁Duty	-4544
rastructure	-4545
amples	-4546
▁cities	-4547
▁Hist	-4548
hent	-4549
▁lock	-4550
▁downloaded	-4551
▁CD	-4552
▁Hol	-4553
▁Intel	-4554
▁accessories	-4555
▁Isl	-4556
▁expand	-4557
▁ge	-4558
▁IT	-4559
▁Create	-4560
▁drop	-4561
▁earn	-4562
▁arr	-4563
▁citiz	-4564
▁ye	-4565
CO	-4566
-0	-4567
▁mail	-4568
▁issued	-4569
▁Real	-4570
▁Hand	-4571
idential	-4572
▁Bet	-4573
more	-4574
ech	-4575
ocur	-4576
▁withdraw	-4577
▁Customer	-4578
▁minimum	-4579
▁Year	-4580
▁2008	-4581
ira	-4582
▁vitamin	-4583
▁cold	-4584
esh	-4585
irection	-4586
razil	-4587
▁stra	-4588
▁metres	-4589
hem	-4590
▁firm	-4591
▁exercise	-4592
▁whose	-4593
obe	-4594
▁powder	-4595
▁experienced	-4596
▁Features	-4597
▁eyes	-4598
umb	-4599
▁defin	-4600
rier	-4601
▁sources	-4602
amework	-4603
▁Town	-4604
▁300	-4605
▁eat	-4606
▁true	-4607
▁regulations	-4608
▁corner	-4609
arian	-4610
▁balance	-4611
▁degree	-4612
▁British	-4613
▁Any	-4614
ao	-4615
▁comment	-4616
▁significant	-4617
▁Test	-4618
▁Lim	-4619
▁shirt	-4620
cond	-4621
abilities	-4622
▁themselves	-4623
▁progress	-4624
▁languages	-4625
▁Jer	-4626
▁forms	-4627
down	-4628
While	-4629
Hz	-4630
▁ship	-4631
▁Dom	-4632
▁compli	-4633
▁Japanese	-4634
itzer	-4635
▁foll	-4636
▁Czech	-4637
▁Digital	-4638
▁OnlineUS	-4639
▁reflect	-4640
▁band	-4641
▁luxury	-4642
▁identify	-4643
De	-4644
▁flu	-4645
▁reading	-4646
▁favorite	-4647
▁2011	-4648
ret	-4649
▁beginning	-4650
▁Garden	-4651
▁faster	-4652
ervation	-4653
PA	-4654
▁driver	-4655
▁Outlook	-4656
▁architecture	-4657
45	-4658
lement	-4659
den	-4660
▁advertising	-4661
"")	-4662
ittee	-4663
▁Update	-4664
▁2000	-4665
▁controller	-4666
▁pleas	-4667
BA	-4668
▁girls	-4669
Click	-4670
gu	-4671
lock	-4672
anned	-4673
▁disp	-4674
▁gar	-4675
▁external	-4676
▁5.0	-4677
▁planning	-4678
Press	-4679
▁named	-4680
▁er	-4681
▁hit	-4682
ael	-4683
ova	-4684
But	-4685
▁Mun	-4686
▁liqu	-4687
▁idea	-4688
EF	-4689
▁fine	-4690
nes	-4691
▁compl	-4692
▁strategy	-4693
ulate	-4694
▁Nether	-4695
▁Prime	-4696
omet	-4697
▁diet	-4698
75	-4699
▁Ank	-4700
▁toiletries	-4701
▁procedure	-4702
prus	-4703
osis	-4704
▁collabor	-4705
▁Edit	-4706
▁Post	-4707
▁Rad	-4708
ulty	-4709
▁serious	-4710
▁rates	-4711
▁dyn	-4712
▁doctor	-4713
ancing	-4714
CH	-4715
▁oblig	-4716
▁civil	-4717
▁teeth	-4718
▁trying	-4719
▁Share	-4720
quality	-4721
▁difference	-4722
▁2019	-4723
▁rental	-4724
▁instructions	-4725
▁Agreement	-4726
isc	-4727
▁Korea	-4728
▁ads	-4729
▁instrum	-4730
▁Que	-4731
rehens	-4732
apers	-4733
▁Choose	-4734
cm	-4735
▁forces	-4736
▁served	-4737
igure	-4738
Des	-4739
▁determined	-4740
OW	-4741
aching	-4742
Tr	-4743
▁Asia	-4744
Book	-4745
comp	-4746
igned	-4747
▁Camp	-4748
UT	-4749
▁wonder	-4750
▁Villa	-4751
▁egg	-4752
▁worth	-4753
▁easier	-4754
16	-4755
tub	-4756
irit	-4757
▁3,	-4758
▁follows	-4759
click	-4760
RL	-4761
▁fulf	-4762
▁pers	-4763
▁comput	-4764
▁Netherlands	-4765
▁thought	-4766
▁thick	-4767
▁bright	-4768
▁ones	-4769
▁updated	-4770
▁desktop	-4771
25	-4772
cape	-4773
ena	-4774
▁behav	-4775
ensions	-4776
▁square	-4777
▁quite	-4778
▁shoot	-4779
like	-4780
roy	-4781
Script	-4782
▁wear	-4783
▁Cyprus	-4784
bed	-4785
▁spamb	-4786
▁spambots	-4787
itzerland	-4788
They	-4789
▁practices	-4790
sole	-4791
arc	-4792
▁dinner	-4793
ryst	-4794
ieved	-4795
▁enables	-4796
▁labor	-4797
▁Bal	-4798
▁university	-4799
Note	-4800
fa	-4801
alks	-4802
arter	-4803
▁stated	-4804
▁Run	-4805
▁ing	-4806
ression	-4807
▁cer	-4808
▁=	-4809
▁prob	-4810
▁David	-4811
with	-4812
▁attempt	-4813
▁hum	-4814
apter	-4815
▁Human	-4816
▁(1)	-4817
▁visual	-4818
▁signed	-4819
▁Ire	-4820
▁fair	-4821
▁remote	-4822
▁flash	-4823
place	-4824
▁Phone	-4825
....	-4826
▁diagn	-4827
bu	-4828
▁orders	-4829
uminum	-4830
▁tim	-4831
▁Ze	-4832
cean	-4833
▁Sign	-4834
▁remember	-4835
▁gradu	-4836
hop	-4837
▁Content	-4838
▁Austria	-4839
▁Poland	-4840
▁PRO	-4841
ultural	-4842
▁Cost	-4843
edicated	-4844
▁transactions	-4845
▁interests	-4846
▁Mark	-4847
▁shop	-4848
cont	-4849
eller	-4850
lying	-4851
▁individuals	-4852
▁Pattern	-4853
▁Sleeve	-4854
▁veget	-4855
▁4,	-4856
stances	-4857
▁Hostel	-4858
nergy	-4859
▁specified	-4860
▁Sn	-4861
▁syn	-4862
▁origin	-4863
▁license	-4864
▁bul	-4865
▁lives	-4866
sych	-4867
▁Portugal	-4868
▁analy	-4869
▁ten	-4870
▁library	-4871
undred	-4872
▁Who	-4873
▁Lin	-4874
▁cm	-4875
▁Tele	-4876
▁usage	-4877
sequ	-4878
▁platforms	-4879
▁compr	-4880
19	-4881
▁Odigeo	-4882
22	-4883
▁Court	-4884
▁Belg	-4885
▁Auto	-4886
▁Syria	-4887
orial	-4888
▁appears	-4889
elt	-4890
ennis	-4891
PU	-4892
atches	-4893
▁adapt	-4894
fficient	-4895
fr	-4896
▁Steel	-4897
▁rock	-4898
▁hon	-4899
▁positive	-4900
▁column	-4901
▁moment	-4902
▁Ireland	-4903
▁smooth	-4904
▁response	-4905
aij	-4906
▁servers	-4907
▁ST	-4908
▁generation	-4909
▁gift	-4910
▁requests	-4911
▁Angel	-4912
▁compatible	-4913
▁late	-4914
▁Royal	-4915
acement	-4916
▁giving	-4917
▁Switzerland	-4918
▁brought	-4919
reath	-4920
irates	-4921
▁Mont	-4922
▁allowed	-4923
▁standing	-4924
ilton	-4925
▁Mag	-4926
▁Kar	-4927
ils	-4928
▁Children	-4929
▁Place	-4930
▁glo	-4931
▁ironing	-4932
▁ir	-4933
▁Hy	-4934
▁Instagram	-4935
ras	-4936
▁subscription	-4937
iant	-4938
▁Bulgar	-4939
AV	-4940
ucle	-4941
35	-4942
▁29	-4943
Hotel	-4944
▁dead	-4945
itors	-4946
▁voice	-4947
▁feed	-4948
▁holding	-4949
▁cab	-4950
▁cryptocur	-4951
▁breast	-4952
▁Guest	-4953
▁Also	-4954
oday	-4955
▁distribution	-4956
icious	-4957
ago	-4958
cles	-4959
▁perman	-4960
icy	-4961
▁Research	-4962
▁approximately	-4963
▁century	-4964
▁fridge	-4965
▁Du	-4966
idden	-4967
▁react	-4968
▁Conf	-4969
▁Korean	-4970
▁submit	-4971
▁mag	-4972
▁influ	-4973
onym	-4974
▁bon	-4975
▁hardware	-4976
▁practice	-4977
▁hope	-4978
▁SQL	-4979
▁Application	-4980
▁Girl	-4981
▁Great	-4982
uth	-4983
▁looks	-4984
▁Berlin	-4985
▁workers	-4986
▁Products	-4987
-19	-4988
▁Plan	-4989
▁competitive	-4990
▁Mich	-4991
▁leather	-4992
▁tests	-4993
▁Paul	-4994
▁occup	-4995
▁graphics	-4996
allery	-4997
idth	-4998
LC	-4999
Off	-5000
▁casino	-5001
▁teams	-5002
▁pattern	-5003
▁Exchange	-5004
"".	-5005
▁Wind	-5006
▁Commission	-5007
▁historical	-5008
▁anyone	-5009
▁tiss	-5010
iers	-5011
▁explain	-5012
ximity	-5013
▁join	-5014
itis	-5015
▁Desk	-5016
berg	-5017
iques	-5018
rehensive	-5019
▁Ep	-5020
▁blog	-5021
▁resolution	-5022
▁Sports	-5023
mir	-5024
▁Brazil	-5025
bert	-5026
ecutive	-5027
anges	-5028
▁Const	-5029
▁bathtub	-5030
▁assess	-5031
▁Analytics	-5032
1)	-5033
▁Ver	-5034
atar	-5035
▁EN	-5036
▁SS	-5037
▁infrastructure	-5038
mary	-5039
ought	-5040
BO	-5041
▁certificate	-5042
▁currency	-5043
▁rub	-5044
▁dialog	-5045
▁Box	-5046
▁tom	-5047
▁drug	-5048
▁OEM	-5049
▁saw	-5050
▁Institute	-5051
emark	-5052
▁dining	-5053
▁therefore	-5054
▁consumption	-5055
ci	-5056
▁Big	-5057
▁Global	-5058
▁Options	-5059
▁relig	-5060
▁academic	-5061
▁diabetes	-5062
▁Secret	-5063
▁JavaScript	-5064
▁Ak	-5065
▁states	-5066
One	-5067
▁born	-5068
64	-5069
▁(5	-5070
lege	-5071
Go	-5072
▁cultural	-5073
▁profession	-5074
▁Mini	-5075
▁Double	-5076
▁designs	-5077
isine	-5078
posed	-5079
▁microwave	-5080
▁Family	-5081
▁150	-5082
oe	-5083
14	-5084
▁jud	-5085
▁Code	-5086
▁Life	-5087
rigerator	-5088
▁fees	-5089
ST	-5090
▁proximity	-5091
▁described	-5092
▁doll	-5093
rupt	-5094
▁milk	-5095
unes	-5096
▁football	-5097
▁Middle	-5098
▁resol	-5099
▁engineering	-5100
known	-5101
▁Space	-5102
ixel	-5103
▁hosting	-5104
▁actually	-5105
ista	-5106
▁lift	-5107
▁fish	-5108
orge	-5109
▁speak	-5110
ita	-5111
▁__	-5112
▁owner	-5113
▁stress	-5114
▁Users	-5115
▁category	-5116
▁medic	-5117
▁Breakfast	-5118
▁Administ	-5119
▁celebr	-5120
▁Sweden	-5121
▁Know	-5122
▁Cheap	-5123
azing	-5124
▁pieces	-5125
▁salt	-5126
▁began	-5127
irts	-5128
▁recently	-5129
▁domestic	-5130
▁(0	-5131
▁middle	-5132
▁played	-5133
olding	-5134
▁fill	-5135
▁experts	-5136
▁confirmed	-5137
▁Exper	-5138
▁articles	-5139
mas	-5140
▁Player	-5141
estival	-5142
▁society	-5143
▁Ç	-5144
TP	-5145
▁Converter	-5146
ola	-5147
▁TR	-5148
▁telephone	-5149
▁Frid	-5150
ste	-5151
▁Short	-5152
▁Mex	-5153
▁scan	-5154
▁Saint	-5155
▁Mond	-5156
▁channel	-5157
▁Food	-5158
anted	-5159
▁bow	-5160
▁Cook	-5161
Point	-5162
▁ideas	-5163
▁League	-5164
▁Ref	-5165
▁Rome	-5166
18	-5167
quir	-5168
▁div	-5169
▁sets	-5170
▁solar	-5171
▁adopt	-5172
▁nearby	-5173
▁Govern	-5174
hab	-5175
vator	-5176
▁Ap	-5177
▁responsibility	-5178
▁wedding	-5179
▁causes	-5180
acters	-5181
bum	-5182
▁rat	-5183
▁Cup	-5184
13	-5185
▁Three	-5186
▁master	-5187
▁accepted	-5188
▁Ankara	-5189
▁Mart	-5190
iy	-5191
▁monitoring	-5192
▁Armen	-5193
▁brands	-5194
redients	-5195
▁intellig	-5196
elry	-5197
▁Adv	-5198
▁solid	-5199
▁appearance	-5200
▁confirmation	-5201
▁pet	-5202
sp	-5203
▁Dubai	-5204
▁understanding	-5205
▁belong	-5206
▁chain	-5207
PC	-5208
▁Pet	-5209
▁indoor	-5210
▁www	-5211
▁Ob	-5212
▁satisf	-5213
▁dish	-5214
▁task	-5215
udi	-5216
▁compliance	-5217
▁principles	-5218
▁feedback	-5219
king	-5220
▁hundred	-5221
encies	-5222
▁movement	-5223
▁Clean	-5224
ffect	-5225
▁actions	-5226
inder	-5227
▁Ca	-5228
▁URL	-5229
▁elim	-5230
▁rap	-5231
▁Cong	-5232
▁deals	-5233
▁corporate	-5234
▁inj	-5235
▁miles	-5236
ador	-5237
inated	-5238
▁whom	-5239
▁recovery	-5240
▁driving	-5241
▁independent	-5242
cient	-5243
▁197	-5244
▁liquid	-5245
▁continues	-5246
▁combination	-5247
hetic	-5248
▁gave	-5249
Please	-5250
TH	-5251
▁Pri	-5252
ampions	-5253
ville	-5254
▁samples	-5255
▁List	-5256
▁Croat	-5257
▁trademark	-5258
▁stick	-5259
▁assistance	-5260
anda	-5261
▁procedures	-5262
▁Trade	-5263
alya	-5264
UL	-5265
anging	-5266
▁extract	-5267
▁flexible	-5268
EX	-5269
▁While	-5270
aters	-5271
▁direction	-5272
▁delivered	-5273
▁Creat	-5274
ella	-5275
Free	-5276
▁goals	-5277
▁2007	-5278
liers	-5279
▁Last	-5280
▁Bag	-5281
▁Safety	-5282
including	-5283
dam	-5284
uit	-5285
▁Azerb	-5286
▁conference	-5287
outer	-5288
▁saying	-5289
▁provision	-5290
▁appe	-5291
▁Ham	-5292
▁Azerbaij	-5293
▁ble	-5294
▁info	-5295
DA	-5296
▁Meet	-5297
▁rank	-5298
▁Bud	-5299
▁winter	-5300
▁manager	-5301
oist	-5302
edom	-5303
▁Adult	-5304
▁Near	-5305
▁mal	-5306
▁Prom	-5307
▁smartphone	-5308
▁Master	-5309
▁organized	-5310
▁refund	-5311
▁except	-5312
▁killed	-5313
▁extrem	-5314
▁dedicated	-5315
▁citizens	-5316
▁waiting	-5317
oma	-5318
▁cars	-5319
▁seconds	-5320
▁guid	-5321
▁availability	-5322
▁career	-5323
▁police	-5324
▁frame	-5325
▁snow	-5326
▁cuisine	-5327
▁diseases	-5328
▁sharing	-5329
BS	-5330
▁Stat	-5331
words	-5332
▁Build	-5333
▁write	-5334
▁eleg	-5335
▁Earth	-5336
▁fa	-5337
▁pregn	-5338
▁rot	-5339
▁tracking	-5340
▁pump	-5341
ford	-5342
▁tooth	-5343
▁vision	-5344
▁Hard	-5345
▁stri	-5346
▁changed	-5347
▁importance	-5348
▁department	-5349
▁plants	-5350
▁Energy	-5351
see	-5352
▁Barcel	-5353
RES	-5354
▁dating	-5355
DS	-5356
▁couple	-5357
▁decre	-5358
▁Season	-5359
▁Friday	-5360
cow	-5361
▁Take	-5362
▁plus	-5363
▁satisfact	-5364
▁removed	-5365
▁$3	-5366
▁label	-5367
sing	-5368
▁Compl	-5369
▁Lu	-5370
then	-5371
can	-5372
▁printer	-5373
▁aspect	-5374
endar	-5375
▁provisions	-5376
▁calls	-5377
▁Foundation	-5378
▁rather	-5379
itness	-5380
▁olive	-5381
etooth	-5382
▁letter	-5383
▁initi	-5384
inations	-5385
▁teac	-5386
▁manual	-5387
▁ap	-5388
▁"5	-5389
▁therm	-5390
▁numer	-5391
▁transl	-5392
▁James	-5393
▁cream	-5394
mar	-5395
▁param	-5396
▁adding	-5397
▁Bathroom	-5398
▁Jack	-5399
▁displayed	-5400
standing	-5401
ituated	-5402
Man	-5403
▁Pen	-5404
▁Kn	-5405
▁LCD	-5406
▁layer	-5407
field	-5408
▁furniture	-5409
24	-5410
TER	-5411
▁nothing	-5412
oz	-5413
▁Belgium	-5414
▁Natural	-5415
▁15-	-5416
▁Lab	-5417
Sp	-5418
2)	-5419
outique	-5420
▁primary	-5421
▁ket	-5422
▁backup	-5423
ala	-5424
▁minim	-5425
▁2:	-5426
▁Modern	-5427
▁chance	-5428
▁manufacturers	-5429
van	-5430
▁heavy	-5431
▁challeng	-5432
friendly	-5433
▁classic	-5434
▁authorities	-5435
▁Hong	-5436
▁vector	-5437
En	-5438
▁competition	-5439
▁mission	-5440
.)	-5441
▁involved	-5442
▁HP	-5443
venture	-5444
Station	-5445
▁initial	-5446
ev	-5447
▁efforts	-5448
▁assets	-5449
orthern	-5450
▁(19	-5451
▁context	-5452
▁Wa	-5453
rees	-5454
▁20-	-5455
Is	-5456
▁--	-5457
ander	-5458
▁spa	-5459
▁fuel	-5460
Tur	-5461
▁straight	-5462
arr	-5463
gas	-5464
TV	-5465
▁Oil	-5466
▁Fast	-5467
▁pal	-5468
▁characters	-5469
▁visiting	-5470
install	-5471
▁kid	-5472
▁forget	-5473
▁nice	-5474
▁apartments	-5475
merce	-5476
▁Pot	-5477
▁successfully	-5478
▁mentioned	-5479
▁According	-5480
▁weap	-5481
6)	-5482
▁har	-5483
▁incor	-5484
idents	-5485
▁comprehensive	-5486
▁chart	-5487
▁attend	-5488
▁Quick	-5489
izer	-5490
▁accurate	-5491
▁premium	-5492
OC	-5493
crete	-5494
▁founded	-5495
ying	-5496
▁phones	-5497
▁Excel	-5498
▁clothing	-5499
▁YO	-5500
▁Whats	-5501
▁customized	-5502
▁Facilities	-5503
esus	-5504
▁Core	-5505
▁beauty	-5506
▁Wire	-5507
▁XP	-5508
▁thus	-5509
▁biggest	-5510
▁poly	-5511
▁360	-5512
▁insurance	-5513
▁po	-5514
▁changing	-5515
respond	-5516
ii	-5517
▁Fact	-5518
▁Barcelona	-5519
▁Langu	-5520
▁demon	-5521
▁luggage	-5522
▁decided	-5523
▁Using	-5524
UM	-5525
unk	-5526
inity	-5527
▁Resp	-5528
▁suff	-5529
▁Clothing	-5530
▁identity	-5531
rav	-5532
▁Att	-5533
pcs	-5534
eping	-5535
▁moving	-5536
verse	-5537
▁closed	-5538
▁scientific	-5539
Your	-5540
▁renew	-5541
▁Edition	-5542
ida	-5543
wa	-5544
▁Base	-5545
ket	-5546
▁dim	-5547
▁tree	-5548
▁economy	-5549
▁input	-5550
▁Science	-5551
▁presented	-5552
▁Each	-5553
▁prote	-5554
isode	-5555
▁obtained	-5556
▁wallet	-5557
▁sche	-5558
▁vict	-5559
band	-5560
orders	-5561
▁Engineering	-5562
▁hostels	-5563
▁journey	-5564
▁buildings	-5565
▁Storage	-5566
▁arm	-5567
▁Lake	-5568
▁Rights	-5569
pire	-5570
annel	-5571
▁Equ	-5572
▁OR	-5573
col	-5574
▁Adobe	-5575
▁entry	-5576
▁laundry	-5577
▁Movie	-5578
▁Solid	-5579
▁Holiday	-5580
price	-5581
▁Monday	-5582
▁Table	-5583
▁lunch	-5584
▁carbon	-5585
▁Professional	-5586
pite	-5587
▁spend	-5588
▁journal	-5589
▁FL	-5590
▁exclusive	-5591
▁membership	-5592
New	-5593
ishes	-5594
▁reference	-5595
▁repair	-5596
▁raw	-5597
▁earlier	-5598
ache	-5599
▁race	-5600
▁Antalya	-5601
▁virus	-5602
▁director	-5603
▁Trump	-5604
lymp	-5605
▁interesting	-5606
ester	-5607
▁waste	-5608
▁mid	-5609
▁·	-5610
iled	-5611
orer	-5612
▁struct	-5613
oft	-5614
iang	-5615
▁AR	-5616
▁Drive	-5617
▁hear	-5618
mi	-5619
using	-5620
▁consists	-5621
▁Price	-5622
▁clicking	-5623
▁bags	-5624
▁population	-5625
▁wait	-5626
▁seven	-5627
▁retail	-5628
▁core	-5629
▁deploy	-5630
▁networks	-5631
▁thousands	-5632
▁authority	-5633
ulator	-5634
phones	-5635
chain	-5636
▁Guide	-5637
▁WordPress	-5638
▁http	-5639
BC	-5640
▁growing	-5641
SS	-5642
▁mainly	-5643
▁brother	-5644
▁den	-5645
cycle	-5646
▁turned	-5647
▁science	-5648
▁Moscow	-5649
▁owners	-5650
yond	-5651
▁About	-5652
500	-5653
▁quantity	-5654
▁requirement	-5655
▁theme	-5656
▁books	-5657
▁commit	-5658
▁feet	-5659
igate	-5660
▁upper	-5661
enty	-5662
▁vacc	-5663
▁pred	-5664
inn	-5665
▁Ma	-5666
▁defined	-5667
alls	-5668
▁Case	-5669
Qu	-5670
▁dressing	-5671
▁comply	-5672
utch	-5673
formance	-5674
▁meaning	-5675
▁sole	-5676
▁died	-5677
▁dream	-5678
iring	-5679
lor	-5680
▁Only	-5681
▁eth	-5682
akh	-5683
was	-5684
▁Mel	-5685
itan	-5686
cerning	-5687
condition	-5688
ownt	-5689
rd	-5690
MV	-5691
▁president	-5692
▁cash	-5693
▁entertainment	-5694
▁sensor	-5695
▁Private	-5696
▁Dresses	-5697
▁Panel	-5698
▁crypto	-5699
Once	-5700
▁committed	-5701
ipes	-5702
ript	-5703
▁Washing	-5704
▁suite	-5705
▁visa	-5706
▁enhance	-5707
bles	-5708
▁Bro	-5709
▁somet	-5710
alog	-5711
▁Studio	-5712
3)	-5713
▁legit	-5714
▁bra	-5715
going	-5716
Via	-5717
▁tasks	-5718
point	-5719
▁cos	-5720
raq	-5721
limited	-5722
▁Ö	-5723
▁prompt	-5724
▁wrong	-5725
▁Spec	-5726
▁weather	-5727
▁Greek	-5728
▁fo	-5729
▁processor	-5730
▁dro	-5731
▁sheet	-5732
▁Casual	-5733
adium	-5734
bour	-5735
▁Fabric	-5736
▁aims	-5737
▁authent	-5738
▁objects	-5739
▁correspond	-5740
▁else	-5741
bur	-5742
▁Tok	-5743
▁Many	-5744
▁locations	-5745
▁destroy	-5746
▁bur	-5747
▁Committee	-5748
▁vir	-5749
▁leaving	-5750
▁stable	-5751
bass	-5752
▁PlayStation	-5753
▁controls	-5754
▁Chrome	-5755
Now	-5756
▁Tap	-5757
▁requested	-5758
apore	-5759
▁selling	-5760
▁announce	-5761
eler	-5762
▁Finland	-5763
▁stores	-5764
▁dur	-5765
▁abroad	-5766
▁Michael	-5767
▁sport	-5768
▁Once	-5769
▁31	-5770
▁5.0/5	-5771
pet	-5772
▁subst	-5773
▁Hilton	-5774
▁covered	-5775
▁Baby	-5776
▁rapid	-5777
▁Leather	-5778
usal	-5779
▁circum	-5780
fe	-5781
uclear	-5782
▁packing	-5783
atively	-5784
▁infect	-5785
▁Alex	-5786
▁alternative	-5787
▁spread	-5788
▁EUR	-5789
▁supplier	-5790
▁Right	-5791
▁suppliers	-5792
▁advantages	-5793
▁fixed	-5794
▁reserves	-5795
cling	-5796
▁Next	-5797
Gender	-5798
▁widely	-5799
ora	-5800
▁followed	-5801
ademy	-5802
▁generally	-5803
7)	-5804
Add	-5805
▁Kh	-5806
osition	-5807
car	-5808
▁upgrade	-5809
▁operate	-5810
IV	-5811
▁Mass	-5812
▁previously	-5813
▁OK	-5814
▁alt	-5815
rystal	-5816
▁recording	-5817
Do	-5818
▁warranty	-5819
▁functionality	-5820
▁medium	-5821
hi	-5822
▁Hungary	-5823
ailable	-5824
VC	-5825
▁machinery	-5826
Since	-5827
▁amazing	-5828
▁Fort	-5829
▁wanted	-5830
▁secret	-5831
▁directed	-5832
▁lov	-5833
-4	-5834
▁stainless	-5835
▁der	-5836
▁greater	-5837
rance	-5838
Or	-5839
▁Systems	-5840
▁Sund	-5841
ifying	-5842
▁experiences	-5843
▁prepare	-5844
usion	-5845
▁regions	-5846
▁editor	-5847
▁conditioning	-5848
▁1:	-5849
urb	-5850
▁paint	-5851
▁approved	-5852
▁conflic	-5853
▁Description	-5854
▁Screen	-5855
acking	-5856
▁Summer	-5857
▁Technical	-5858
▁Area	-5859
mosp	-5860
▁Rob	-5861
▁satisfaction	-5862
▁Olymp	-5863
▁diam	-5864
▁trial	-5865
▁encour	-5866
▁gym	-5867
▁Proper	-5868
ensity	-5869
Supplier	-5870
▁legis	-5871
umps	-5872
arest	-5873
▁huge	-5874
▁Tick	-5875
▁emerg	-5876
▁Golf	-5877
▁extremely	-5878
▁Church	-5879
cher	-5880
▁makers	-5881
▁terror	-5882
▁Apartments	-5883
▁Convention	-5884
▁providers	-5885
anqu	-5886
ravel	-5887
▁Jesus	-5888
▁unless	-5889
▁Sat	-5890
aks	-5891
▁repe	-5892
▁Romania	-5893
▁FA	-5894
▁framework	-5895
▁concerning	-5896
▁River	-5897
▁persons	-5898
▁brain	-5899
zhou	-5900
▁Bulgaria	-5901
▁util	-5902
▁slow	-5903
EST	-5904
▁streaming	-5905
▁rule	-5906
▁Rock	-5907
OD	-5908
▁DN	-5909
▁presence	-5910
isco	-5911
▁SD	-5912
lix	-5913
▁himself	-5914
▁Easy	-5915
▁eight	-5916
▁CON	-5917
▁saving	-5918
▁Queen	-5919
hips	-5920
▁symbol	-5921
▁Nov	-5922
▁Decor	-5923
▁mis	-5924
▁Kong	-5925
▁agent	-5926
▁Id	-5927
▁Frank	-5928
▁dig	-5929
▁Mill	-5930
tea	-5931
hot	-5932
▁combined	-5933
▁Indian	-5934
▁integration	-5935
ston	-5936
▁goes	-5937
▁7,	-5938
▁handle	-5939
▁neighbor	-5940
ounds	-5941
▁surf	-5942
▁reception	-5943
rief	-5944
inem	-5945
▁Vers	-5946
▁session	-5947
▁stone	-5948
hether	-5949
▁ticket	-5950
▁^	-5951
▁deleted	-5952
▁cookie	-5953
▁wife	-5954
▁Mu	-5955
▁Award	-5956
antic	-5957
▁Motor	-5958
▁institution	-5959
▁displ	-5960
rowd	-5961
▁AL	-5962
erry	-5963
▁2009	-5964
icone	-5965
ilies	-5966
▁GT	-5967
▁Sport	-5968
osen	-5969
▁critical	-5970
▁Industry	-5971
▁Santa	-5972
▁plate	-5973
▁tennis	-5974
oons	-5975
▁alone	-5976
▁Croatia	-5977
▁Pop	-5978
▁passed	-5979
ounge	-5980
▁root	-5981
▁Prince	-5982
▁ski	-5983
▁Fix	-5984
▁Singapore	-5985
▁fruit	-5986
▁chair	-5987
▁tub	-5988
EA	-5989
iking	-5990
▁transform	-5991
▁tablet	-5992
▁Laser	-5993
▁Bang	-5994
▁Forecast	-5995
▁suit	-5996
▁counter	-5997
▁exceed	-5998
▁female	-5999
▁Hor	-6000
▁mouth	-6001
▁agency	-6002
▁tips	-6003
▁overall	-6004
▁Located	-6005
▁und	-6006
▁audience	-6007
▁meals	-6008
▁claims	-6009
▁Lith	-6010
▁Save	-6011
▁End	-6012
21	-6013
▁ice	-6014
▁strict	-6015
▁finished	-6016
▁5,	-6017
▁Plaza	-6018
▁Iraq	-6019
▁interview	-6020
▁candid	-6021
▁History	-6022
▁$4	-6023
iance	-6024
ipper	-6025
alle	-6026
▁Does	-6027
▁Anti	-6028
▁creative	-6029
edy	-6030
▁older	-6031
▁Ali	-6032
▁connections	-6033
▁supplied	-6034
▁categories	-6035
▁manner	-6036
▁Madrid	-6037
born	-6038
▁Display	-6039
▁Point	-6040
emporary	-6041
▁businesses	-6042
▁Bos	-6043
Cloud	-6044
▁Sand	-6045
iterr	-6046
▁taste	-6047
▁Univers	-6048
▁Wed	-6049
▁depends	-6050
▁configuration	-6051
▁extension	-6052
▁cop	-6053
▁smoking	-6054
▁computers	-6055
atre	-6056
▁desired	-6057
▁ring	-6058
▁Saudi	-6059
Le	-6060
AG	-6061
elcome	-6062
ba	-6063
ifically	-6064
▁attacks	-6065
via	-6066
▁clothes	-6067
▁196	-6068
▁consumer	-6069
▁WhatsApp	-6070
▁enem	-6071
▁characteristics	-6072
▁decide	-6073
no	-6074
itution	-6075
▁anywhere	-6076
pan	-6077
▁atmosp	-6078
▁Bluetooth	-6079
ocal	-6080
▁impress	-6081
▁Wood	-6082
▁Low	-6083
▁Eas	-6084
oria	-6085
▁transaction	-6086
▁Film	-6087
▁Import	-6088
rim	-6089
obby	-6090
▁sustainable	-6091
▁minute	-6092
▁farm	-6093
▁album	-6094
▁signs	-6095
▁Lux	-6096
▁Advanced	-6097
▁increases	-6098
iat	-6099
▁Industrial	-6100
▁Care	-6101
fol	-6102
▁Regular	-6103
▁assist	-6104
▁description	-6105
▁Nav	-6106
iterrane	-6107
▁Addition	-6108
▁interior	-6109
▁creation	-6110
AB	-6111
AY	-6112
▁Apart	-6113
▁elegant	-6114
▁sometimes	-6115
▁score	-6116
▁auto	-6117
▁mountain	-6118
▁scale	-6119
vak	-6120
▁prepar	-6121
▁wheel	-6122
▁opin	-6123
urd	-6124
▁Tools	-6125
afe	-6126
▁Photos	-6127
▁Snow	-6128
▁Golden	-6129
▁continuous	-6130
▁yellow	-6131
charge	-6132
▁parents	-6133
▁lets	-6134
▁DH	-6135
▁superior	-6136
▁Bon	-6137
▁afford	-6138
print	-6139
▁lighting	-6140
▁Orig	-6141
▁participants	-6142
▁centers	-6143
▁Denmark	-6144
icks	-6145
▁male	-6146
▁Faculty	-6147
▁protocol	-6148
100	-6149
▁contacts	-6150
▁gets	-6151
▁serving	-6152
8)	-6153
▁starts	-6154
▁Shop	-6155
rate	-6156
▁annual	-6157
▁animal	-6158
yo	-6159
DPR	-6160
care	-6161
▁Winter	-6162
▁wants	-6163
▁affected	-6164
▁Mexico	-6165
▁boost	-6166
▁beg	-6167
▁edge	-6168
cope	-6169
▁preferred	-6170
▁sense	-6171
ias	-6172
odge	-6173
▁receiving	-6174
▁Team	-6175
vin	-6176
▁transferred	-6177
▁records	-6178
▁cancel	-6179
▁cred	-6180
iforn	-6181
▁risks	-6182
uled	-6183
▁48	-6184
▁fans	-6185
▁affili	-6186
▁AD	-6187
tage	-6188
▁Follow	-6189
▁wholesale	-6190
▁spot	-6191
▁Azerbaijan	-6192
ethod	-6193
ector	-6194
engers	-6195
win	-6196
▁Comple	-6197
▁Glass	-6198
▁numerous	-6199
▁becomes	-6200
▁destination	-6201
▁Have	-6202
▁tank	-6203
▁attractions	-6204
▁Tower	-6205
▁stands	-6206
II	-6207
EW	-6208
itate	-6209
CC	-6210
rad	-6211
▁nor	-6212
▁Link	-6213
hedral	-6214
▁fear	-6215
▁charges	-6216
▁comprises	-6217
▁400	-6218
▁copyright	-6219
▁dynamic	-6220
ota	-6221
asion	-6222
▁Castle	-6223
EP	-6224
▁managed	-6225
▁sauna	-6226
▁negative	-6227
▁Affairs	-6228
▁Premium	-6229
▁allowing	-6230
▁transmission	-6231
ko	-6232
▁electrical	-6233
Tunes	-6234
▁Ha	-6235
▁cru	-6236
▁infl	-6237
▁sched	-6238
▁Report	-6239
▁schools	-6240
▁exactly	-6241
▁Academy	-6242
▁aircraft	-6243
▁Explorer	-6244
▁jump	-6245
▁stru	-6246
iterranean	-6247
▁saved	-6248
▁Ky	-6249
▁Washington	-6250
▁rain	-6251
google	-6252
▁revealed	-6253
oven	-6254
press	-6255
▁bear	-6256
▁behalf	-6257
▁Quest	-6258
orrow	-6259
▁template	-6260
▁shuttle	-6261
▁tissue	-6262
▁continued	-6263
edit	-6264
under	-6265
▁worked	-6266
▁probably	-6267
▁windows	-6268
▁addresses	-6269
▁Arts	-6270
▁quiet	-6271
▁occurs	-6272
da	-6273
▁AVI	-6274
▁shap	-6275
pth	-6276
▁techniques	-6277
▁Copy	-6278
▁fiber	-6279
inding	-6280
lass	-6281
▁Neck	-6282
▁Chair	-6283
▁reasonable	-6284
▁ju	-6285
▁Jos	-6286
▁improved	-6287
▁Electric	-6288
▁iPod	-6289
▁neck	-6290
▁entered	-6291
▁innovation	-6292
▁Platform	-6293
▁Muslim	-6294
▁Text	-6295
▁Ann	-6296
▁radio	-6297
▁legitimate	-6298
isk	-6299
▁Transfer	-6300
▁Los	-6301
▁8,	-6302
okia	-6303
Select	-6304
▁Four	-6305
▁psych	-6306
▁Harry	-6307
Serv	-6308
▁offic	-6309
▁Author	-6310
▁3:	-6311
FT	-6312
▁payments	-6313
▁Environment	-6314
▁sequ	-6315
▁hospital	-6316
▁particularly	-6317
▁implementation	-6318
4)	-6319
▁charged	-6320
fers	-6321
▁absor	-6322
▁brown	-6323
▁participate	-6324
ifornia	-6325
During	-6326
▁retain	-6327
▁Jac	-6328
Some	-6329
urious	-6330
▁gaming	-6331
▁fold	-6332
▁Syrian	-6333
▁recover	-6334
▁Outdoor	-6335
▁keys	-6336
ml	-6337
▁hearing	-6338
▁Sony	-6339
▁insp	-6340
ifi	-6341
▁Mah	-6342
▁Linux	-6343
▁filling	-6344
ERS	-6345
▁Even	-6346
▁thousand	-6347
▁certification	-6348
▁kil	-6349
lets	-6350
▁golf	-6351
▁Treat	-6352
papers	-6353
ECT	-6354
itting	-6355
▁1.5	-6356
▁publish	-6357
▁advice	-6358
▁Coll	-6359
▁SEO	-6360
agraph	-6361
▁accessible	-6362
▁Supp	-6363
▁flour	-6364
▁lands	-6365
zen	-6366
aughter	-6367
▁Fair	-6368
▁territ	-6369
▁island	-6370
17	-6371
▁beds	-6372
▁clin	-6373
een	-6374
▁Dead	-6375
▁iTunes	-6376
▁sizes	-6377
▁Vict	-6378
▁spirit	-6379
▁prop	-6380
agers	-6381
▁valu	-6382
OP	-6383
▁village	-6384
▁pull	-6385
gers	-6386
oub	-6387
▁danger	-6388
▁Age	-6389
▁beyond	-6390
umes	-6391
isher	-6392
▁du	-6393
▁aluminum	-6394
▁truck	-6395
▁transp	-6396
rencies	-6397
▁Love	-6398
aturing	-6399
alta	-6400
▁behavior	-6401
▁san	-6402
▁battle	-6403
nce	-6404
▁faith	-6405
▁finish	-6406
▁covers	-6407
ado	-6408
▁estate	-6409
ja	-6410
▁plays	-6411
▁sending	-6412
▁disk	-6413
▁concent	-6414
▁Congress	-6415
▁Mall	-6416
▁preferences	-6417
GP	-6418
▁FOR	-6419
▁Mediterranean	-6420
▁introduced	-6421
ibar	-6422
▁demonstr	-6423
sterdam	-6424
▁Sof	-6425
Set	-6426
▁Ele	-6427
▁CH	-6428
▁250	-6429
▁Et	-6430
▁element	-6431
Download	-6432
▁bars	-6433
▁infection	-6434
▁returned	-6435
sers	-6436
▁Atl	-6437
▁€	-6438
▁index	-6439
rick	-6440
ulf	-6441
▁mac	-6442
▁authorized	-6443
▁sort	-6444
OK	-6445
iveness	-6446
REE	-6447
▁mir	-6448
elines	-6449
pack	-6450
▁Invest	-6451
nesday	-6452
▁Request	-6453
erved	-6454
▁CN	-6455
iki	-6456
▁Islamic	-6457
ferences	-6458
▁MS	-6459
▁Single	-6460
▁Son	-6461
AK	-6462
▁Way	-6463
ardens	-6464
aked	-6465
▁af	-6466
▁heard	-6467
▁2003	-6468
▁extend	-6469
▁remains	-6470
▁Cotton	-6471
▁lose	-6472
washer	-6473
▁container	-6474
uesday	-6475
▁jacket	-6476
ups	-6477
pection	-6478
▁families	-6479
yan	-6480
▁Photo	-6481
▁foods	-6482
ursday	-6483
▁zone	-6484
▁agreed	-6485
▁participation	-6486
▁neighborhood	-6487
▁replace	-6488
▁Graph	-6489
▁carefully	-6490
bel	-6491
asting	-6492
▁brings	-6493
▁dates	-6494
icken	-6495
▁Width	-6496
33	-6497
▁winning	-6498
▁Bin	-6499
▁Bat	-6500
dule	-6501
wan	-6502
ugh	-6503
▁Change	-6504
▁effectively	-6505
iece	-6506
▁drawing	-6507
aland	-6508
zmir	-6509
▁(201	-6510
▁rail	-6511
▁Since	-6512
▁Slovak	-6513
class	-6514
appy	-6515
▁gal	-6516
▁linked	-6517
▁kept	-6518
/4	-6519
ker	-6520
clusion	-6521
▁accuracy	-6522
▁capabilities	-6523
▁Land	-6524
demand	-6525
▁accepts	-6526
▁Spring	-6527
▁RAM	-6528
▁contribute	-6529
▁Line	-6530
▁larger	-6531
▁Norway	-6532
▁visited	-6533
eries	-6534
▁Kim	-6535
iro	-6536
▁Gre	-6537
▁butter	-6538
▁regional	-6539
▁ensures	-6540
uce	-6541
▁editing	-6542
▁California	-6543
▁$5	-6544
▁Speed	-6545
85	-6546
▁Which	-6547
▁decisions	-6548
▁ingredients	-6549
hotel	-6550
esides	-6551
usalem	-6552
ums	-6553
▁Tim	-6554
▁watching	-6555
▁Sunday	-6556
▁cheapest	-6557
▁keyboard	-6558
▁Nations	-6559
▁Iron	-6560
cluded	-6561
ansion	-6562
▁API	-6563
raul	-6564
▁Member	-6565
▁massage	-6566
lar	-6567
▁permanent	-6568
▁Stock	-6569
▁Policies	-6570
▁bike	-6571
front	-6572
bor	-6573
▁Enjoy	-6574
▁tablesp	-6575
▁AMD	-6576
▁talking	-6577
▁historic	-6578
▁crowd	-6579
▁Suite	-6580
iest	-6581
ppers	-6582
▁Lithuan	-6583
▁thy	-6584
▁Put	-6585
▁height	-6586
▁poll	-6587
▁funds	-6588
▁District	-6589
▁Contin	-6590
▁Down	-6591
▁55	-6592
inos	-6593
▁cris	-6594
▁surv	-6595
▁meat	-6596
conditioned	-6597
asse	-6598
▁moist	-6599
▁washing	-6600
unc	-6601
acious	-6602
▁cryptocurrency	-6603
itely	-6604
▁enterprise	-6605
▁admin	-6606
▁dust	-6607
▁Bur	-6608
▁36	-6609
▁kettle	-6610
▁resort	-6611
▁Audio	-6612
▁MPEG	-6613
ienna	-6614
host	-6615
ented	-6616
▁Div	-6617
▁Conditions	-6618
▁pill	-6619
▁drag	-6620
▁Night	-6621
Am	-6622
▁advis	-6623
oti	-6624
▁194	-6625
emic	-6626
▁Wedding	-6627
▁Wednesday	-6628
▁Walk	-6629
pa	-6630
▁producing	-6631
isa	-6632
She	-6633
▁Language	-6634
▁Despe	-6635
bing	-6636
▁eating	-6637
▁properly	-6638
▁Despegar	-6639
▁depart	-6640
▁Bost	-6641
▁route	-6642
▁Ram	-6643
uum	-6644
itar	-6645
ulations	-6646
azz	-6647
otic	-6648
acle	-6649
▁permission	-6650
▁Amsterdam	-6651
▁Pict	-6652
▁promote	-6653
▁failure	-6654
▁Bi	-6655
▁purchased	-6656
▁downloading	-6657
power	-6658
▁exception	-6659
▁row	-6660
▁Jerusalem	-6661
▁Organization	-6662
aga	-6663
ibly	-6664
▁Agency	-6665
▁Flash	-6666
itage	-6667
▁6,	-6668
▁Tuesday	-6669
▁atmosphere	-6670
▁facility	-6671
▁Mir	-6672
▁Vista	-6673
▁insert	-6674
▁Shoes	-6675
cks	-6676
▁Thursday	-6677
vi	-6678
▁inject	-6679
▁Sale	-6680
robe	-6681
▁cabin	-6682
▁trailer	-6683
▁CE	-6684
▁conducted	-6685
▁Bah	-6686
▁listen	-6687
▁personnel	-6688
▁professionals	-6689
▁Christmas	-6690
▁Method	-6691
▁solve	-6692
▁ahead	-6693
▁principle	-6694
▁ban	-6695
ibilities	-6696
▁Metal	-6697
▁cotton	-6698
kin	-6699
▁console	-6700
asure	-6701
▁applies	-6702
▁2.0	-6703
▁module	-6704
ğlu	-6705
▁coord	-6706
▁screens	-6707
▁equal	-6708
uls	-6709
Me	-6710
such	-6711
▁exhibition	-6712
▁Champions	-6713
▁push	-6714
▁profit	-6715
▁Help	-6716
▁administrative	-6717
▁expensive	-6718
▁strengthen	-6719
rote	-6720
orter	-6721
▁awareness	-6722
▁pleasant	-6723
egr	-6724
▁Dec	-6725
▁wine	-6726
▁Pur	-6727
▁Nob	-6728
▁survey	-6729
made	-6730
▁lens	-6731
▁Outer	-6732
▁emergency	-6733
Step	-6734
▁drinks	-6735
▁nearly	-6736
▁Remove	-6737
▁defend	-6738
▁border	-6739
▁(2)	-6740
▁oven	-6741
▁bonus	-6742
▁fan	-6743
▁TL	-6744
ader	-6745
▁income	-6746
▁vent	-6747
▁unto	-6748
▁rubber	-6749
▁Ren	-6750
▁educational	-6751
erse	-6752
Sim	-6753
Up	-6754
owntown	-6755
▁tickets	-6756
▁proceed	-6757
▁SH	-6758
▁Os	-6759
▁swe	-6760
oses	-6761
ificial	-6762
▁protein	-6763
flix	-6764
▁absol	-6765
▁Apartment	-6766
▁Medical	-6767
▁animals	-6768
▁Sloven	-6769
▁conversion	-6770
▁manufacture	-6771
▁Tai	-6772
elivery	-6773
▁connecting	-6774
reams	-6775
▁residence	-6776
▁designer	-6777
▁Sab	-6778
otal	-6779
▁Disc	-6780
rew	-6781
▁Foot	-6782
▁Sar	-6783
▁concrete	-6784
PG	-6785
▁freedom	-6786
69	-6787
RAN	-6788
▁Ba	-6789
from	-6790
▁criteria	-6791
rak	-6792
ered	-6793
▁Things	-6794
avour	-6795
▁supporting	-6796
▁aid	-6797
riage	-6798
▁ast	-6799
amber	-6800
▁evidence	-6801
▁finally	-6802
▁vs	-6803
▁tons	-6804
ali	-6805
▁shops	-6806
▁invent	-6807
▁mechanical	-6808
rated	-6809
▁exec	-6810
▁dishwasher	-6811
▁assign	-6812
▁universities	-6813
▁Roll	-6814
▁Computer	-6815
▁Nokia	-6816
▁tested	-6817
▁stability	-6818
angh	-6819
life	-6820
rob	-6821
▁bound	-6822
▁Train	-6823
▁profiles	-6824
▁10,	-6825
▁roof	-6826
▁sofa	-6827
▁cancell	-6828
▁measurement	-6829
▁Assembly	-6830
▁Asian	-6831
▁George	-6832
raulic	-6833
▁ES	-6834
▁sensitive	-6835
▁perm	-6836
▁Emirates	-6837
▁Active	-6838
ship	-6839
Here	-6840
plit	-6841
▁operator	-6842
▁prem	-6843
gor	-6844
▁chosen	-6845
▁intended	-6846
▁reput	-6847
▁Boston	-6848
▁ancient	-6849
▁ON	-6850
▁expertise	-6851
▁north	-6852
▁Pu	-6853
▁upcoming	-6854
▁Buyer	-6855
▁Secretary	-6856
▁although	-6857
▁certified	-6858
▁Knowledge	-6859
▁Beaut	-6860
▁butt	-6861
tty	-6862
▁presentation	-6863
-5	-6864
▁mig	-6865
▁translation	-6866
rogen	-6867
gend	-6868
▁EX	-6869
▁meetings	-6870
aduate	-6871
▁buff	-6872
▁Ur	-6873
▁Transport	-6874
▁Hospital	-6875
▁Milan	-6876
arison	-6877
▁spect	-6878
▁practical	-6879
▁weapons	-6880
▁reduced	-6881
otive	-6882
▁onto	-6883
▁delay	-6884
▁Aqu	-6885
outhern	-6886
author	-6887
▁Front	-6888
▁province	-6889
rif	-6890
▁resource	-6891
▁Far	-6892
cers	-6893
▁During	-6894
▁tor	-6895
keeping	-6896
▁Ş	-6897
idi	-6898
▁contents	-6899
▁detection	-6900
▁employee	-6901
▁ensuring	-6902
▁explore	-6903
▁elevator	-6904
▁365	-6905
▁England	-6906
▁gear	-6907
My	-6908
▁agric	-6909
oly	-6910
▁Sym	-6911
uzzle	-6912
▁specifically	-6913
jo	-6914
!!	-6915
▁burn	-6916
▁DC	-6917
you	-6918
▁Gar	-6919
▁Luxury	-6920
▁Palest	-6921
pected	-6922
▁seems	-6923
▁south	-6924
oys	-6925
▁nuclear	-6926
▁circumstances	-6927
▁Shopping	-6928
▁helping	-6929
▁runs	-6930
▁formed	-6931
eras	-6932
▁Malta	-6933
▁mouse	-6934
ef	-6935
▁excess	-6936
▁Ah	-6937
icycle	-6938
▁CEO	-6939
▁Plastic	-6940
▁generated	-6941
▁tube	-6942
equ	-6943
prene	-6944
▁sides	-6945
▁colour	-6946
▁doors	-6947
weight	-6948
lywood	-6949
▁handling	-6950
▁frequently	-6951
▁notes	-6952
▁demands	-6953
▁spring	-6954
▁quarter	-6955
▁wooden	-6956
OB	-6957
▁tournam	-6958
▁speech	-6959
▁fed	-6960
▁Peter	-6961
▁Vienna	-6962
▁breath	-6963
▁industries	-6964
VPN	-6965
fix	-6966
▁195	-6967
onom	-6968
▁Conference	-6969
▁Collection	-6970
▁Wallet	-6971
▁Sciences	-6972
reprene	-6973
gment	-6974
▁enforce	-6975
▁restore	-6976
▁Edge	-6977
▁ton	-6978
▁seat	-6979
ourg	-6980
agen	-6981
▁actual	-6982
▁Boutique	-6983
▁Wireless	-6984
▁carrying	-6985
▁Prague	-6986
▁Convert	-6987
uine	-6988
▁Rich	-6989
▁reward	-6990
▁ec	-6991
▁Residence	-6992
▁jew	-6993
MB	-6994
▁sexual	-6995
▁gam	-6996
▁obligations	-6997
▁slight	-6998
▁concerns	-6999
▁approval	-7000
ords	-7001
▁referred	-7002
▁specialized	-7003
▁1000	-7004
▁improving	-7005
▁Franc	-7006
▁Mat	-7007
▁Avenue	-7008
▁classes	-7009
▁basket	-7010
▁relaxation	-7011
▁remaining	-7012
WS	-7013
▁cycle	-7014
▁Disney	-7015
cohol	-7016
▁Tel	-7017
rich	-7018
MI	-7019
anged	-7020
▁complain	-7021
uz	-7022
▁organic	-7023
▁controlled	-7024
▁(6	-7025
RP	-7026
▁GDPR	-7027
▁COVID	-7028
▁belie	-7029
▁Ent	-7030
▁displays	-7031
▁army	-7032
▁Tickets	-7033
86	-7034
ifts	-7035
▁Cart	-7036
▁matt	-7037
▁Sky	-7038
ronics	-7039
▁tun	-7040
▁Bus	-7041
▁Win	-7042
speed	-7043
▁Anim	-7044
▁administration	-7045
liament	-7046
▁opens	-7047
▁120	-7048
▁keeping	-7049
▁steam	-7050
▁Training	-7051
▁bottle	-7052
▁Zealand	-7053
▁"[	-7054
▁forg	-7055
pool	-7056
▁coast	-7057
Although	-7058
lectual	-7059
unning	-7060
▁Keep	-7061
▁looked	-7062
▁Him	-7063
▁Nearby	-7064
▁appre	-7065
▁err	-7066
▁showing	-7067
▁liter	-7068
Art	-7069
priv	-7070
▁Indones	-7071
ghan	-7072
▁Stainless	-7073
ais	-7074
ocation	-7075
▁Regulation	-7076
▁films	-7077
▁30-	-7078
▁thermal	-7079
▁programme	-7080
▁submitted	-7081
▁Netflix	-7082
▁teasp	-7083
▁reservation	-7084
▁Works	-7085
emony	-7086
▁Vitamin	-7087
▁estim	-7088
ERVE	-7089
isure	-7090
anghai	-7091
Sum	-7092
NET	-7093
Other	-7094
▁extent	-7095
▁component	-7096
▁broadcast	-7097
▁Fun	-7098
▁Hill	-7099
bling	-7100
▁specifications	-7101
▁64	-7102
ormally	-7103
▁Cut	-7104
▁licens	-7105
▁adults	-7106
▁boasts	-7107
▁Should	-7108
ighter	-7109
▁buying	-7110
▁Monitor	-7111
▁Chris	-7112
ounder	-7113
▁Therefore	-7114
▁legislation	-7115
lı	-7116
▁improvement	-7117
▁charging	-7118
▁inquir	-7119
▁synt	-7120
UC	-7121
▁boat	-7122
▁diss	-7123
▁reliability	-7124
▁coating	-7125
▁truth	-7126
▁degrees	-7127
smoking	-7128
▁awarded	-7129
enge	-7130
▁pros	-7131
bra	-7132
▁drivers	-7133
▁Details	-7134
▁filters	-7135
▁surrounding	-7136
▁kill	-7137
iny	-7138
▁FAQ	-7139
ographic	-7140
active	-7141
osite	-7142
iform	-7143
ione	-7144
ifies	-7145
1]	-7146
▁sheets	-7147
▁boxes	-7148
▁Interior	-7149
gent	-7150
▁Remov	-7151
▁happen	-7152
ett	-7153
▁"6	-7154
▁1.	-7155
▁relating	-7156
▁becoming	-7157
Pr	-7158
▁College	-7159
poration	-7160
ht	-7161
▁Vir	-7162
▁containing	-7163
RESERVE	-7164
▁Page	-7165
▁treated	-7166
▁transplant	-7167
ndrome	-7168
pective	-7169
▁Skype	-7170
▁iCloud	-7171
88	-7172
rying	-7173
ji	-7174
uese	-7175
berry	-7176
▁tempor	-7177
acc	-7178
▁functional	-7179
▁attrib	-7180
ospit	-7181
▁phase	-7182
aded	-7183
▁visible	-7184
▁automated	-7185
▁strugg	-7186
Te	-7187
▁Body	-7188
▁Arabia	-7189
▁notification	-7190
core	-7191
▁NOT	-7192
▁pure	-7193
▁contemporary	-7194
▁coat	-7195
▁formula	-7196
▁rise	-7197
nee	-7198
▁Kaz	-7199
▁Outerwear	-7200
▁constantly	-7201
▁tail	-7202
▁muscle	-7203
water	-7204
▁Visual	-7205
▁brush	-7206
Ind	-7207
▁Docum	-7208
▁Bridge	-7209
▁accident	-7210
HS	-7211
mes	-7212
rink	-7213
▁signal	-7214
▁calendar	-7215
▁accommodations	-7216
erts	-7217
▁fant	-7218
▁33	-7219
200	-7220
▁songs	-7221
▁Satur	-7222
CP	-7223
▁4.0	-7224
oster	-7225
▁die	-7226
▁sight	-7227
zhen	-7228
▁WMV	-7229
▁Las	-7230
▁operated	-7231
ipt	-7232
lot	-7233
77	-7234
enior	-7235
▁Factory	-7236
ocolate	-7237
aka	-7238
▁extensive	-7239
▁recorded	-7240
▁trig	-7241
▁developments	-7242
Bl	-7243
▁pregnancy	-7244
▁Luxemb	-7245
▁Festival	-7246
aration	-7247
▁75	-7248
▁assembly	-7249
▁Pub	-7250
▁programming	-7251
iced	-7252
▁Buses	-7253
▁parameters	-7254
uts	-7255
▁possibility	-7256
Read	-7257
▁pun	-7258
▁valuable	-7259
▁Jud	-7260
▁shot	-7261
▁ille	-7262
▁Location	-7263
folio	-7264
▁Dog	-7265
nic	-7266
▁prison	-7267
▁therapy	-7268
▁forth	-7269
23	-7270
▁Serb	-7271
▁Abd	-7272
▁gun	-7273
▁African	-7274
▁paragraph	-7275
itz	-7276
Gener	-7277
▁gather	-7278
▁Manufact	-7279
▁majority	-7280
▁Shower	-7281
▁noise	-7282
▁expectations	-7283
▁fra	-7284
vironments	-7285
▁exciting	-7286
▁designated	-7287
iano	-7288
incess	-7289
▁Remote	-7290
▁houses	-7291
▁equival	-7292
▁Village	-7293
High	-7294
▁customize	-7295
▁Cookies	-7296
▁planned	-7297
▁ben	-7298
▁Lithuania	-7299
▁conflict	-7300
▁stylish	-7301
ART	-7302
▁tur	-7303
▁mask	-7304
ls	-7305
▁Government	-7306
▁poor	-7307
▁collaboration	-7308
ingu	-7309
▁Mode	-7310
HD	-7311
▁Robert	-7312
▁shipment	-7313
atever	-7314
▁Rings	-7315
▁strategies	-7316
▁monthly	-7317
▁defic	-7318
▁agents	-7319
▁Empire	-7320
▁Messenger	-7321
▁strategic	-7322
▁Ir	-7323
▁communications	-7324
▁Lou	-7325
▁precision	-7326
▁AG	-7327
▁evening	-7328
▁pharm	-7329
ryption	-7330
ORD	-7331
▁informed	-7332
▁script	-7333
▁rear	-7334
▁establishment	-7335
▁Georg	-7336
▁PVC	-7337
posal	-7338
▁clim	-7339
▁Bill	-7340
▁developers	-7341
odies	-7342
▁Meeting	-7343
ss	-7344
▁regularly	-7345
amics	-7346
SP	-7347
▁offices	-7348
kes	-7349
▁trend	-7350
▁Gaz	-7351
▁sin	-7352
▁grade	-7353
▁consumers	-7354
▁identified	-7355
▁riding	-7356
Im	-7357
▁wonderful	-7358
▁reject	-7359
▁dogs	-7360
▁novel	-7361
list	-7362
▁Automatic	-7363
▁challenges	-7364
▁2.5	-7365
▁Mountain	-7366
▁refrigerator	-7367
▁Syd	-7368
▁Pool	-7369
▁Sound	-7370
.'	-7371
well	-7372
body	-7373
▁setup	-7374
▁inspection	-7375
▁settle	-7376
related	-7377
▁frequency	-7378
▁instruments	-7379
▁partnership	-7380
▁qualified	-7381
▁Marketing	-7382
phas	-7383
oper	-7384
▁hundreds	-7385
▁pursu	-7386
▁Kids	-7387
▁aspects	-7388
▁divid	-7389
uster	-7390
▁pipe	-7391
▁casual	-7392
▁engines	-7393
Then	-7394
reme	-7395
▁Gü	-7396
▁Integr	-7397
▁Rev	-7398
▁Jour	-7399
▁Lib	-7400
▁Ball	-7401
AE	-7402
▁hidden	-7403
▁Temple	-7404
aba	-7405
▁forest	-7406
roller	-7407
oration	-7408
iminal	-7409
▁installing	-7410
flow	-7411
▁moved	-7412
omatic	-7413
TML	-7414
▁creates	-7415
▁Hold	-7416
▁Library	-7417
▁Pak	-7418
▁CR	-7419
▁investors	-7420
▁uns	-7421
onymous	-7422
▁Touch	-7423
▁duration	-7424
▁environments	-7425
▁bid	-7426
▁Jul	-7427
▁Flor	-7428
▁recognized	-7429
▁recre	-7430
bled	-7431
▁Ultra	-7432
▁fig	-7433
▁schedule	-7434
▁ware	-7435
▁beaches	-7436
▁vot	-7437
▁Dam	-7438
▁generate	-7439
MW	-7440
▁emails	-7441
▁Angeles	-7442
▁Portuguese	-7443
▁alarm	-7444
ocratic	-7445
law	-7446
▁Martin	-7447
▁Seller	-7448
▁Limited	-7449
outs	-7450
CL	-7451
henzhen	-7452
▁Side	-7453
ifier	-7454
▁Dyn	-7455
ın	-7456
▁Camera	-7457
▁baking	-7458
▁dental	-7459
That	-7460
2.	-7461
▁sectors	-7462
▁mist	-7463
▁SM	-7464
▁popularity	-7465
▁fol	-7466
▁lights	-7467
▁crisis	-7468
▁temporarily	-7469
iment	-7470
▁Mur	-7471
rics	-7472
▁Mic	-7473
cribe	-7474
▁keeps	-7475
▁Dial	-7476
fare	-7477
▁van	-7478
▁Latvia	-7479
▁automation	-7480
▁reporting	-7481
▁Battle	-7482
▁minibar	-7483
▁achieved	-7484
▁Mix	-7485
▁2005	-7486
▁Luxembourg	-7487
===	-7488
adies	-7489
▁Stay	-7490
▁printed	-7491
95	-7492
▁squ	-7493
▁reset	-7494
achel	-7495
▁vine	-7496
pal	-7497
▁wash	-7498
▁Package	-7499
▁Certific	-7500
ician	-7501
olars	-7502
▁tourism	-7503
edded	-7504
▁consequ	-7505
First	-7506
▁interpre	-7507
▁trees	-7508
▁Ay	-7509
▁seek	-7510
▁Mo	-7511
ela	-7512
▁owned	-7513
▁performing	-7514
kend	-7515
▁affordable	-7516
Offering	-7517
oker	-7518
▁Because	-7519
9)	-7520
▁Smoking	-7521
▁entit	-7522
▁tranqu	-7523
▁belt	-7524
▁paste	-7525
puted	-7526
lace	-7527
▁errors	-7528
▁temporary	-7529
▁Activ	-7530
▁Ast	-7531
▁pretty	-7532
▁Impro	-7533
▁Device	-7534
▁compress	-7535
Before	-7536
ır	-7537
▁Estonia	-7538
▁birthday	-7539
▁Its	-7540
▁verify	-7541
▁dipl	-7542
▁arrow	-7543
▁Bol	-7544
▁cooling	-7545
▁3.5	-7546
▁weld	-7547
▁Benef	-7548
▁happens	-7549
atto	-7550
▁leaves	-7551
▁Version	-7552
▁PU	-7553
Ro	-7554
▁lack	-7555
▁Email	-7556
ardrobe	-7557
▁church	-7558
Ltd	-7559
angzhou	-7560
isters	-7561
▁nights	-7562
▁gra	-7563
▁violence	-7564
GS	-7565
▁III	-7566
PL	-7567
▁Lic	-7568
▁instance	-7569
izard	-7570
▁Dutch	-7571
▁ratio	-7572
▁facil	-7573
▁juice	-7574
▁modify	-7575
▁eggs	-7576
▁grand	-7577
▁inch	-7578
▁Ear	-7579
▁productivity	-7580
etary	-7581
ovo	-7582
ura	-7583
level	-7584
▁foundation	-7585
▁Slovenia	-7586
ITY	-7587
▁Official	-7588
uris	-7589
▁advertis	-7590
▁filled	-7591
hibition	-7592
intage	-7593
▁Awards	-7594
▁bird	-7595
Comp	-7596
▁commonly	-7597
▁jobs	-7598
▁Malays	-7599
▁ride	-7600
▁nation	-7601
ESS	-7602
lan	-7603
▁proof	-7604
▁Date	-7605
stein	-7606
▁silver	-7607
▁missing	-7608
atibility	-7609
▁Saturday	-7610
/7	-7611
▁structures	-7612
▁Tri	-7613
▁Processor	-7614
▁Additional	-7615
burgh	-7616
▁CS	-7617
xture	-7618
▁brief	-7619
▁divers	-7620
vo	-7621
oup	-7622
Just	-7623
▁Ocean	-7624
ims	-7625
▁joined	-7626
▁rid	-7627
▁officials	-7628
▁tried	-7629
▁reality	-7630
▁exch	-7631
holders	-7632
Also	-7633
▁Response	-7634
▁EC	-7635
Inst	-7636
Dep	-7637
▁cooking	-7638
des	-7639
ropol	-7640
▁investments	-7641
▁simpl	-7642
▁APK	-7643
yester	-7644
▁preparation	-7645
▁Pocket	-7646
▁fulfill	-7647
▁Sales	-7648
▁@	-7649
▁positions	-7650
▁tag	-7651
iversary	-7652
▁Building	-7653
otion	-7654
▁Qatar	-7655
▁clearly	-7656
▁highlight	-7657
▁thin	-7658
▁Gaming	-7659
▁AT	-7660
▁Files	-7661
▁banks	-7662
▁treatments	-7663
▁representatives	-7664
▁Soci	-7665
ario	-7666
▁Wild	-7667
abling	-7668
▁Executive	-7669
▁Gran	-7670
▁mut	-7671
iliar	-7672
▁matches	-7673
ossible	-7674
▁Dragon	-7675
▁Dark	-7676
▁rare	-7677
▁bacter	-7678
▁reducing	-7679
▁communicate	-7680
othe	-7681
▁disapp	-7682
▁"7	-7683
▁600	-7684
▁waterproof	-7685
ikes	-7686
▁tal	-7687
arts	-7688
▁examples	-7689
▁phil	-7690
▁Apps	-7691
▁susp	-7692
market	-7693
▁packages	-7694
▁Silver	-7695
▁refuge	-7696
▁Closure	-7697
▁choosing	-7698
▁feeling	-7699
▁Administration	-7700
▁Before	-7701
▁Cross	-7702
▁capture	-7703
▁Moon	-7704
▁uh	-7705
ORT	-7706
▁hat	-7707
▁Van	-7708
state	-7709
ikh	-7710
chester	-7711
▁Sexy	-7712
▁horm	-7713
▁font	-7714
▁Sydney	-7715
ijing	-7716
▁aest	-7717
▁sufficient	-7718
▁Shoe	-7719
▁fly	-7720
▁Gallery	-7721
aris	-7722
▁defect	-7723
▁Cli	-7724
▁Classic	-7725
Use	-7726
▁attach	-7727
▁intelligence	-7728
▁Economic	-7729
ause	-7730
Every	-7731
ello	-7732
▁sweet	-7733
▁compact	-7734
emed	-7735
BM	-7736
alled	-7737
▁Virtual	-7738
▁Dif	-7739
▁2.	-7740
▁spok	-7741
▁raise	-7742
▁significantly	-7743
▁Cable	-7744
▁thinking	-7745
▁motion	-7746
Not	-7747
rainian	-7748
▁Anal	-7749
▁permit	-7750
▁damaged	-7751
▁voltage	-7752
looking	-7753
▁liked	-7754
▁Ra	-7755
▁Lis	-7756
▁intel	-7757
lik	-7758
▁1/2	-7759
atoes	-7760
▁bowl	-7761
▁vegetables	-7762
▁Effect	-7763
Co	-7764
▁recy	-7765
▁vill	-7766
Che	-7767
▁2006	-7768
▁blocks	-7769
▁resolve	-7770
▁agencies	-7771
Can	-7772
aren	-7773
quis	-7774
▁spent	-7775
Pal	-7776
▁MOV	-7777
vas	-7778
▁typically	-7779
▁lowest	-7780
▁complic	-7781
Aut	-7782
▁login	-7783
fox	-7784
cue	-7785
▁clip	-7786
▁mos	-7787
▁Bil	-7788
▁teaching	-7789
▁unlimited	-7790
▁limits	-7791
▁equivalent	-7792
▁Optim	-7793
▁Flo	-7794
▁lounge	-7795
▁commission	-7796
mercial	-7797
66	-7798
▁cosmet	-7799
▁34	-7800
Ab	-7801
xid	-7802
▁vit	-7803
▁officially	-7804
amps	-7805
▁dual	-7806
37	-7807
arrow	-7808
▁spacious	-7809
▁attractive	-7810
▁impl	-7811
▁apart	-7812
▁implemented	-7813
▁aren	-7814
▁Medium	-7815
adow	-7816
▁Shanghai	-7817
▁walls	-7818
▁Match	-7819
▁certainly	-7820
▁choices	-7821
▁electricity	-7822
▁ease	-7823
▁sch	-7824
▁stories	-7825
unciation	-7826
▁65	-7827
▁Broad	-7828
TE	-7829
▁disputed	-7830
▁Well	-7831
▁Bab	-7832
▁Municip	-7833
Google	-7834
away	-7835
▁Bad	-7836
▁engineers	-7837
▁um	-7838
ati	-7839
▁negoti	-7840
▁tro	-7841
▁Weather	-7842
▁painting	-7843
days	-7844
▁promotion	-7845
▁recip	-7846
▁Ott	-7847
▁Py	-7848
▁Multi	-7849
▁hyper	-7850
▁representative	-7851
Sm	-7852
▁Potter	-7853
▁Slovakia	-7854
▁Times	-7855
ailand	-7856
▁Wholesale	-7857
▁upgr	-7858
▁Thank	-7859
▁campaigns	-7860
▁euro	-7861
▁Mail	-7862
▁Anton	-7863
UP	-7864
▁correctly	-7865
▁pul	-7866
arp	-7867
▁shell	-7868
▁Thanks	-7869
▁Safe	-7870
▁offline	-7871
▁Recovery	-7872
MAN	-7873
▁»	-7874
▁bread	-7875
▁construct	-7876
▁vess	-7877
▁Today	-7878
▁tight	-7879
▁daughter	-7880
Situated	-7881
▁Studies	-7882
▁researc	-7883
awn	-7884
▁Medic	-7885
▁38	-7886
ussels	-7887
1.	-7888
writ	-7889
brid	-7890
▁employment	-7891
inct	-7892
▁Tokyo	-7893
irty	-7894
▁Bor	-7895
▁imag	-7896
andemic	-7897
▁Waist	-7898
▁finger	-7899
▁repro	-7900
▁lots	-7901
▁©	-7902
umer	-7903
▁Brow	-7904
▁combine	-7905
▁incred	-7906
▁mur	-7907
abol	-7908
▁ax	-7909
Over	-7910
erman	-7911
▁river	-7912
▁liver	-7913
▁valve	-7914
▁medicine	-7915
omas	-7916
▁rated	-7917
▁Band	-7918
▁codes	-7919
▁inner	-7920
▁Rub	-7921
▁SMS	-7922
▁craft	-7923
▁emphas	-7924
▁reputation	-7925
▁Slim	-7926
pass	-7927
▁Cred	-7928
▁arrest	-7929
▁Eastern	-7930
lights	-7931
▁Die	-7932
▁Need	-7933
azine	-7934
▁technological	-7935
▁relationships	-7936
▁meal	-7937
▁converter	-7938
char	-7939
▁Kitchen	-7940
▁blockchain	-7941
▁flexibility	-7942
▁HTML	-7943
▁bone	-7944
▁stations	-7945
orf	-7946
▁focused	-7947
▁portfolio	-7948
ito	-7949
▁configure	-7950
▁%	-7951
▁dep	-7952
▁entering	-7953
▁buyer	-7954
▁plugin	-7955
▁evil	-7956
▁periods	-7957
▁RE	-7958
▁replacement	-7959
34	-7960
kh	-7961
ruits	-7962
essions	-7963
▁ceremony	-7964
▁specializes	-7965
ertical	-7966
▁thr	-7967
▁restrictions	-7968
▁adventure	-7969
▁Battery	-7970
cap	-7971
▁situations	-7972
▁instant	-7973
enced	-7974
criptions	-7975
Type	-7976
Summary	-7977
▁staying	-7978
▁tourist	-7979
▁leads	-7980
▁influence	-7981
▁racing	-7982
AF	-7983
gien	-7984
▁Gate	-7985
▁Ter	-7986
▁helpful	-7987
▁convenience	-7988
igible	-7989
▁screw	-7990
▁alternatives	-7991
▁Snap	-7992
▁knows	-7993
▁Trading	-7994
▁commitment	-7995
▁Nin	-7996
cious	-7997
▁Christian	-7998
▁supplies	-7999
▁edition	-8000
gorith	-8001
▁fif	-8002
hand	-8003
▁Jord	-8004
▁Course	-8005
▁Cab	-8006
▁Delivery	-8007
▁string	-8008
▁Cathedral	-8009
Windows	-8010
▁disable	-8011
▁Jon	-8012
▁Flore	-8013
▁Chic	-8014
▁batter	-8015
▁Incre	-8016
pat	-8017
▁defense	-8018
▁PR	-8019
▁extended	-8020
▁spaces	-8021
anta	-8022
TD	-8023
iti	-8024
▁Stadium	-8025
▁Welcome	-8026
▁Turn	-8027
▁alcohol	-8028
▁aw	-8029
▁passengers	-8030
▁cooper	-8031
▁Condition	-8032
idity	-8033
▁undert	-8034
▁arrive	-8035
▁cheese	-8036
▁liability	-8037
▁hack	-8038
▁(200	-8039
▁Fund	-8040
▁mold	-8041
▁duty	-8042
▁slide	-8043
▁Enterprise	-8044
▁Ol	-8045
▁buttons	-8046
▁64-	-8047
inating	-8048
▁Production	-8049
▁Electronic	-8050
▁arising	-8051
oli	-8052
▁AI	-8053
osoph	-8054
▁stages	-8055
▁boys	-8056
▁Contract	-8057
▁topics	-8058
▁bin	-8059
▁PL	-8060
▁Tun	-8061
▁Although	-8062
▁Block	-8063
▁Students	-8064
urisd	-8065
▁artist	-8066
cal	-8067
▁satisfied	-8068
▁9,	-8069
▁evaluation	-8070
▁Merc	-8071
68	-8072
▁entitled	-8073
OG	-8074
-20	-8075
▁trends	-8076
ctors	-8077
▁native	-8078
iah	-8079
▁fib	-8080
▁sto	-8081
▁porn	-8082
▁pepper	-8083
▁50%	-8084
▁Prop	-8085
▁wrote	-8086
▁factor	-8087
xygen	-8088
▁agreements	-8089
▁Move	-8090
omy	-8091
Force	-8092
oubt	-8093
▁Da	-8094
▁panels	-8095
▁Viet	-8096
▁Mars	-8097
?"""	-8098
▁predict	-8099
▁Jewelry	-8100
▁unw	-8101
▁Intro	-8102
▁scheduled	-8103
▁Swedish	-8104
▁3.0	-8105
▁Visa	-8106
▁concerned	-8107
▁revolution	-8108
▁Army	-8109
▁Cos	-8110
▁Phys	-8111
▁PP	-8112
▁bond	-8113
izz	-8114
▁sounds	-8115
▁SE	-8116
▁horse	-8117
.)"	-8118
▁Intl	-8119
▁relation	-8120
▁acceler	-8121
▁conversation	-8122
49	-8123
▁UV	-8124
▁hus	-8125
hereum	-8126
▁Archived	-8127
▁destinations	-8128
ila	-8129
anya	-8130
▁housekeeping	-8131
▁seating	-8132
28	-8133
▁Ko	-8134
▁Image	-8135
▁Soft	-8136
▁newspaper	-8137
▁scal	-8138
▁Cover	-8139
▁Try	-8140
bi	-8141
ho	-8142
-10	-8143
▁prev	-8144
27	-8145
ync	-8146
▁Ku	-8147
▁appreci	-8148
ultane	-8149
▁Ta	-8150
ALY	-8151
▁Rail	-8152
▁renov	-8153
hesive	-8154
▁worry	-8155
▁verification	-8156
bean	-8157
▁optional	-8158
UD	-8159
▁Ho	-8160
ether	-8161
▁logistics	-8162
oto	-8163
▁Story	-8164
▁Airlines	-8165
uries	-8166
▁Action	-8167
DM	-8168
▁discussed	-8169
ulating	-8170
▁Performance	-8171
▁intellectual	-8172
▁broken	-8173
▁vul	-8174
Best	-8175
▁Country	-8176
HP	-8177
▁HTC	-8178
▁Has	-8179
▁figure	-8180
▁mixed	-8181
▁compens	-8182
▁decoration	-8183
▁FREE	-8184
▁returns	-8185
hoot	-8186
▁30%	-8187
unately	-8188
▁cameras	-8189
▁Israeli	-8190
▁granted	-8191
▁alle	-8192
▁adopted	-8193
▁Sem	-8194
▁mp	-8195
▁Kit	-8196
pty	-8197
-8	-8198
▁Nap	-8199
aroom	-8200
omi	-8201
▁constant	-8202
iami	-8203
▁getaroom	-8204
▁WH	-8205
ouses	-8206
▁Culture	-8207
long	-8208
▁artists	-8209
)*	-8210
▁navigation	-8211
IES	-8212
▁applying	-8213
▁Song	-8214
how	-8215
▁Experience	-8216
▁Decoration	-8217
▁Prize	-8218
▁Diam	-8219
▁bedroom	-8220
irms	-8221
▁Ski	-8222
▁Alt	-8223
▁Phen	-8224
eless	-8225
▁Thailand	-8226
leting	-8227
▁emer	-8228
▁Second	-8229
▁definitely	-8230
▁tut	-8231
▁LG	-8232
▁Force	-8233
ierge	-8234
▁kg	-8235
▁quot	-8236
▁Friend	-8237
▁Financial	-8238
iesel	-8239
▁mand	-8240
▁Pac	-8241
▁Beijing	-8242
ican	-8243
▁busy	-8244
gl	-8245
▁begins	-8246
ibration	-8247
▁Ukrainian	-8248
▁wet	-8249
▁Altern	-8250
▁damages	-8251
rov	-8252
icians	-8253
but	-8254
▁Bod	-8255
▁Categ	-8256
▁Dining	-8257
▁happened	-8258
Under	-8259
▁teaspoon	-8260
▁11,	-8261
▁Abu	-8262
▁manually	-8263
▁sights	-8264
▁Graphics	-8265
▁drugs	-8266
▁Spot	-8267
ventional	-8268
▁talks	-8269
▁gate	-8270
▁answers	-8271
▁illegal	-8272
▁Civil	-8273
▁vacuum	-8274
aceut	-8275
▁Cand	-8276
▁durable	-8277
CR	-8278
▁asset	-8279
▁reduction	-8280
▁shel	-8281
▁...	-8282
AND	-8283
▁posted	-8284
▁formation	-8285
▁walks	-8286
▁shooting	-8287
▁sections	-8288
inf	-8289
▁[...	-8290
▁Guard	-8291
apest	-8292
▁Episode	-8293
▁severe	-8294
▁wild	-8295
▁Marm	-8296
▁Programs	-8297
abeth	-8298
▁Charles	-8299
▁ster	-8300
▁IM	-8301
▁plane	-8302
hy	-8303
ername	-8304
▁priority	-8305
▁execut	-8306
▁leadership	-8307
▁Alp	-8308
▁insulation	-8309
▁Dry	-8310
▁perfectly	-8311
36	-8312
asty	-8313
uxe	-8314
▁Solar	-8315
▁contacting	-8316
hered	-8317
def	-8318
▁arg	-8319
▁divided	-8320
▁opinion	-8321
▁cir	-8322
39	-8323
▁"10	-8324
29	-8325
▁GPS	-8326
▁expos	-8327
▁suspend	-8328
oline	-8329
▁technique	-8330
▁coc	-8331
▁chicken	-8332
SA	-8333
▁lit	-8334
▁contracts	-8335
▁stake	-8336
▁toward	-8337
▁1.2	-8338
▁noted	-8339
ylon	-8340
▁warn	-8341
.000	-8342
▁37	-8343
▁Pixel	-8344
Fly	-8345
▁Compet	-8346
▁featured	-8347
▁Young	-8348
▁stret	-8349
▁rice	-8350
',	-8351
aman	-8352
▁branch	-8353
▁Ster	-8354
serv	-8355
▁Tay	-8356
▁orange	-8357
amless	-8358
▁Switch	-8359
aceutical	-8360
▁capable	-8361
ucky	-8362
▁Tab	-8363
▁weak	-8364
▁Chairman	-8365
▁encryption	-8366
▁greatest	-8367
▁entreprene	-8368
resents	-8369
▁artificial	-8370
inburgh	-8371
▁mining	-8372
▁resulting	-8373
▁angle	-8374
▁married	-8375
▁sav	-8376
▁planet	-8377
▁finding	-8378
KV	-8379
▁Hom	-8380
▁disabled	-8381
marks	-8382
ilder	-8383
▁contained	-8384
▁Local	-8385
▁guitar	-8386
ogue	-8387
igs	-8388
▁fighting	-8389
▁thickness	-8390
▁Firefox	-8391
▁speaking	-8392
▁sky	-8393
prises	-8394
amental	-8395
▁portable	-8396
▁silicone	-8397
▁Girls	-8398
▁dangerous	-8399
Travel	-8400
▁familiar	-8401
furt	-8402
▁Islands	-8403
▁lists	-8404
▁studio	-8405
▁Protect	-8406
▁resistant	-8407
▁witness	-8408
▁spare	-8409
▁Ce	-8410
link	-8411
▁Send	-8412
▁(7	-8413
Ne	-8414
▁scr	-8415
▁unlock	-8416
▁jurisd	-8417
▁Latest	-8418
▁Bra	-8419
▁Metro	-8420
▁Taiwan	-8421
▁MB	-8422
▁slightly	-8423
▁Ros	-8424
▁guidance	-8425
▁Hal	-8426
▁holds	-8427
▁4:	-8428
▁tags	-8429
▁1.6	-8430
▁trouser	-8431
▁Philipp	-8432
▁Li	-8433
Bu	-8434
▁algorith	-8435
random	-8436
arity	-8437
▁orient	-8438
▁Palestin	-8439
▁"8	-8440
▁12,	-8441
riott	-8442
▁convey	-8443
▁Areas	-8444
▁CA	-8445
▁arms	-8446
ubs	-8447
▁Malaysia	-8448
▁despite	-8449
▁caf	-8450
▁Hen	-8451
▁lobby	-8452
▁Source	-8453
which	-8454
▁altitude	-8455
▁Athens	-8456
▁continuously	-8457
▁catch	-8458
▁instrument	-8459
38	-8460
mond	-8461
ested	-8462
▁hall	-8463
▁attended	-8464
▁viewing	-8465
▁Justice	-8466
▁horiz	-8467
rection	-8468
▁Miami	-8469
▁tend	-8470
▁Level	-8471
44	-8472
▁Hack	-8473
▁religion	-8474
▁Cleaning	-8475
▁Doctor	-8476
edu	-8477
Today	-8478
▁thou	-8479
▁recognition	-8480
▁god	-8481
▁pandemic	-8482
▁depth	-8483
olidays	-8484
▁Money	-8485
▁shares	-8486
▁obligation	-8487
▁selecting	-8488
ogy	-8489
▁hab	-8490
▁Manchester	-8491
Car	-8492
▁disclose	-8493
▁Ly	-8494
SE	-8495
▁Entertainment	-8496
▁Northern	-8497
▁differences	-8498
ogen	-8499
▁Po	-8500
▁analytics	-8501
▁Vice	-8502
▁mixture	-8503
▁ign	-8504
bleshoot	-8505
▁Öz	-8506
▁Cru	-8507
▁spray	-8508
▁thank	-8509
▁teachers	-8510
▁Edinburgh	-8511
iration	-8512
▁dollars	-8513
▁(3)	-8514
▁rating	-8515
▁styles	-8516
ima	-8517
▁hero	-8518
▁hop	-8519
lication	-8520
▁Leg	-8521
▁operational	-8522
▁lady	-8523
uting	-8524
▁tablets	-8525
▁stre	-8526
▁pil	-8527
▁Donald	-8528
atured	-8529
▁slot	-8530
▁Cell	-8531
▁Vegas	-8532
▁ink	-8533
fit	-8534
▁Federation	-8535
▁actor	-8536
▁accessing	-8537
▁Brussels	-8538
▁Valley	-8539
▁Rom	-8540
▁notifications	-8541
▁defe	-8542
ürk	-8543
▁aimed	-8544
▁Cash	-8545
▁mob	-8546
▁assessment	-8547
▁od	-8548
▁Basic	-8549
▁Relations	-8550
code	-8551
▁templates	-8552
wall	-8553
▁Kurd	-8554
▁meets	-8555
▁lett	-8556
ackson	-8557
angle	-8558
▁Paper	-8559
▁Matt	-8560
ika	-8561
ITH	-8562
▁Vill	-8563
▁analyze	-8564
▁Contents	-8565
▁withdrawal	-8566
▁keywords	-8567
SI	-8568
▁bab	-8569
▁preview	-8570
▁wealth	-8571
nia	-8572
chron	-8573
▁delivers	-8574
mb	-8575
▁Ethereum	-8576
Col	-8577
▁Marriott	-8578
▁Yah	-8579
▁twice	-8580
▁lawy	-8581
Star	-8582
ferent	-8583
piece	-8584
▁documentation	-8585
▁impressive	-8586
wire	-8587
atin	-8588
▁Mid	-8589
▁nom	-8590
CA	-8591
▁represents	-8592
Get	-8593
graduate	-8594
Mar	-8595
▁wardrobe	-8596
▁surve	-8597
oa	-8598
▁fourth	-8599
▁Johnson	-8600
▁Tops	-8601
▁Fu	-8602
EB	-8603
▁topic	-8604
Don	-8605
26	-8606
▁Munich	-8607
▁supplement	-8608
▁Defense	-8609
▁floors	-8610
▁VM	-8611
▁foam	-8612
▁distributed	-8613
▁Lady	-8614
▁checked	-8615
cia	-8616
▁Ident	-8617
privacy	-8618
▁coun	-8619
▁receipt	-8620
▁managers	-8621
▁developer	-8622
▁width	-8623
▁acids	-8624
▁statistics	-8625
rition	-8626
▁guard	-8627
attoo	-8628
▁Budapest	-8629
rones	-8630
bridge	-8631
▁800	-8632
▁Rot	-8633
▁fell	-8634
▁pip	-8635
▁permitted	-8636
▁smartphones	-8637
rog	-8638
▁PM	-8639
VIDIA	-8640
▁managing	-8641
▁hel	-8642
▁loved	-8643
▁complaint	-8644
"")."	-8645
▁specify	-8646
▁EM	-8647
▁dent	-8648
▁drinking	-8649
▁Solutions	-8650
▁Certificate	-8651
▁Florence	-8652
▁bringing	-8653
▁riv	-8654
▁modes	-8655
▁Sty	-8656
▁transmitted	-8657
game	-8658
▁hostel	-8659
asa	-8660
celand	-8661
local	-8662
▁grant	-8663
utely	-8664
▁purchasing	-8665
▁hydraulic	-8666
▁mountains	-8667
▁grass	-8668
ivirus	-8669
▁cargo	-8670
▁Window	-8671
▁Ut	-8672
▁Stream	-8673
▁calling	-8674
▁Eth	-8675
▁Tax	-8676
▁tum	-8677
▁plenty	-8678
▁Hua	-8679
▁rein	-8680
Respond	-8681
▁Look	-8682
▁interactive	-8683
▁carton	-8684
▁Casa	-8685
▁random	-8686
▁ceiling	-8687
▁Stra	-8688
▁outstanding	-8689
▁corresponding	-8690
▁Did	-8691
▁layout	-8692
atering	-8693
▁Polish	-8694
▁toys	-8695
▁Pain	-8696
▁unauthor	-8697
▁Dani	-8698
reads	-8699
▁mostly	-8700
▁Ring	-8701
abolic	-8702
▁Equipment	-8703
▁Members	-8704
▁Fal	-8705
▁fastest	-8706
ashes	-8707
▁Francisco	-8708
amins	-8709
▁Federal	-8710
eph	-8711
▁BMW	-8712
nik	-8713
▁publication	-8714
izabeth	-8715
rylic	-8716
▁Magn	-8717
owers	-8718
▁organis	-8719
heim	-8720
▁warning	-8721
▁fraud	-8722
▁conver	-8723
▁Ice	-8724
▁Les	-8725
ained	-8726
▁4.5	-8727
▁Arm	-8728
▁circuit	-8729
▁overview	-8730
rosion	-8731
vely	-8732
▁Theatre	-8733
iner	-8734
▁lux	-8735
eding	-8736
▁GeForce	-8737
▁Indonesia	-8738
▁portal	-8739
▁visits	-8740
hu	-8741
▁suggestions	-8742
▁Pers	-8743
▁FLV	-8744
▁fle	-8745
▁Arabic	-8746
▁reserve	-8747
▁religious	-8748
▁Sel	-8749
▁(8	-8750
▁hosted	-8751
▁acts	-8752
RA	-8753
▁Legal	-8754
▁simultane	-8755
Dis	-8756
Any	-8757
uten	-8758
▁CPU	-8759
greg	-8760
▁Coin	-8761
▁household	-8762
▁proven	-8763
▁beat	-8764
▁Dan	-8765
Int	-8766
▁Total	-8767
▁haven	-8768
uba	-8769
IGH	-8770
▁titles	-8771
▁Complain	-8772
▁scene	-8773
▁ocean	-8774
▁Izmir	-8775
▁amend	-8776
▁belief	-8777
Spe	-8778
▁Iceland	-8779
▁improvements	-8780
▁1.1	-8781
▁transparent	-8782
▁loading	-8783
▁bridge	-8784
night	-8785
hl	-8786
kg	-8787
▁rom	-8788
▁rum	-8789
atics	-8790
▁drives	-8791
▁association	-8792
▁recognize	-8793
▁Venice	-8794
▁chief	-8795
▁ath	-8796
▁laboratory	-8797
55	-8798
ucks	-8799
person	-8800
▁restart	-8801
▁rul	-8802
▁Warfare	-8803
▁targets	-8804
ograp	-8805
▁Administr	-8806
estyle	-8807
▁14,	-8808
olec	-8809
▁Desktop	-8810
▁Laundry	-8811
▁raised	-8812
▁portion	-8813
▁Society	-8814
▁Marvel	-8815
▁buffet	-8816
▁Boot	-8817
size	-8818
▁legs	-8819
▁dresses	-8820
▁bug	-8821
cknow	-8822
▁Carib	-8823
games	-8824
▁Gear	-8825
zy	-8826
▁hospit	-8827
▁trib	-8828
▁SER	-8829
▁£	-8830
oğlu	-8831
▁bought	-8832
▁8.1	-8833
▁Both	-8834
Search	-8835
▁Payment	-8836
▁"9	-8837
▁closely	-8838
▁Jordan	-8839
▁teacher	-8840
▁uniform	-8841
▁measuring	-8842
▁patterns	-8843
▁Map	-8844
▁produces	-8845
Pre	-8846
▁surfaces	-8847
zing	-8848
▁ongoing	-8849
▁certificates	-8850
ultan	-8851
▁Comb	-8852
▁confidential	-8853
onic	-8854
while	-8855
▁respective	-8856
▁Tru	-8857
▁safely	-8858
▁clock	-8859
▁terminal	-8860
idal	-8861
▁newly	-8862
▁protective	-8863
▁discovered	-8864
▁transfers	-8865
▁regardless	-8866
600	-8867
▁Ib	-8868
▁bulk	-8869
▁Lace	-8870
▁Stone	-8871
rings	-8872
▁caps	-8873
▁Princ	-8874
3.	-8875
ontal	-8876
▁disclosure	-8877
▁appeared	-8878
▁towels	-8879
▁Community	-8880
▁expression	-8881
iana	-8882
▁favour	-8883
pens	-8884
▁Field	-8885
ateral	-8886
urrent	-8887
▁İstanbul	-8888
fi	-8889
▁manufactured	-8890
▁Amenities	-8891
▁Armenian	-8892
▁evaluate	-8893
▁reduces	-8894
▁15,	-8895
icrosoft	-8896
▁Days	-8897
Department	-8898
▁lip	-8899
lla	-8900
Responded	-8901
▁gained	-8902
▁wave	-8903
▁Available	-8904
▁investigation	-8905
uzzi	-8906
▁sons	-8907
▁rose	-8908
base	-8909
▁copper	-8910
▁Moh	-8911
▁jewelry	-8912
▁assigned	-8913
rence	-8914
▁truly	-8915
▁aer	-8916
▁powered	-8917
aco	-8918
▁Nic	-8919
▁subway	-8920
▁Hon	-8921
La	-8922
sen	-8923
▁Another	-8924
▁wasn	-8925
▁Argent	-8926
▁batteries	-8927
▁indicated	-8928
▁posts	-8929
▁Virgin	-8930
Reg	-8931
▁weekend	-8932
inema	-8933
▁Treatment	-8934
Play	-8935
artz	-8936
▁Removal	-8937
▁Islam	-8938
▁syndrome	-8939
ruption	-8940
▁eligible	-8941
▁Shenzhen	-8942
▁chocolate	-8943
▁$7	-8944
▁carrier	-8945
▁Delete	-8946
▁Maria	-8947
▁Must	-8948
Fin	-8949
▁hotfix	-8950
terior	-8951
arters	-8952
▁Address	-8953
▁obst	-8954
▁Backup	-8955
▁finance	-8956
▁Tag	-8957
▁Zipper	-8958
▁Sens	-8959
▁stim	-8960
▁39	-8961
▁$10	-8962
▁pink	-8963
▁Original	-8964
/3	-8965
▁signature	-8966
▁colle	-8967
mad	-8968
▁speeds	-8969
▁Fat	-8970
67	-8971
▁helped	-8972
▁Nobel	-8973
▁encrypt	-8974
▁Journal	-8975
rot	-8976
▁Chicago	-8977
▁entrance	-8978
▁east	-8979
▁gender	-8980
▁threats	-8981
osit	-8982
▁95	-8983
▁AWS	-8984
▁GHz	-8985
▁catalog	-8986
▁Consult	-8987
▁(10	-8988
sor	-8989
▁explained	-8990
▁mirror	-8991
▁Further	-8992
iev	-8993
haps	-8994
▁vaccine	-8995
▁cups	-8996
▁Upd	-8997
▁Elizabeth	-8998
▁challenge	-8999
ifiable	-9000
▁Si	-9001
▁bless	-9002
▁Lisbon	-9003
▁Jackson	-9004
ications	-9005
▁LORD	-9006
▁Marina	-9007
cam	-9008
▁thee	-9009
▁Bak	-9010
▁amounts	-9011
▁Football	-9012
▁showed	-9013
▁reb	-9014
▁Option	-9015
▁Very	-9016
▁25-	-9017
▁array	-9018
▁theory	-9019
▁stunning	-9020
▁illust	-9021
Key	-9022
▁desire	-9023
▁Vac	-9024
▁ped	-9025
▁expansion	-9026
▁emissions	-9027
▁jack	-9028
▁likes	-9029
▁Stick	-9030
▁Editor	-9031
iye	-9032
▁losing	-9033
hr	-9034
▁exclus	-9035
▁Region	-9036
▁registry	-9037
inals	-9038
▁villa	-9039
▁Finance	-9040
▁Ops	-9041
▁rect	-9042
▁outer	-9043
oughly	-9044
▁seeds	-9045
▁gone	-9046
▁Nik	-9047
▁Forum	-9048
▁Sov	-9049
▁4.7	-9050
▁personally	-9051
▁Advert	-9052
▁murder	-9053
▁hide	-9054
▁vulner	-9055
Many	-9056
ounded	-9057
▁compare	-9058
▁Happy	-9059
Quick	-9060
▁DHL	-9061
▁taxi	-9062
▁Ken	-9063
▁Range	-9064
▁Crystal	-9065
▁administrator	-9066
▁protecting	-9067
▁Cancel	-9068
▁specially	-9069
▁"–	-9070
▁neut	-9071
▁Those	-9072
▁Afghan	-9073
▁pricing	-9074
▁Rece	-9075
▁vinegar	-9076
▁activate	-9077
▁NAT	-9078
▁throw	-9079
▁sac	-9080
▁SharePoint	-9081
ilation	-9082
▁regime	-9083
▁consistent	-9084
▁je	-9085
peria	-9086
▁blank	-9087
▁housing	-9088
▁indicate	-9089
ersey	-9090
hin	-9091
▁00	-9092
▁Studios	-9093
▁passport	-9094
▁whatever	-9095
▁empty	-9096
channel	-9097
▁cake	-9098
▁username	-9099
clude	-9100
▁flower	-9101
▁decrease	-9102
▁roles	-9103
▁believed	-9104
.50	-9105
rates	-9106
▁Gift	-9107
gi	-9108
▁apple	-9109
▁oxygen	-9110
etime	-9111
Because	-9112
▁flowers	-9113
▁identification	-9114
▁hyp	-9115
perial	-9116
▁Lie	-9117
▁IC	-9118
▁Hig	-9119
▁routes	-9120
▁mg	-9121
▁emot	-9122
▁4.8	-9123
▁husband	-9124
pace	-9125
Most	-9126
▁Flex	-9127
▁Cop	-9128
▁YOU	-9129
▁bodies	-9130
▁Frankfurt	-9131
▁nose	-9132
ITALY	-9133
▁Tex	-9134
▁mun	-9135
▁Mi	-9136
▁acknow	-9137
elly	-9138
ATA	-9139
awa	-9140
▁arbit	-9141
▁semi	-9142
▁Large	-9143
▁attached	-9144
▁County	-9145
▁Peace	-9146
▁exported	-9147
▁guaranteed	-9148
▁Radio	-9149
▁modules	-9150
Thanks	-9151
aki	-9152
aret	-9153
▁fruits	-9154
SD	-9155
▁Chain	-9156
▁Info	-9157
▁hygien	-9158
▁species	-9159
▁Wil	-9160
▁executive	-9161
▁vast	-9162
▁bedrooms	-9163
▁Architect	-9164
▁neighbour	-9165
▁preparing	-9166
▁welcomes	-9167
▁knew	-9168
ELL	-9169
▁Applications	-9170
inar	-9171
▁Birth	-9172
▁authentication	-9173
▁Intellig	-9174
FC	-9175
▁density	-9176
▁flag	-9177
▁packed	-9178
▁Aren	-9179
▁automotive	-9180
▁DNS	-9181
▁Protocol	-9182
▁Person	-9183
▁Sen	-9184
▁spin	-9185
▁9001	-9186
▁Portable	-9187
▁Rules	-9188
ridge	-9189
▁sessions	-9190
▁Export	-9191
▁Creative	-9192
ially	-9193
▁Operating	-9194
▁Miss	-9195
oga	-9196
▁luxurious	-9197
▁Crypt	-9198
▁Mosque	-9199
oding	-9200
▁refresh	-9201
▁Corporation	-9202
▁Benefits	-9203
SC	-9204
▁Discover	-9205
rix	-9206
48	-9207
▁Caribbean	-9208
je	-9209
▁Cer	-9210
World	-9211
▁soul	-9212
GO	-9213
▁youth	-9214
▁researchers	-9215
▁hole	-9216
▁Toy	-9217
ante	-9218
▁listening	-9219
▁fundamental	-9220
hus	-9221
sec	-9222
▁interpret	-9223
iden	-9224
▁teen	-9225
▁covering	-9226
XL	-9227
onto	-9228
▁expressed	-9229
▁territory	-9230
▁Cool	-9231
▁basketball	-9232
▁passenger	-9233
Each	-9234
▁Gene	-9235
adder	-9236
""),	-9237
achelor	-9238
▁Movies	-9239
%)	-9240
table	-9241
▁Manual	-9242
▁tower	-9243
▁scenery	-9244
▁Hyd	-9245
▁align	-9246
▁inflamm	-9247
she	-9248
▁transmit	-9249
▁Binance	-9250
%,	-9251
▁indicator	-9252
▁communities	-9253
IFA	-9254
▁eliminate	-9255
▁Luc	-9256
▁ri	-9257
▁revenue	-9258
▁bran	-9259
▁Latin	-9260
▁NVIDIA	-9261
eling	-9262
▁deleg	-9263
▁Poly	-9264
General	-9265
▁franch	-9266
▁encourage	-9267
Find	-9268
▁organisation	-9269
bassador	-9270
▁disorder	-9271
igious	-9272
▁ultra	-9273
hess	-9274
▁inquiry	-9275
yal	-9276
▁Packaging	-9277
▁deemed	-9278
▁roller	-9279
gov	-9280
▁Return	-9281
aria	-9282
▁anniversary	-9283
EY	-9284
▁trouble	-9285
▁bicycle	-9286
▁producer	-9287
▁describes	-9288
TF	-9289
anes	-9290
▁authentic	-9291
▁Chart	-9292
▁WITH	-9293
hov	-9294
▁delicious	-9295
▁traders	-9296
imedia	-9297
▁Construction	-9298
▁vibr	-9299
▁oils	-9300
osophy	-9301
▁Within	-9302
▁GTX	-9303
▁ports	-9304
▁infring	-9305
rey	-9306
▁Function	-9307
▁42	-9308
▁fert	-9309
▁zero	-9310
FA	-9311
ols	-9312
▁glasses	-9313
▁2)	-9314
▁2004	-9315
▁2.4	-9316
/1	-9317
2015	-9318
▁Flat	-9319
ometers	-9320
▁sustainability	-9321
▁nearest	-9322
▁meter	-9323
Turkey	-9324
▁prohib	-9325
2]	-9326
oca	-9327
▁nations	-9328
▁shipped	-9329
▁13,	-9330
▁Fixed	-9331
▁urban	-9332
▁alongside	-9333
▁ends	-9334
▁figures	-9335
▁spons	-9336
log	-9337
▁harmful	-9338
▁Accom	-9339
▁workshop	-9340
cert	-9341
▁query	-9342
▁embedded	-9343
▁Jacket	-9344
USD	-9345
▁normally	-9346
asters	-9347
▁Rated	-9348
▁election	-9349
Description	-9350
▁Sex	-9351
asonic	-9352
▁sauce	-9353
▁tours	-9354
▁PowerPoint	-9355
▁Male	-9356
▁YOUR	-9357
abil	-9358
EV	-9359
vantages	-9360
▁Province	-9361
▁190	-9362
▁letters	-9363
Rem	-9364
▁Armenia	-9365
▁taxes	-9366
Rooms	-9367
▁Capital	-9368
▁Communication	-9369
illity	-9370
▁Wrist	-9371
hyd	-9372
▁Victoria	-9373
itivity	-9374
▁Accessories	-9375
secut	-9376
Turk	-9377
▁Olympic	-9378
▁precise	-9379
▁hes	-9380
▁textile	-9381
ML	-9382
▁departure	-9383
Addition	-9384
▁directory	-9385
isex	-9386
▁William	-9387
fortunately	-9388
dr	-9389
▁navigate	-9390
▁flags	-9391
▁enhanced	-9392
▁speakers	-9393
▁vic	-9394
▁gro	-9395
▁guidelines	-9396
ounce	-9397
▁folders	-9398
▁regulation	-9399
▁unknown	-9400
31	-9401
▁Lay	-9402
▁examination	-9403
UK	-9404
ubric	-9405
▁Forces	-9406
ns	-9407
▁secondary	-9408
▁°	-9409
lev	-9410
▁operators	-9411
razy	-9412
style	-9413
▁malware	-9414
▁explos	-9415
▁Gas	-9416
Fl	-9417
▁bacteria	-9418
adian	-9419
real	-9420
▁Popular	-9421
▁Complainant	-9422
odium	-9423
AX	-9424
▁gallery	-9425
ondo	-9426
▁banking	-9427
▁moisture	-9428
▁senior	-9429
▁WE	-9430
ument	-9431
▁shock	-9432
▁Videos	-9433
▁fishing	-9434
omach	-9435
▁seeing	-9436
ık	-9437
▁suc	-9438
▁exposure	-9439
▁Require	-9440
▁recommendations	-9441
▁ordered	-9442
adise	-9443
▁Pakistan	-9444
▁99	-9445
tech	-9446
?""	-9447
▁investig	-9448
▁statements	-9449
▁Prem	-9450
riers	-9451
▁android	-9452
operation	-9453
▁Sir	-9454
▁moon	-9455
iac	-9456
5)	-9457
Even	-9458
▁dance	-9459
▁photograph	-9460
▁Kem	-9461
▁browse	-9462
▁cloth	-9463
▁customs	-9464
▁felt	-9465
▁whenever	-9466
▁reply	-9467
▁Telephone	-9468
gener	-9469
▁Lodge	-9470
▁estimated	-9471
▁Chief	-9472
▁contrast	-9473
ds	-9474
▁CL	-9475
Featuring	-9476
▁electro	-9477
uction	-9478
abul	-9479
▁homes	-9480
atile	-9481
▁awards	-9482
▁injection	-9483
Edit	-9484
▁Trend	-9485
▁unable	-9486
▁Trust	-9487
lements	-9488
▁rapidly	-9489
▁viruses	-9490
▁visitor	-9491
▁streets	-9492
▁Driver	-9493
oret	-9494
▁Kos	-9495
▁Nig	-9496
▁robot	-9497
▁oral	-9498
▁Smith	-9499
▁Dol	-9500
▁Release	-9501
▁diagnosis	-9502
▁arrived	-9503
▁northern	-9504
▁considering	-9505
▁announcement	-9506
ults	-9507
▁cord	-9508
▁Bodrum	-9509
▁Coffee	-9510
▁Labor	-9511
▁purchases	-9512
▁introduce	-9513
FOR	-9514
▁speaker	-9515
▁maintaining	-9516
▁shapes	-9517
ushed	-9518
▁pants	-9519
▁destruction	-9520
▁rig	-9521
▁Barb	-9522
▁Mand	-9523
▁promotional	-9524
▁EV	-9525
▁Vin	-9526
ubble	-9527
▁Rade	-9528
Ah	-9529
▁Cafe	-9530
▁Exhibition	-9531
igration	-9532
onut	-9533
▁Wik	-9534
▁leisure	-9535
ATE	-9536
KK	-9537
▁municip	-9538
weg	-9539
▁Ottoman	-9540
IB	-9541
▁Moroc	-9542
heast	-9543
▁mechanism	-9544
NT	-9545
▁Boy	-9546
▁learned	-9547
▁adds	-9548
▁Pap	-9549
kok	-9550
▁1-	-9551
▁soil	-9552
Within	-9553
▁Gö	-9554
▁welding	-9555
pton	-9556
▁seamless	-9557
▁tracks	-9558
emon	-9559
▁Coast	-9560
▁Haw	-9561
▁failed	-9562
▁temperatures	-9563
ulin	-9564
▁specialist	-9565
▁merch	-9566
▁Made	-9567
Featured	-9568
▁Serbia	-9569
▁Nort	-9570
▁seal	-9571
▁typical	-9572
▁Dar	-9573
▁2.1	-9574
▁Lock	-9575
asma	-9576
erto	-9577
▁mel	-9578
asket	-9579
▁matters	-9580
▁Scott	-9581
▁combines	-9582
▁Rain	-9583
▁bench	-9584
▁Bright	-9585
▁tou	-9586
▁officer	-9587
ami	-9588
DR	-9589
▁checking	-9590
▁coup	-9591
.."	-9592
▁utility	-9593
ogan	-9594
▁alloy	-9595
▁Xperia	-9596
▁puzzle	-9597
▁chronic	-9598
▁coverage	-9599
▁massive	-9600
▁Deg	-9601
▁cancellation	-9602
urer	-9603
▁turning	-9604
▁Farm	-9605
▁Motel	-9606
▁DS	-9607
▁operates	-9608
▁strip	-9609
▁Kazakh	-9610
▁Australian	-9611
▁hire	-9612
olar	-9613
▁federal	-9614
▁Hun	-9615
▁muscles	-9616
▁myst	-9617
▁Clear	-9618
▁audit	-9619
▁motiv	-9620
1:	-9621
▁nerv	-9622
▁fluid	-9623
▁vertical	-9624
Trans	-9625
▁forced	-9626
▁Hour	-9627
▁declared	-9628
bag	-9629
▁enemy	-9630
▁targeted	-9631
▁Like	-9632
▁pm	-9633
▁trigger	-9634
▁surrounded	-9635
▁Han	-9636
xide	-9637
▁Medicine	-9638
▁marks	-9639
▁1.0	-9640
▁alternate	-9641
▁jurisdiction	-9642
▁Chat	-9643
▁alter	-9644
▁browsing	-9645
▁Soviet	-9646
▁graduate	-9647
PP	-9648
▁stove	-9649
▁Credit	-9650
▁IV	-9651
▁courts	-9652
▁Parliament	-9653
wei	-9654
uments	-9655
Drive	-9656
▁integrity	-9657
▁objective	-9658
▁Situated	-9659
▁chest	-9660
▁fro	-9661
▁magnetic	-9662
aton	-9663
▁Spider	-9664
▁Analysis	-9665
▁execution	-9666
▁replaced	-9667
▁enabling	-9668
▁voc	-9669
EU	-9670
▁willing	-9671
▁Regional	-9672
View	-9673
▁Waterproof	-9674
world	-9675
▁Agric	-9676
▁decent	-9677
▁ultimate	-9678
▁Peters	-9679
ania	-9680
▁Var	-9681
▁acquis	-9682
▁Swiss	-9683
▁positioned	-9684
▁Skin	-9685
▁unf	-9686
▁hosts	-9687
eh	-9688
cu	-9689
aft	-9690
▁cables	-9691
▁Ok	-9692
▁kit	-9693
▁180	-9694
▁isol	-9695
▁Opera	-9696
▁Georgia	-9697
▁toy	-9698
making	-9699
▁Io	-9700
▁Hou	-9701
▁Visit	-9702
▁Deputy	-9703
.),	-9704
▁subjects	-9705
▁impossible	-9706
▁paying	-9707
▁44	-9708
UE	-9709
bow	-9710
▁NEW	-9711
tit	-9712
rawn	-9713
▁departments	-9714
▁thor	-9715
▁seed	-9716
▁airline	-9717
▁deficiency	-9718
2:	-9719
▁transition	-9720
▁Innov	-9721
uties	-9722
▁BI	-9723
iller	-9724
▁efficiently	-9725
▁Ads	-9726
▁Learning	-9727
▁16,	-9728
▁Reviews	-9729
▁Heart	-9730
▁narrow	-9731
▁criminal	-9732
▁optical	-9733
▁succeed	-9734
▁Property	-9735
▁boot	-9736
▁crew	-9737
▁vitamins	-9738
/0	-9739
▁Universal	-9740
▁Anat	-9741
▁Accommod	-9742
▁Properties	-9743
▁token	-9744
▁teach	-9745
▁seller	-9746
▁Hem	-9747
▁Ash	-9748
▁Princess	-9749
▁minister	-9750
unte	-9751
▁fatty	-9752
▁define	-9753
▁forming	-9754
allel	-9755
▁Britain	-9756
▁Weight	-9757
▁Whether	-9758
▁comprom	-9759
▁vicinity	-9760
alid	-9761
▁Hollywood	-9762
itarian	-9763
▁freight	-9764
▁continuing	-9765
▁intelligent	-9766
fall	-9767
vance	-9768
▁loaded	-9769
Per	-9770
▁Moses	-9771
▁absolutely	-9772
Make	-9773
▁lemon	-9774
▁Gardens	-9775
▁Command	-9776
ITE	-9777
▁Forest	-9778
INE	-9779
▁definition	-9780
▁Tea	-9781
▁Radeon	-9782
afa	-9783
▁Diamond	-9784
cons	-9785
▁swim	-9786
ORE	-9787
xic	-9788
▁Directorate	-9789
▁implant	-9790
enz	-9791
acht	-9792
▁arrange	-9793
▁instantly	-9794
Us	-9795
▁respectively	-9796
▁licensed	-9797
▁west	-9798
rieved	-9799
▁subsequ	-9800
▁kidney	-9801
▁Document	-9802
▁tranquillity	-9803
▁Bird	-9804
-15	-9805
▁browsers	-9806
earing	-9807
▁Apply	-9808
asted	-9809
ding	-9810
▁WAV	-9811
▁Furn	-9812
▁Pear	-9813
bank	-9814
icing	-9815
iga	-9816
▁Common	-9817
▁limitation	-9818
2-	-9819
▁entity	-9820
▁promise	-9821
▁burning	-9822
▁destroyed	-9823
elect	-9824
▁Brown	-9825
▁explo	-9826
▁(20	-9827
▁Tal	-9828
▁marked	-9829
▁reaction	-9830
▁compatibility	-9831
▁sear	-9832
▁diamond	-9833
▁violation	-9834
▁passion	-9835
pert	-9836
Tom	-9837
▁Racing	-9838
▁mental	-9839
▁newslet	-9840
organ	-9841
ni	-9842
▁Maps	-9843
▁panor	-9844
▁causing	-9845
▁pleasure	-9846
po	-9847
▁Od	-9848
▁layers	-9849
annes	-9850
▁vital	-9851
▁cock	-9852
▁Ing	-9853
▁cyl	-9854
▁graphic	-9855
arf	-9856
▁calculated	-9857
▁closer	-9858
▁Meh	-9859
▁transformation	-9860
▁Il	-9861
▁Ale	-9862
▁Respond	-9863
▁percentage	-9864
owing	-9865
▁Simple	-9866
▁soccer	-9867
▁$0	-9868
▁primarily	-9869
▁Chamber	-9870
▁diameter	-9871
▁Hu	-9872
▁scholars	-9873
▁Event	-9874
▁maxim	-9875
iffon	-9876
▁Xia	-9877
aturally	-9878
▁trademarks	-9879
phor	-9880
▁ended	-9881
▁shortcut	-9882
cop	-9883
Euro	-9884
▁accum	-9885
▁$9	-9886
▁turns	-9887
▁Authority	-9888
▁disorders	-9889
Pe	-9890
▁existence	-9891
▁350	-9892
▁optimal	-9893
▁coal	-9894
▁chemicals	-9895
BD	-9896
check	-9897
▁entirely	-9898
PE	-9899
▁optimization	-9900
▁Heating	-9901
Sec	-9902
eta	-9903
▁starring	-9904
▁breat	-9905
▁Antonio	-9906
▁refers	-9907
▁enemies	-9908
▁marriage	-9909
card	-9910
high	-9911
▁Dream	-9912
▁Manage	-9913
▁lenses	-9914
▁stuff	-9915
olester	-9916
▁Current	-9917
kins	-9918
licit	-9919
▁Lee	-9920
▁notify	-9921
▁Password	-9922
▁Unit	-9923
ching	-9924
▁indeed	-9925
89	-9926
▁Client	-9927
adi	-9928
▁chip	-9929
▁Comfort	-9930
▁airlines	-9931
▁Object	-9932
▁sleeping	-9933
▁objectives	-9934
▁tablespoons	-9935
atched	-9936
ulu	-9937
zes	-9938
park	-9939
▁Doll	-9940
lisher	-9941
▁infections	-9942
▁Dual	-9943
nda	-9944
▁Processing	-9945
athered	-9946
▁Finn	-9947
▁Dublin	-9948
▁pleased	-9949
sis	-9950
▁2020,	-9951
▁Jackets	-9952
▁2016,	-9953
▁holder	-9954
▁1)	-9955
▁pron	-9956
ingham	-9957
▁immediate	-9958
▁stones	-9959
▁Complete	-9960
emen	-9961
SM	-9962
▁gameplay	-9963
▁Conditioning	-9964
▁Rod	-9965
▁Nord	-9966
▁concierge	-9967
▁encounter	-9968
800	-9969
▁Maced	-9970
▁pumps	-9971
▁underground	-9972
hovah	-9973
▁loan	-9974
▁candidates	-9975
orient	-9976
inces	-9977
▁Pacific	-9978
▁designers	-9979
▁vegetable	-9980
▁20,	-9981
name	-9982
▁organize	-9983
▁Eco	-9984
▁completion	-9985
▁baggage	-9986
arus	-9987
olo	-9988
yr	-9989
▁hydro	-9990
▁Dur	-9991
▁Tourism	-9992
.90	-9993
▁nine	-9994
▁Typ	-9995
▁Hero	-9996
arium	-9997
▁Texas	-9998
▁Sultan	-9999
commerce	-10000
IST	-10001
▁Fant	-10002
▁generator	-10003
amburg	-10004
▁dimensions	-10005
▁Heav	-10006
▁lessons	-10007
▁FIFA	-10008
▁Controller	-10009
▁3.	-10010
aders	-10011
▁sensors	-10012
▁Louis	-10013
raction	-10014
▁Batman	-10015
Follow	-10016
ems	-10017
▁opposite	-10018
▁dispute	-10019
▁Through	-10020
▁acceptance	-10021
IONS	-10022
▁distingu	-10023
ICE	-10024
▁concepts	-10025
▁render	-10026
Pay	-10027
▁fort	-10028
alia	-10029
▁Shirt	-10030
Custom	-10031
estone	-10032
cretion	-10033
▁struggle	-10034
alse	-10035
build	-10036
uation	-10037
▁unauthorized	-10038
ummy	-10039
▁exclusively	-10040
▁agricultural	-10041
▁18,	-10042
▁debt	-10043
▁phen	-10044
Cre	-10045
bally	-10046
Prof	-10047
▁Glo	-10048
bourne	-10049
▁lived	-10050
▁FM	-10051
▁Carl	-10052
LY	-10053
olesterol	-10054
NA	-10055
▁Final	-10056
▁Config	-10057
▁Surg	-10058
▁trusted	-10059
▁assem	-10060
och	-10061
▁prime	-10062
▁Steam	-10063
▁Working	-10064
isms	-10065
▁1990	-10066
▁Database	-10067
▁garlic	-10068
▁movements	-10069
▁MKV	-10070
▁subsidi	-10071
UB	-10072
▁Pier	-10073
▁lamp	-10074
____	-10075
spec	-10076
▁Daily	-10077
▁ourselves	-10078
conf	-10079
ju	-10080
▁SSL	-10081
hire	-10082
Russ	-10083
▁conv	-10084
atable	-10085
▁scientists	-10086
▁spam	-10087
▁maps	-10088
▁engaged	-10089
HA	-10090
▁Gi	-10091
▁CC	-10092
▁Therm	-10093
▁theaters	-10094
▁grounds	-10095
▁festival	-10096
Plus	-10097
▁vote	-10098
▁Jehovah	-10099
▁Ban	-10100
Direct	-10101
▁AF	-10102
KS	-10103
▁invite	-10104
▁hath	-10105
▁distinct	-10106
▁doubt	-10107
lasses	-10108
▁removing	-10109
▁amb	-10110
▁coins	-10111
compatible	-10112
▁Student	-10113
ishment	-10114
▁recon	-10115
Sw	-10116
GA	-10117
uminium	-10118
iders	-10119
▁stomach	-10120
▁OFF	-10121
▁copies	-10122
▁branches	-10123
▁Pic	-10124
▁answered	-10125
▁contribution	-10126
▁router	-10127
▁License	-10128
▁crime	-10129
47	-10130
▁Kir	-10131
▁modified	-10132
lad	-10133
▁Memory	-10134
▁indicates	-10135
▁labels	-10136
licks	-10137
▁Rose	-10138
▁exit	-10139
▁signals	-10140
▁Costa	-10141
ogether	-10142
▁extreme	-10143
▁represented	-10144
▁Emer	-10145
▁Self	-10146
▁founder	-10147
▁Introduction	-10148
▁substances	-10149
▁honey	-10150
ewhere	-10151
visory	-10152
▁enjoys	-10153
after	-10154
▁perspective	-10155
asm	-10156
▁coron	-10157
▁Ub	-10158
▁1.8	-10159
▁lake	-10160
Similar	-10161
▁hiking	-10162
▁Floor	-10163
▁tutorial	-10164
▁remark	-10165
▁promin	-10166
▁healthcare	-10167
▁prevents	-10168
▁wallpaper	-10169
▁Parking	-10170
avirus	-10171
break	-10172
ashboard	-10173
▁Jews	-10174
di	-10175
▁immune	-10176
▁Jacuzzi	-10177
▁buck	-10178
▁Profile	-10179
▁alleged	-10180
▁gel	-10181
▁Fer	-10182
▁occasion	-10183
▁traveling	-10184
uitive	-10185
chen	-10186
▁Philippines	-10187
▁Premier	-10188
called	-10189
▁diverse	-10190
▁optimize	-10191
▁Bott	-10192
▁Solution	-10193
exe	-10194
▁proport	-10195
▁peaceful	-10196
▁franchise	-10197
teen	-10198
yself	-10199
hat	-10200
entials	-10201
▁incorpor	-10202
▁protects	-10203
▁interaction	-10204
▁college	-10205
▁residential	-10206
▁Toronto	-10207
▁themes	-10208
▁surely	-10209
▁prest	-10210
onder	-10211
▁realize	-10212
▁Buch	-10213
▁leak	-10214
angers	-10215
▁inspired	-10216
▁Purch	-10217
▁Tags	-10218
▁Cultural	-10219
▁Occ	-10220
orms	-10221
▁comparison	-10222
▁Kal	-10223
▁Magic	-10224
esome	-10225
▁privile	-10226
Av	-10227
rite	-10228
▁facial	-10229
▁Whe	-10230
itches	-10231
▁finds	-10232
▁behavi	-10233
▁Fine	-10234
▁47	-10235
osystem	-10236
▁introduction	-10237
Pop	-10238
▁VR	-10239
▁Turkmen	-10240
▁gathered	-10241
:30	-10242
▁Round	-10243
▁genuine	-10244
▁yester	-10245
▁palace	-10246
run	-10247
▁Ten	-10248
▁candidate	-10249
▁mesh	-10250
ido	-10251
▁signing	-10252
▁surpr	-10253
▁savings	-10254
▁unve	-10255
▁ord	-10256
300	-10257
heet	-10258
▁CNC	-10259
GE	-10260
rupted	-10261
▁2.2	-10262
▁fantastic	-10263
▁Prophet	-10264
▁relevance	-10265
▁Fish	-10266
▁Veh	-10267
▁2015,	-10268
Eng	-10269
astics	-10270
▁Value	-10271
▁Via	-10272
bek	-10273
▁expenses	-10274
▁Sami	-10275
▁2014,	-10276
pot	-10277
▁flying	-10278
▁fault	-10279
▁Thai	-10280
GER	-10281
▁Sher	-10282
▁Index	-10283
▁Holy	-10284
Mon	-10285
▁exceptional	-10286
▁Launch	-10287
▁Five	-10288
▁heads	-10289
▁Commercial	-10290
▁Ill	-10291
left	-10292
▁universal	-10293
▁Such	-10294
ixels	-10295
etc	-10296
▁Sav	-10297
▁closet	-10298
▁Offering	-10299
▁Environmental	-10300
OV	-10301
▁usual	-10302
▁Goods	-10303
idency	-10304
▁formal	-10305
▁guy	-10306
▁adop	-10307
boards	-10308
▁accessed	-10309
/8	-10310
▁observ	-10311
▁2013,	-10312
Two	-10313
only	-10314
Based	-10315
Using	-10316
aze	-10317
▁Zone	-10318
▁DO	-10319
-6	-10320
▁Chile	-10321
▁coach	-10322
▁discussion	-10323
▁NAS	-10324
Whether	-10325
▁freely	-10326
ardo	-10327
▁Breath	-10328
▁yesterday	-10329
▁$6	-10330
agues	-10331
preme	-10332
▁episode	-10333
▁cro	-10334
▁Puerto	-10335
▁consisting	-10336
▁dine	-10337
▁motorcycle	-10338
NG	-10339
▁claimed	-10340
AW	-10341
▁surgical	-10342
▁Plant	-10343
▁warehouse	-10344
uma	-10345
▁insights	-10346
MT	-10347
▁corrosion	-10348
▁Imp	-10349
▁ceramic	-10350
▁Fa	-10351
▁dated	-10352
▁permissions	-10353
.10	-10354
upp	-10355
▁giant	-10356
isi	-10357
▁49	-10358
▁Pract	-10359
▁deletion	-10360
▁acquired	-10361
▁incorrect	-10362
▁Som	-10363
▁universe	-10364
▁Thus	-10365
▁Sus	-10366
▁Histor	-10367
▁sync	-10368
▁escape	-10369
▁calcium	-10370
▁Staff	-10371
▁bearing	-10372
▁personalized	-10373
▁XL	-10374
▁clinical	-10375
▁gifts	-10376
▁Shirts	-10377
Start	-10378
▁tape	-10379
▁Setup	-10380
iances	-10381
RANCE	-10382
▁seeking	-10383
▁affects	-10384
▁NATO	-10385
:5	-10386
▁liable	-10387
▁winner	-10388
▁Polit	-10389
▁beta	-10390
Check	-10391
▁fing	-10392
▁Refrigerator	-10393
▁split	-10394
▁Slot	-10395
▁Arc	-10396
▁Fall	-10397
stra	-10398
▁imported	-10399
▁tradition	-10400
elle	-10401
▁Heat	-10402
▁spy	-10403
▁2017,	-10404
▁Hat	-10405
month	-10406
Therefore	-10407
ulpt	-10408
▁discretion	-10409
▁Gmail	-10410
▁commands	-10411
▁wheat	-10412
▁Hotwire	-10413
▁colorful	-10414
▁losses	-10415
▁ib	-10416
▁Sheikh	-10417
RC	-10418
▁decades	-10419
▁observed	-10420
▁accompan	-10421
▁2021,	-10422
▁UPS	-10423
▁inventory	-10424
▁ru	-10425
▁adapter	-10426
azi	-10427
▁putting	-10428
▁breach	-10429
▁Picture	-10430
▁urg	-10431
▁Domain	-10432
▁6-	-10433
▁arrang	-10434
▁Employ	-10435
▁wins	-10436
▁tomorrow	-10437
▁lung	-10438
anz	-10439
▁pools	-10440
Mod	-10441
▁85	-10442
▁Terminal	-10443
quarters	-10444
eper	-10445
oral	-10446
▁Dim	-10447
▁Transportation	-10448
olk	-10449
▁Sever	-10450
▁kilometers	-10451
▁engage	-10452
Due	-10453
▁Bangkok	-10454
uous	-10455
▁bands	-10456
-12	-10457
▁regulatory	-10458
effect	-10459
case	-10460
▁MOQ	-10461
▁Scan	-10462
▁prevention	-10463
▁sud	-10464
▁nail	-10465
▁molec	-10466
▁Jones	-10467
also	-10468
kens	-10469
▁Lore	-10470
▁chopped	-10471
▁Qual	-10472
▁TS	-10473
▁participating	-10474
▁reaching	-10475
▁forecast	-10476
stream	-10477
▁inspect	-10478
▁pane	-10479
▁shoulder	-10480
iP	-10481
▁everyday	-10482
▁41	-10483
▁SAP	-10484
▁discip	-10485
▁Sites	-10486
▁SW	-10487
rally	-10488
▁Emb	-10489
▁1.3	-10490
RS	-10491
▁mort	-10492
▁Death	-10493
▁Osc	-10494
xx	-10495
ifer	-10496
▁pray	-10497
▁mould	-10498
▁crystal	-10499
mega	-10500
AA	-10501
ğan	-10502
▁Writ	-10503
▁sister	-10504
Serving	-10505
▁capability	-10506
▁Accommodation	-10507
▁relatively	-10508
▁Bell	-10509
oured	-10510
▁Tar	-10511
▁frag	-10512
▁chips	-10513
▁repeat	-10514
▁sleeve	-10515
▁bes	-10516
▁tourists	-10517
▁delivering	-10518
▁Height	-10519
▁explains	-10520
esty	-10521
▁Technologies	-10522
▁Leon	-10523
▁Ether	-10524
▁moves	-10525
▁Thrones	-10526
▁17,	-10527
Let	-10528
erals	-10529
▁participated	-10530
▁Blood	-10531
▁sits	-10532
▁variable	-10533
▁Jewish	-10534
▁Secure	-10535
▁concert	-10536
▁Overview	-10537
▁Drop	-10538
▁draft	-10539
▁da	-10540
▁Ni	-10541
▁Ultimate	-10542
oices	-10543
neys	-10544
▁ic	-10545
▁lie	-10546
▁none	-10547
gap	-10548
▁detected	-10549
asi	-10550
ques	-10551
▁skill	-10552
▁Kazakhstan	-10553
▁Week	-10554
trip	-10555
▁arts	-10556
Air	-10557
▁Military	-10558
▁10%	-10559
west	-10560
▁bomb	-10561
▁unlaw	-10562
▁legend	-10563
▁Framework	-10564
▁Ess	-10565
▁aesthetic	-10566
▁tv	-10567
▁Menu	-10568
▁careful	-10569
▁producers	-10570
▁Ty	-10571
▁maker	-10572
▁Holding	-10573
4.	-10574
▁Hamburg	-10575
▁Ri	-10576
▁Adam	-10577
IO	-10578
▁competent	-10579
tail	-10580
▁Beauty	-10581
▁exposed	-10582
▁Conn	-10583
▁VIP	-10584
Microsoft	-10585
▁athlet	-10586
▁Trailer	-10587
▁injury	-10588
▁Chemical	-10589
▁stops	-10590
▁renovated	-10591
**	-10592
▁Geneva	-10593
fly	-10594
▁segment	-10595
▁temple	-10596
▁watches	-10597
▁Printing	-10598
Port	-10599
▁Compatible	-10600
shirt	-10601
▁southern	-10602
▁Sud	-10603
▁pin	-10604
▁involve	-10605
▁drops	-10606
wing	-10607
▁Fit	-10608
▁anticip	-10609
▁Adjust	-10610
zone	-10611
ACT	-10612
Further	-10613
▁seats	-10614
otherapy	-10615
▁Petersburg	-10616
▁Cold	-10617
▁loyal	-10618
▁pharmaceutical	-10619
▁Ka	-10620
▁humans	-10621
▁Colomb	-10622
oriented	-10623
Pack	-10624
▁compensation	-10625
▁consideration	-10626
▁critic	-10627
▁visibility	-10628
▁Format	-10629
▁Municipality	-10630
pm	-10631
▁hung	-10632
▁landscape	-10633
plete	-10634
inates	-10635
ometimes	-10636
▁Important	-10637
▁Cancelon	-10638
▁Detail	-10639
▁theater	-10640
icer	-10641
▁SC	-10642
▁honor	-10643
▁Alanya	-10644
▁Argentina	-10645
▁Requirements	-10646
▁Led	-10647
▁Directory	-10648
▁appointment	-10649
▁Stop	-10650
▁Installation	-10651
wait	-10652
▁searching	-10653
▁Pron	-10654
▁complaints	-10655
bus	-10656
▁AAC	-10657
▁false	-10658
▁2012,	-10659
doors	-10660
atis	-10661
Of	-10662
▁Channel	-10663
▁mandatory	-10664
ulative	-10665
▁smoke	-10666
▁clicks	-10667
▁stroll	-10668
▁tunnel	-10669
▁Canadian	-10670
ometer	-10671
orship	-10672
▁tokens	-10673
▁Thomas	-10674
▁ages	-10675
▁columns	-10676
▁Bot	-10677
pending	-10678
TO	-10679
▁injured	-10680
▁hook	-10681
▁reveal	-10682
▁landing	-10683
▁Fold	-10684
▁Questions	-10685
▁Partners	-10686
Where	-10687
▁25,	-10688
▁Represent	-10689
rary	-10690
▁obvious	-10691
▁combat	-10692
▁terrorist	-10693
IVE	-10694
▁SERV	-10695
▁acting	-10696
▁synchron	-10697
▁Catal	-10698
▁Ide	-10699
▁actress	-10700
▁haz	-10701
iplayer	-10702
▁Bow	-10703
▁multip	-10704
▁passing	-10705
▁Hi	-10706
▁rewards	-10707
▁Bathrooms	-10708
▁remind	-10709
▁Comments	-10710
▁WMA	-10711
▁waters	-10712
Ass	-10713
▁incident	-10714
▁connectivity	-10715
ILL	-10716
▁Anatol	-10717
▁Jun	-10718
▁subscrib	-10719
▁magazine	-10720
ui	-10721
▁Their	-10722
▁Independ	-10723
▁declaration	-10724
▁cond	-10725
▁Leban	-10726
▁Pant	-10727
NC	-10728
▁anonym	-10729
▁pione	-10730
▁Deep	-10731
▁barrel	-10732
▁greatly	-10733
▁COMP	-10734
87	-10735
▁soundproof	-10736
▁1080	-10737
▁globe	-10738
▁mathem	-10739
▁Morocco	-10740
activ	-10741
▁royal	-10742
▁Crime	-10743
▁seasonal	-10744
▁Heritage	-10745
▁24/7	-10746
▁sharp	-10747
opl	-10748
▁sudden	-10749
▁Section	-10750
▁21,	-10751
▁spoke	-10752
▁activated	-10753
▁Unisex	-10754
roke	-10755
▁integrate	-10756
▁Palestinian	-10757
▁Revolution	-10758
▁tent	-10759
▁bigger	-10760
▁dressed	-10761
olis	-10762
Product	-10763
oftop	-10764
▁buyers	-10765
▁duties	-10766
▁RF	-10767
istical	-10768
▁->	-10769
▁beneficial	-10770
▁elections	-10771
inite	-10772
▁adequ	-10773
▁tells	-10774
▁Economics	-10775
▁RO	-10776
ymph	-10777
▁accounting	-10778
aught	-10779
claim	-10780
▁victory	-10781
▁soldiers	-10782
▁consultancy	-10783
rolled	-10784
▁heated	-10785
▁panoramic	-10786
▁involves	-10787
▁Lum	-10788
▁invited	-10789
Post	-10790
▁robust	-10791
▁joy	-10792
Turkish	-10793
▁1.7	-10794
ieving	-10795
Take	-10796
▁hesitate	-10797
▁nightRESERVE	-10798
ailing	-10799
▁Downtown	-10800
ropolitan	-10801
▁exercises	-10802
▁Railway	-10803
▁restriction	-10804
▁Pink	-10805
▁powers	-10806
▁Rio	-10807
▁blocked	-10808
lined	-10809
▁Spirit	-10810
page	-10811
icate	-10812
▁intern	-10813
▁vessels	-10814
▁Houston	-10815
gat	-10816
▁Gun	-10817
-201	-10818
aired	-10819
▁Massage	-10820
▁Directors	-10821
▁Xiaomi	-10822
▁writer	-10823
▁minor	-10824
allas	-10825
▁Woman	-10826
▁yield	-10827
▁Afghanistan	-10828
Last	-10829
▁permanently	-10830
haust	-10831
▁Partner	-10832
▁Liver	-10833
▁sid	-10834
▁passwords	-10835
FRANCE	-10836
gro	-10837
aron	-10838
▁simultaneously	-10839
▁identifiable	-10840
▁Respondent	-10841
Time	-10842
▁lovely	-10843
zo	-10844
▁Distrib	-10845
▁prove	-10846
ned	-10847
▁converted	-10848
▁Bou	-10849
▁parallel	-10850
text	-10851
▁Tro	-10852
cellence	-10853
▁terminate	-10854
PM	-10855
▁cholesterol	-10856
▁Ox	-10857
▁composed	-10858
▁Corporate	-10859
▁followers	-10860
cludes	-10861
▁reader	-10862
▁incredible	-10863
▁Driv	-10864
▁strictly	-10865
▁distribut	-10866
Ant	-10867
▁Mechan	-10868
▁crucial	-10869
▁occurred	-10870
▁meant	-10871
▁ty	-10872
ologist	-10873
▁obliged	-10874
▁appreciate	-10875
▁Liber	-10876
▁frames	-10877
▁minimal	-10878
▁Ford	-10879
tery	-10880
▁ACC	-10881
▁NFT	-10882
▁Ron	-10883
▁dryer	-10884
▁(4)	-10885
quake	-10886
▁Democratic	-10887
bian	-10888
▁Nice	-10889
▁Sleep	-10890
IK	-10891
kt	-10892
▁3.1	-10893
igue	-10894
▁extensions	-10895
▁Close	-10896
▁lin	-10897
▁gran	-10898
▁internationally	-10899
▁19,	-10900
▁couldn	-10901
▁knowing	-10902
▁earned	-10903
▁Resources	-10904
▁prize	-10905
isson	-10906
▁equip	-10907
uf	-10908
▁Dhab	-10909
▁CM	-10910
▁BC	-10911
sa	-10912
edge	-10913
ylene	-10914
▁Plug	-10915
▁Vietnam	-10916
▁BE	-10917
IX	-10918
▁yes	-10919
ALL	-10920
▁blind	-10921
▁nutri	-10922
htt	-10923
ocracy	-10924
▁castle	-10925
▁Iranian	-10926
▁neighbourhood	-10927
▁Ü	-10928
▁accompanied	-10929
▁deck	-10930
▁Pin	-10931
apping	-10932
▁pairs	-10933
▁Florida	-10934
hew	-10935
▁challenging	-10936
▁●	-10937
▁tip	-10938
▁recipe	-10939
▁sensitivity	-10940
omic	-10941
▁Anth	-10942
venient	-10943
▁mixing	-10944
▁totally	-10945
▁accred	-10946
adel	-10947
Good	-10948
▁lubric	-10949
▁Tell	-10950
▁rac	-10951
▁Bru	-10952
▁"·	-10953
▁NO	-10954
Apple	-10955
▁Zoom	-10956
▁UAE	-10957
▁chem	-10958
▁Track	-10959
UV	-10960
▁Circ	-10961
▁residents	-10962
▁transplantation	-10963
▁Appro	-10964
▁designing	-10965
▁Points	-10966
▁carries	-10967
▁moments	-10968
-9	-10969
▁spending	-10970
support	-10971
▁engineer	-10972
▁cabinet	-10973
▁Based	-10974
▁acquisition	-10975
▁overse	-10976
▁Huawei	-10977
▁Bucharest	-10978
▁singer	-10979
▁describe	-10980
▁currencies	-10981
▁Calc	-10982
oned	-10983
psum	-10984
▁facing	-10985
▁lifestyle	-10986
▁myself	-10987
▁tablespoon	-10988
▁Added	-10989
▁Arena	-10990
▁parks	-10991
▁mutual	-10992
▁rib	-10993
▁tournament	-10994
▁pollution	-10995
▁Hay	-10996
lando	-10997
▁faculty	-10998
▁pel	-10999
▁digest	-11000
▁optimized	-11001
▁Shopify	-11002
▁pressing	-11003
▁unwanted	-11004
▁DI	-11005
▁gardens	-11006
▁sew	-11007
ampion	-11008
arding	-11009
osa	-11010
▁Ath	-11011
▁stronger	-11012
▁tournaments	-11013
42	-11014
▁Ask	-11015
iva	-11016
▁enjoying	-11017
swer	-11018
▁trained	-11019
▁2010,	-11020
3:	-11021
▁museums	-11022
sey	-11023
user	-11024
▁Living	-11025
▁consequences	-11026
▁Allow	-11027
through	-11028
▁id	-11029
▁officers	-11030
▁Guangzhou	-11031
▁Pronunciation	-11032
▁Jong	-11033
▁animation	-11034
▁lod	-11035
▁OG	-11036
▁oldest	-11037
▁Pictures	-11038
▁globally	-11039
▁enthus	-11040
▁photography	-11041
▁onsite	-11042
▁wra	-11043
▁keyword	-11044
Out	-11045
▁Muslims	-11046
▁Tree	-11047
▁2018,	-11048
▁musical	-11049
▁tanks	-11050
▁repeated	-11051
▁zoom	-11052
▁Dhabi	-11053
▁vend	-11054
ificent	-11055
wich	-11056
▁Qur	-11057
▁Companies	-11058
▁strongly	-11059
ROM	-11060
▁antivirus	-11061
▁kick	-11062
EK	-11063
▁Voice	-11064
▁facilitate	-11065
UY	-11066
ilateral	-11067
▁bull	-11068
▁Daniel	-11069
▁widget	-11070
▁possibilities	-11071
▁ecosystem	-11072
▁Lite	-11073
oust	-11074
imentary	-11075
▁Ped	-11076
▁originally	-11077
▁HT	-11078
▁suits	-11079
▁closing	-11080
▁scroll	-11081
▁presents	-11082
▁Belt	-11083
▁Cancer	-11084
eness	-11085
▁Alexander	-11086
outube	-11087
▁nit	-11088
▁connector	-11089
Only	-11090
▁Joseph	-11091
▁Making	-11092
aver	-11093
▁HotelTravel	-11094
▁brake	-11095
▁improves	-11096
▁publishing	-11097
▁dried	-11098
▁Photoshop	-11099
-7	-11100
▁pig	-11101
▁settlement	-11102
▁LLC	-11103
▁enjoyed	-11104
ught	-11105
▁reviewed	-11106
▁soph	-11107
▁Future	-11108
▁colon	-11109
▁Register	-11110
▁Captain	-11111
▁exploring	-11112
▁era	-11113
▁ip	-11114
about	-11115
▁Jean	-11116
▁philosophy	-11117
▁elev	-11118
tes	-11119
wegian	-11120
aca	-11121
lette	-11122
▁Tips	-11123
unglasses	-11124
▁increasingly	-11125
▁naturally	-11126
▁preventing	-11127
BOOK	-11128
▁Copyright	-11129
cend	-11130
▁collecting	-11131
▁Due	-11132
▁explicit	-11133
▁studying	-11134
▁pregnant	-11135
Reservation	-11136
▁slots	-11137
▁Particip	-11138
▁dirt	-11139
▁astron	-11140
▁Cute	-11141
▁22,	-11142
▁Cape	-11143
eman	-11144
▁enterprises	-11145
▁46	-11146
▁Jersey	-11147
expected	-11148
▁evol	-11149
vised	-11150
▁Gh	-11151
Popular	-11152
ici	-11153
▁proposed	-11154
vet	-11155
▁Little	-11156
▁messaging	-11157
▁limitations	-11158
▁robots	-11159
sue	-11160
▁Theft	-11161
▁Belarus	-11162
▁2002	-11163
▁Porto	-11164
service	-11165
▁Mehmet	-11166
▁asking	-11167
chi	-11168
mo	-11169
EFA	-11170
▁pra	-11171
▁opposition	-11172
TL	-11173
▁Eye	-11174
▁700	-11175
▁1.4	-11176
▁booked	-11177
▁weekly	-11178
MANY	-11179
▁actively	-11180
▁concentration	-11181
▁Views	-11182
▁realized	-11183
enh	-11184
emia	-11185
▁Dal	-11186
▁30,	-11187
▁Gam	-11188
▁Related	-11189
▁PayPal	-11190
mbH	-11191
▁initiative	-11192
▁Apk	-11193
▁crown	-11194
amping	-11195
▁Ens	-11196
▁debut	-11197
▁listing	-11198
▁intuitive	-11199
▁stopped	-11200
▁cum	-11201
▁Thor	-11202
▁hybrid	-11203
resistant	-11204
▁moder	-11205
osh	-11206
▁slides	-11207
▁Pow	-11208
▁downloads	-11209
▁phr	-11210
▁Chiffon	-11211
▁Deluxe	-11212
hops	-11213
▁Fitness	-11214
▁Certification	-11215
rat	-11216
arency	-11217
▁holidays	-11218
▁retention	-11219
▁alert	-11220
▁Featuring	-11221
opher	-11222
▁Putin	-11223
▁Sin	-11224
▁invoice	-11225
▁whit	-11226
Bo	-11227
▁drying	-11228
.80	-11229
km	-11230
▁RM	-11231
cat	-11232
leb	-11233
▁USE	-11234
▁Assistant	-11235
▁microphone	-11236
ears	-11237
▁canal	-11238
Pres	-11239
▁0.5	-11240
▁satisfy	-11241
▁Tit	-11242
atabases	-11243
atories	-11244
▁Packing	-11245
yel	-11246
▁believes	-11247
hors	-11248
▁gay	-11249
position	-11250
▁fem	-11251
▁Extra	-11252
▁Different	-11253
▁Alban	-11254
iche	-11255
▁western	-11256
▁adjustment	-11257
lav	-11258
▁$8	-11259
▁20%	-11260
▁"20	-11261
▁Ae	-11262
▁Jr	-11263
Quickly	-11264
DUC	-11265
▁thoughts	-11266
▁horizontal	-11267
▁grad	-11268
▁Mai	-11269
lie	-11270
pad	-11271
▁sick	-11272
6.	-11273
▁Stan	-11274
▁4.3	-11275
▁Youth	-11276
▁invalid	-11277
hesis	-11278
▁prominent	-11279
▁Mak	-11280
▁Palm	-11281
▁refuse	-11282
▁Insurance	-11283
phorus	-11284
ioxid	-11285
▁heaven	-11286
▁clubs	-11287
▁GmbH	-11288
▁guides	-11289
▁Fox	-11290
▁Subs	-11291
▁grams	-11292
GHz	-11293
QU	-11294
▁24,	-11295
Lear	-11296
istent	-11297
▁Never	-11298
▁protest	-11299
▁effectiveness	-11300
▁armed	-11301
▁photograp	-11302
▁workplace	-11303
▁crimes	-11304
rations	-11305
▁Usage	-11306
▁newest	-11307
holm	-11308
ocus	-11309
▁placing	-11310
▁72	-11311
▁troops	-11312
3]	-11313
▁Chiang	-11314
▁forgot	-11315
▁Excellent	-11316
▁BTC	-11317
ursa	-11318
▁borders	-11319
▁(199	-11320
ontin	-11321
forget	-11322
FORM	-11323
miere	-11324
▁antib	-11325
ordinary	-11326
▁neutral	-11327
▁downtown	-11328
▁Kings	-11329
▁reaches	-11330
stone	-11331
▁Aven	-11332
▁carpet	-11333
winning	-11334
▁elected	-11335
▁exports	-11336
▁malicious	-11337
▁umbre	-11338
▁wheels	-11339
IAL	-11340
heng	-11341
▁Dise	-11342
▁anx	-11343
ema	-11344
▁funny	-11345
▁1500	-11346
.98	-11347
▁Waistline	-11348
▁Dest	-11349
▁pant	-11350
▁Female	-11351
▁elastic	-11352
▁personality	-11353
▁Melbourne	-11354
taining	-11355
▁pixels	-11356
▁Aer	-11357
inton	-11358
▁Bachelor	-11359
▁Danish	-11360
▁adjustable	-11361
surch	-11362
▁manif	-11363
▁Gra	-11364
▁troubleshoot	-11365
width	-11366
▁Father	-11367
▁Na	-11368
▁Nature	-11369
▁summit	-11370
umatic	-11371
▁radiation	-11372
▁Supply	-11373
▁solely	-11374
▁containers	-11375
▁difficulty	-11376
▁Ori	-11377
▁Mother	-11378
▁patio	-11379
▁pursuant	-11380
store	-11381
▁viewed	-11382
▁Question	-11383
▁lifetime	-11384
▁sett	-11385
▁maintained	-11386
Main	-11387
▁rooftop	-11388
Another	-11389
enez	-11390
▁Tam	-11391
Part	-11392
urities	-11393
▁Ga	-11394
▁Lag	-11395
▁rolling	-11396
comed	-11397
Act	-11398
▁ov	-11399
▁tall	-11400
Like	-11401
▁Programme	-11402
▁expanded	-11403
▁Hub	-11404
bassy	-11405
▁swing	-11406
inars	-11407
▁Cov	-11408
▁Mold	-11409
▁pipes	-11410
▁cow	-11411
▁deployment	-11412
▁supplements	-11413
▁(9	-11414
▁Andre	-11415
▁Materials	-11416
▁volunte	-11417
▁Nex	-11418
▁Vintage	-11419
▁Blo	-11420
▁BB	-11421
rin	-11422
▁accompl	-11423
ECH	-11424
▁Norwegian	-11425
▁doctors	-11426
▁distribute	-11427
▁golden	-11428
▁Rap	-11429
▁captured	-11430
Ph	-11431
▁toler	-11432
▁Surgery	-11433
seeing	-11434
▁loads	-11435
▁SO	-11436
duce	-11437
▁soap	-11438
▁releases	-11439
▁Finnish	-11440
acular	-11441
▁Deposit	-11442
lis	-11443
▁thread	-11444
▁wherever	-11445
kan	-11446
▁premises	-11447
▁penal	-11448
▁campus	-11449
▁Sustain	-11450
▁Adventure	-11451
▁Psych	-11452
▁Investment	-11453
▁Would	-11454
▁refugees	-11455
alo	-11456
▁cosmetic	-11457
▁stakeholders	-11458
9.	-11459
▁facts	-11460
▁wishes	-11461
specific	-11462
▁smile	-11463
▁stem	-11464
uv	-11465
▁gray	-11466
▁Gro	-11467
▁inflammation	-11468
FS	-11469
▁Thunder	-11470
udd	-11471
mun	-11472
▁measured	-11473
▁regulated	-11474
▁Joe	-11475
ashed	-11476
▁checks	-11477
▁belongs	-11478
lippers	-11479
▁aggreg	-11480
▁encrypted	-11481
▁justice	-11482
400	-11483
▁fake	-11484
onents	-11485
▁minerals	-11486
▁110	-11487
▁composition	-11488
▁conventional	-11489
Europe	-11490
▁Richard	-11491
▁IoT	-11492
Support	-11493
ede	-11494
▁inches	-11495
onge	-11496
▁extr	-11497
▁NBA	-11498
▁crash	-11499
lay	-11500
▁IBM	-11501
ictionary	-11502
▁specialists	-11503
▁Hood	-11504
anna	-11505
commended	-11506
insula	-11507
▁Statement	-11508
▁Wizard	-11509
oen	-11510
nea	-11511
▁1.9	-11512
▁2.3	-11513
▁till	-11514
▁innovations	-11515
▁Sweet	-11516
▁texts	-11517
▁concluded	-11518
▁infected	-11519
▁suggested	-11520
Net	-11521
▁Say	-11522
▁Sofia	-11523
▁summary	-11524
▁tech	-11525
raid	-11526
▁Shape	-11527
▁neither	-11528
bet	-11529
▁casinos	-11530
oro	-11531
▁Talk	-11532
▁Shell	-11533
cedes	-11534
▁Pick	-11535
ioned	-11536
▁returning	-11537
▁virt	-11538
▁Ts	-11539
▁Vision	-11540
▁indirect	-11541
▁Monte	-11542
▁70%	-11543
zza	-11544
▁Syn	-11545
▁Macedonia	-11546
▁hearts	-11547
▁durability	-11548
ructions	-11549
▁mineral	-11550
▁evaluated	-11551
▁firms	-11552
▁Strip	-11553
Bet	-11554
▁focuses	-11555
▁railway	-11556
▁fleet	-11557
html	-11558
assium	-11559
▁prostate	-11560
▁arrested	-11561
8.	-11562
▁Lap	-11563
▁notified	-11564
Are	-11565
▁allerg	-11566
▁configured	-11567
▁instruction	-11568
▁grown	-11569
entle	-11570
▁laid	-11571
ampoo	-11572
▁Elevator	-11573
▁Der	-11574
▁tact	-11575
▁Filter	-11576
.)."	-11577
▁jumping	-11578
▁tray	-11579
▁Perfect	-11580
▁adhesive	-11581
▁boots	-11582
PT	-11583
▁IH	-11584
▁demo	-11585
gate	-11586
▁Maker	-11587
ington	-11588
▁Budd	-11589
▁worker	-11590
▁Downloader	-11591
▁slim	-11592
▁Oracle	-11593
46	-11594
▁Holdings	-11595
forgettable	-11596
quet	-11597
▁illness	-11598
▁twin	-11599
▁constitute	-11600
▁pic	-11601
▁tract	-11602
▁Pend	-11603
ipedia	-11604
gans	-11605
esium	-11606
▁Prim	-11607
amination	-11608
▁Jam	-11609
China	-11610
cessary	-11611
▁momondo	-11612
▁mine	-11613
anka	-11614
▁Ray	-11615
▁26,	-11616
stood	-11617
elled	-11618
▁fasc	-11619
▁symbols	-11620
rants	-11621
▁128	-11622
▁yeah	-11623
step	-11624
▁relative	-11625
▁decorated	-11626
isticated	-11627
tense	-11628
▁closest	-11629
▁matching	-11630
▁Jim	-11631
▁prohibited	-11632
▁union	-11633
acher	-11634
▁shift	-11635
emption	-11636
▁feeding	-11637
▁joining	-11638
▁completing	-11639
▁correction	-11640
▁fifth	-11641
iams	-11642
fire	-11643
▁ladies	-11644
Stud	-11645
▁Beautiful	-11646
▁lightweight	-11647
ARD	-11648
▁"15	-11649
▁spots	-11650
▁Prep	-11651
stract	-11652
bro	-11653
▁Michel	-11654
▁aggress	-11655
Ac	-11656
▁Among	-11657
▁magic	-11658
▁tattoo	-11659
▁heritage	-11660
▁surge	-11661
▁locate	-11662
vol	-11663
▁23,	-11664
▁strike	-11665
▁43	-11666
▁lifting	-11667
strasse	-11668
▁engagement	-11669
▁guarantees	-11670
▁appeal	-11671
▁organiz	-11672
trans	-11673
▁Kon	-11674
▁ment	-11675
▁DNA	-11676
▁5:	-11677
▁surprise	-11678
▁eventually	-11679
▁Ju	-11680
▁hygiene	-11681
▁Jenn	-11682
▁Ambassador	-11683
▁prestigious	-11684
Feedback	-11685
▁Ul	-11686
▁factories	-11687
▁possess	-11688
▁Dallas	-11689
PD	-11690
▁Championship	-11691
▁Luggage	-11692
▁hotelsShow	-11693
▁competitors	-11694
worth	-11695
▁Patt	-11696
▁corn	-11697
▁Cou	-11698
▁Cooperation	-11699
▁arc	-11700
▁Built	-11701
▁blend	-11702
neakers	-11703
encing	-11704
▁720	-11705
books	-11706
▁Orlando	-11707
▁MOD	-11708
▁organisations	-11709
▁acquire	-11710
▁unlawful	-11711
▁Cambridge	-11712
your	-11713
▁Tech	-11714
surcharge	-11715
▁grain	-11716
▁PE	-11717
▁Wy	-11718
▁ANY	-11719
inator	-11720
▁Clothes	-11721
mic	-11722
▁pallet	-11723
▁Comparison	-11724
▁Toilet	-11725
▁conscious	-11726
▁bot	-11727
▁Hosting	-11728
▁fabrics	-11729
inet	-11730
▁Scre	-11731
izable	-11732
▁welcomed	-11733
▁SIM	-11734
▁Basket	-11735
▁Bosnia	-11736
▁sequel	-11737
▁Getting	-11738
▁cub	-11739
ref	-11740
▁bol	-11741
▁intense	-11742
forced	-11743
▁icons	-11744
EE	-11745
bath	-11746
▁pocket	-11747
MM	-11748
▁apk	-11749
pur	-11750
▁Terrace	-11751
▁relaxing	-11752
missions	-11753
▁Jane	-11754
▁nutrition	-11755
watch	-11756
anwhile	-11757
ternoon	-11758
▁Parts	-11759
outheast	-11760
verages	-11761
▁Swimming	-11762
'.	-11763
rared	-11764
▁Norton	-11765
▁Embassy	-11766
▁Crown	-11767
uda	-11768
bound	-11769
▁ships	-11770
▁Higher	-11771
aditional	-11772
▁Button	-11773
▁disputes	-11774
izza	-11775
escope	-11776
▁eastern	-11777
▁prompted	-11778
▁governed	-11779
▁actors	-11780
▁batch	-11781
▁brightness	-11782
▁Commerce	-11783
▁restricted	-11784
tyard	-11785
▁brothers	-11786
ascular	-11787
▁Years	-11788
▁approaches	-11789
watches	-11790
▁genetic	-11791
may	-11792
Ret	-11793
▁unforgettable	-11794
▁Police	-11795
▁substant	-11796
▁2011,	-11797
▁outdoors	-11798
▁3)	-11799
▁numbered	-11800
▁electronics	-11801
▁Reception	-11802
sters	-11803
▁reform	-11804
▁accordingly	-11805
▁sandy	-11806
story	-11807
▁Gall	-11808
▁lect	-11809
Sc	-11810
▁euros	-11811
▁rely	-11812
▁charming	-11813
commun	-11814
child	-11815
▁HotelQuickly	-11816
▁aqu	-11817
▁CF	-11818
▁islands	-11819
/10	-11820
▁separately	-11821
▁Arriv	-11822
▁Southern	-11823
▁Ow	-11824
uters	-11825
liances	-11826
sales	-11827
▁worship	-11828
▁Draw	-11829
▁sexy	-11830
▁Tek	-11831
▁entrepreneurs	-11832
aspberry	-11833
athy	-11834
▁contributions	-11835
▁twenty	-11836
▁anytime	-11837
wer	-11838
iger	-11839
▁securely	-11840
▁marking	-11841
▁employer	-11842
pir	-11843
▁ranking	-11844
▁compression	-11845
ski	-11846
▁serial	-11847
▁57	-11848
Americ	-11849
▁directions	-11850
▁4.4	-11851
▁MAC	-11852
Mac	-11853
▁leaf	-11854
▁healing	-11855
▁nerve	-11856
▁Scot	-11857
▁governments	-11858
Rec	-11859
thon	-11860
▁Scient	-11861
▁Mens	-11862
▁newsletter	-11863
▁Diego	-11864
▁faces	-11865
attan	-11866
▁MacBook	-11867
mal	-11868
▁boards	-11869
▁fuck	-11870
df	-11871
▁Flower	-11872
▁32-	-11873
▁architectural	-11874
▁4.6	-11875
scale	-11876
▁metals	-11877
▁onion	-11878
▁rising	-11879
bps	-11880
▁waves	-11881
▁suffer	-11882
perature	-11883
LED	-11884
ohn	-11885
oween	-11886
olu	-11887
duced	-11888
Power	-11889
▁Coat	-11890
▁enforcement	-11891
▁Anne	-11892
▁Ever	-11893
▁reverse	-11894
▁Spotify	-11895
▁Professor	-11896
▁adjusted	-11897
▁7-	-11898
▁termination	-11899
May	-11900
▁journalists	-11901
▁hub	-11902
▁Below	-11903
▁Used	-11904
▁2019,	-11905
▁Wal	-11906
▁Bahrain	-11907
odcast	-11908
▁exchanges	-11909
▁Zen	-11910
▁Ru	-11911
▁hospitals	-11912
▁explan	-11913
tar	-11914
▁targeting	-11915
▁Kenn	-11916
▁[...]"	-11917
ilers	-11918
▁recreational	-11919
▁victims	-11920
▁Notice	-11921
▁opinions	-11922
▁exhaust	-11923
oids	-11924
▁Clin	-11925
ibraries	-11926
▁Domin	-11927
▁Explore	-11928
▁Surface	-11929
war	-11930
▁Frequ	-11931
▁Specifications	-11932
IZ	-11933
▁marble	-11934
▁safegu	-11935
Following	-11936
▁contest	-11937
▁Jeff	-11938
▁substance	-11939
rams	-11940
▁Legend	-11941
DC	-11942
catering	-11943
▁literature	-11944
sl	-11945
▁directors	-11946
▁27,	-11947
▁breaking	-11948
▁160	-11949
addy	-11950
▁newspapers	-11951
▁Villas	-11952
▁focusing	-11953
▁reserved	-11954
employ	-11955
▁scanning	-11956
▁seriously	-11957
2.1	-11958
▁Walking	-11959
Ag	-11960
Cons	-11961
▁legally	-11962
itutional	-11963
▁Rue	-11964
istor	-11965
▁barbe	-11966
▁28,	-11967
atas	-11968
Thank	-11969
▁jaw	-11970
ulates	-11971
▁Drag	-11972
▁bund	-11973
▁cute	-11974
▁Consumer	-11975
acles	-11976
▁Registration	-11977
▁Bob	-11978
▁bottles	-11979
▁funding	-11980
▁champions	-11981
▁committee	-11982
tendo	-11983
▁thyroid	-11984
▁develops	-11985
▁shield	-11986
▁2022,	-11987
▁spokes	-11988
▁tissues	-11989
Top	-11990
cure	-11991
rous	-11992
▁afraid	-11993
GERMANY	-11994
▁stadium	-11995
▁perhaps	-11996
apse	-11997
▁Canon	-11998
oted	-11999
▁MAN	-12000
▁celebrate	-12001
▁circle	-12002
▁Supreme	-12003
▁acceptable	-12004
▁freed	-12005
▁Nut	-12006
▁confident	-12007
▁CONT	-12008
▁Frame	-12009
▁Continue	-12010
▁specification	-12011
uing	-12012
Dr	-12013
▁Twin	-12014
▁sanctions	-12015
▁bidet	-12016
▁membr	-12017
▁HE	-12018
Personal	-12019
▁billing	-12020
▁Logo	-12021
uplic	-12022
Material	-12023
▁hormone	-12024
ostic	-12025
▁mile	-12026
▁titled	-12027
▁Bursa	-12028
lett	-12029
▁varies	-12030
▁GIF	-12031
ulum	-12032
öy	-12033
▁suspension	-12034
vy	-12035
▁Mas	-12036
▁Safari	-12037
▁databases	-12038
▁1980	-12039
▁forever	-12040
▁spl	-12041
▁Mission	-12042
omo	-12043
▁abuse	-12044
mers	-12045
▁inher	-12046
gapixel	-12047
▁remained	-12048
▁Uz	-12049
▁Obs	-12050
▁Sep	-12051
▁dram	-12052
▁politics	-12053
▁timely	-12054
▁wouldn	-12055
▁Cai	-12056
ront	-12057
▁Loss	-12058
▁Console	-12059
iology	-12060
43	-12061
uras	-12062
▁dreams	-12063
▁Lind	-12064
▁Brad	-12065
▁prayer	-12066
airy	-12067
jac	-12068
▁receives	-12069
▁playground	-12070
▁flagship	-12071
▁occupied	-12072
▁excessive	-12073
▁cider	-12074
:200	-12075
this	-12076
▁readers	-12077
▁Figure	-12078
▁Aluminum	-12079
visions	-12080
▁intend	-12081
▁Liverpool	-12082
▁ExpressVPN	-12083
▁tired	-12084
essa	-12085
▁Trou	-12086
▁Lot	-12087
▁rack	-12088
▁Recent	-12089
ANT	-12090
▁grid	-12091
▁colours	-12092
About	-12093
▁Scar	-12094
▁Strategy	-12095
▁cluster	-12096
▁presentations	-12097
▁forum	-12098
▁Coc	-12099
▁Insert	-12100
ilica	-12101
dragon	-12102
▁Coord	-12103
▁wake	-12104
▁vag	-12105
▁Images	-12106
▁ownership	-12107
action	-12108
▁absolute	-12109
▁decorative	-12110
▁assum	-12111
station	-12112
▁ml	-12113
please	-12114
▁Venez	-12115
▁Notes	-12116
▁logged	-12117
▁appet	-12118
▁disposal	-12119
▁ordinary	-12120
▁lovers	-12121
▁Conc	-12122
▁sophisticated	-12123
▁Flip	-12124
SQL	-12125
▁thro	-12126
▁2008,	-12127
▁entities	-12128
connect	-12129
▁Colors	-12130
▁establishing	-12131
/20	-12132
dis	-12133
ometric	-12134
▁plugins	-12135
BER	-12136
▁negotiations	-12137
▁EL	-12138
ocking	-12139
▁Officer	-12140
▁2007,	-12141
▁Josh	-12142
forming	-12143
▁sealing	-12144
▁potentially	-12145
itory	-12146
▁arranged	-12147
▁snap	-12148
astes	-12149
▁Month	-12150
▁Furniture	-12151
▁Polyester	-12152
performance	-12153
▁Armed	-12154
▁sends	-12155
Through	-12156
▁happiness	-12157
▁Looking	-12158
▁agriculture	-12159
▁Corn	-12160
▁favourite	-12161
▁Chapter	-12162
▁scalp	-12163
▁pcs	-12164
▁Pi	-12165
▁Six	-12166
stop	-12167
▁harvest	-12168
▁circulation	-12169
▁furnished	-12170
/201	-12171
source	-12172
selling	-12173
▁surroundings	-12174
▁UEFA	-12175
▁chairs	-12176
▁glad	-12177
▁Better	-12178
email	-12179
▁Kat	-12180
▁workflow	-12181
▁bonuses	-12182
▁pilot	-12183
▁killing	-12184
jet	-12185
▁plain	-12186
▁4.1	-12187
▁humidity	-12188
▁patch	-12189
▁Designer	-12190
▁fixes	-12191
▁Registry	-12192
▁fertil	-12193
▁Kam	-12194
▁spectacular	-12195
ITED	-12196
▁900	-12197
▁mild	-12198
crets	-12199
▁consulting	-12200
ountain	-12201
ipal	-12202
▁metro	-12203
▁sculpt	-12204
▁NOW	-12205
▁Extract	-12206
▁Williams	-12207
▁4.2	-12208
▁hill	-12209
▁4.8/5	-12210
▁epic	-12211
cribed	-12212
▁mall	-12213
▁GO	-12214
ventures	-12215
▁pipeline	-12216
▁understood	-12217
▁independence	-12218
▁Cream	-12219
▁trace	-12220
apor	-12221
▁01	-12222
▁colleagues	-12223
▁Fly	-12224
▁3.2	-12225
▁Jess	-12226
▁Again	-12227
▁recycl	-12228
▁afternoon	-12229
▁Playa	-12230
PR	-12231
,,	-12232
▁earthquake	-12233
Why	-12234
▁Beh	-12235
▁Banking	-12236
▁AK	-12237
▁Satellite	-12238
▁kne	-12239
Article	-12240
zed	-12241
▁Give	-12242
▁magnificent	-12243
▁Bonus	-12244
▁texture	-12245
hammad	-12246
▁promotions	-12247
▁crack	-12248
▁pad	-12249
▁undergraduate	-12250
▁logs	-12251
▁knife	-12252
5.	-12253
osterone	-12254
▁SL	-12255
▁CRM	-12256
▁credits	-12257
▁particles	-12258
▁Bey	-12259
▁skiing	-12260
▁Memorial	-12261
▁Font	-12262
▁Devices	-12263
ibaba	-12264
El	-12265
isting	-12266
vernment	-12267
▁Ell	-12268
▁HDMI	-12269
party	-12270
▁motors	-12271
▁recipes	-12272
▁measurements	-12273
▁gloves	-12274
▁SK	-12275
▁Cyber	-12276
DE	-12277
▁tough	-12278
▁organs	-12279
rus	-12280
▁birds	-12281
▁promoting	-12282
onent	-12283
▁Bags	-12284
▁Oscar	-12285
▁makeup	-12286
▁antioxid	-12287
:0	-12288
uay	-12289
Phot	-12290
▁indicators	-12291
▁recycling	-12292
function	-12293
▁Developer	-12294
chat	-12295
aug	-12296
▁determining	-12297
pling	-12298
irmingham	-12299
CM	-12300
▁CAD	-12301
▁driven	-12302
▁Decl	-12303
▁baseball	-12304
Tok	-12305
▁Provide	-12306
igo	-12307
▁routine	-12308
Next	-12309
▁mere	-12310
Det	-12311
▁caught	-12312
▁Specification	-12313
walk	-12314
▁weigh	-12315
▁workshops	-12316
being	-12317
ucose	-12318
▁highlights	-12319
▁stere	-12320
és	-12321
▁excited	-12322
▁coin	-12323
▁boutique	-12324
▁ALL	-12325
3."	-12326
▁experim	-12327
▁Stockholm	-12328
▁scores	-12329
▁algorithm	-12330
▁classical	-12331
▁registering	-12332
-200	-12333
▁TUR	-12334
▁Rent	-12335
▁discovery	-12336
▁Formula	-12337
▁deposits	-12338
anium	-12339
▁Enable	-12340
▁Paradise	-12341
▁GPU	-12342
▁sad	-12343
▁orientation	-12344
▁lodging	-12345
▁creativity	-12346
▁Youtube	-12347
▁spoken	-12348
BI	-12349
arios	-12350
▁linear	-12351
eeam	-12352
▁Gulf	-12353
icide	-12354
▁partition	-12355
▁Breathable	-12356
gean	-12357
▁proposal	-12358
▁casting	-12359
▁invitation	-12360
78	-12361
kiye	-12362
bags	-12363
cour	-12364
▁Being	-12365
comfort	-12366
▁Crypto	-12367
▁plates	-12368
lers	-12369
▁queries	-12370
▁Radisson	-12371
role	-12372
▁diving	-12373
▁urinary	-12374
ushes	-12375
▁maybe	-12376
▁Colombia	-12377
▁Architecture	-12378
ammed	-12379
orney	-12380
ropical	-12381
▁compete	-12382
▁iconic	-12383
▁delight	-12384
▁fet	-12385
▁Truck	-12386
▁minimize	-12387
▁ethnic	-12388
▁unus	-12389
itants	-12390
▁humanity	-12391
▁overseas	-12392
him	-12393
▁flavor	-12394
▁everywhere	-12395
+,	-12396
ookies	-12397
▁coated	-12398
▁updating	-12399
Well	-12400
houses	-12401
▁alive	-12402
cho	-12403
arb	-12404
▁Templ	-12405
▁irrit	-12406
mentioned	-12407
opol	-12408
▁Less	-12409
illance	-12410
available	-12411
▁Nexus	-12412
Fine	-12413
▁filed	-12414
▁Cav	-12415
▁patent	-12416
eous	-12417
▁HBO	-12418
AST	-12419
▁Fo	-12420
▁beer	-12421
▁Hind	-12422
▁Rubber	-12423
▁guys	-12424
▁Having	-12425
held	-12426
▁tel	-12427
▁missile	-12428
▁demonstrate	-12429
Ver	-12430
▁gast	-12431
▁macOS	-12432
▁thereof	-12433
effective	-12434
▁Estate	-12435
▁bones	-12436
reek	-12437
▁drilling	-12438
▁broker	-12439
Red	-12440
▁Animal	-12441
▁Ethernet	-12442
▁conveniently	-12443
▁Tür	-12444
mat	-12445
▁Isa	-12446
amar	-12447
▁Mario	-12448
▁Lebanon	-12449
▁performs	-12450
▁generations	-12451
▁Toe	-12452
▁possibly	-12453
▁installations	-12454
▁4.9	-12455
ushing	-12456
▁assurance	-12457
▁cig	-12458
▁judge	-12459
79	-12460
▁printers	-12461
▁profits	-12462
▁uninstall	-12463
▁insulin	-12464
2."	-12465
▁Bern	-12466
▁Ship	-12467
▁Snapdragon	-12468
▁Shut	-12469
▁Ot	-12470
▁verified	-12471
▁countryside	-12472
▁Improve	-12473
▁Ye	-12474
▁Job	-12475
▁Hungarian	-12476
Cent	-12477
▁Gib	-12478
▁Retail	-12479
▁clips	-12480
▁QR	-12481
▁"19	-12482
▁cycling	-12483
onda	-12484
▁Spy	-12485
emble	-12486
▁surveys	-12487
▁recipient	-12488
▁supposed	-12489
▁intervention	-12490
▁Linked	-12491
▁realistic	-12492
▁Operation	-12493
vid	-12494
▁Planning	-12495
sea	-12496
▁Machinery	-12497
▁examine	-12498
▁Om	-12499
▁Fax	-12500
▁roots	-12501
Ke	-12502
▁Scroll	-12503
Cle	-12504
▁Marine	-12505
▁frequent	-12506
▁adequate	-12507
▁playback	-12508
LL	-12509
▁grav	-12510
▁DV	-12511
▁cleaner	-12512
▁por	-12513
▁suffering	-12514
levard	-12515
▁Tik	-12516
policies	-12517
▁Academic	-12518
▁quad	-12519
▁Dou	-12520
▁Jason	-12521
▁Olive	-12522
▁buses	-12523
▁Bull	-12524
itutes	-12525
▁functioning	-12526
▁Anthony	-12527
▁Hit	-12528
▁cement	-12529
▁networking	-12530
rons	-12531
▁elder	-12532
▁accomp	-12533
.'"	-12534
▁beans	-12535
Data	-12536
▁bron	-12537
BR	-12538
▁Cit	-12539
▁potatoes	-12540
▁Webex	-12541
▁Swe	-12542
eri	-12543
▁binary	-12544
▁lawyer	-12545
▁renown	-12546
▁Erd	-12547
isted	-12548
▁Split	-12549
▁arise	-12550
SH	-12551
nger	-12552
▁batt	-12553
tenstein	-12554
▁Hur	-12555
zi	-12556
aro	-12557
▁stir	-12558
▁Yellow	-12559
▁ATM	-12560
▁Urban	-12561
▁Teen	-12562
▁intent	-12563
athan	-12564
▁spreads	-12565
▁Deniz	-12566
▁Nintendo	-12567
▁nervous	-12568
▁LEG	-12569
▁skate	-12570
▁Oxford	-12571
gency	-12572
▁productive	-12573
▁tender	-12574
fin	-12575
▁UI	-12576
▁PHP	-12577
▁lamin	-12578
▁Turkmenistan	-12579
perm	-12580
▁Slee	-12581
ACK	-12582
▁Ry	-12583
▁GN	-12584
▁drain	-12585
▁phos	-12586
▁fer	-12587
▁romantic	-12588
UG	-12589
▁chances	-12590
tect	-12591
▁Cum	-12592
▁140	-12593
▁Anonymous	-12594
▁Hiking	-12595
▁Abdul	-12596
▁Ghost	-12597
4:	-12598
▁urine	-12599
▁cyber	-12600
▁Record	-12601
Men	-12602
▁Horiz	-12603
His	-12604
▁Cairo	-12605
▁smell	-12606
▁Without	-12607
▁Metropolitan	-12608
ansom	-12609
▁diesel	-12610
ELTS	-12611
▁Dun	-12612
▁Ipsum	-12613
▁flood	-12614
▁relief	-12615
▁Vlad	-12616
▁Clock	-12617
roidery	-12618
Em	-12619
▁Warm	-12620
▁NASA	-12621
▁autumn	-12622
▁falling	-12623
▁Op	-12624
atal	-12625
▁Mob	-12626
robes	-12627
ayed	-12628
▁toaster	-12629
▁"==	-12630
▁4.	-12631
vere	-12632
,.	-12633
▁experiment	-12634
ppo	-12635
sex	-12636
▁Preview	-12637
▁Dawn	-12638
arsh	-12639
▁que	-12640
▁coconut	-12641
▁Nick	-12642
▁exists	-12643
▁coronavirus	-12644
▁centrally	-12645
▁slic	-12646
▁MT	-12647
esi	-12648
▁guess	-12649
▁Pul	-12650
▁Redmi	-12651
▁binding	-12652
▁variant	-12653
▁q	-12654
▁"11	-12655
sur	-12656
gends	-12657
ifiers	-12658
Finally	-12659
▁Actor	-12660
▁dimension	-12661
▁complicated	-12662
ferred	-12663
7.	-12664
▁Birmingham	-12665
ahn	-12666
▁Advertising	-12667
▁ties	-12668
eldorf	-12669
imately	-12670
▁450	-12671
▁Bedroom	-12672
▁ranging	-12673
▁taught	-12674
▁Customers	-12675
▁hits	-12676
▁resid	-12677
▁Romanian	-12678
▁suggests	-12679
rasonic	-12680
▁perf	-12681
▁Aegean	-12682
▁Stars	-12683
▁Knee	-12684
▁propri	-12685
▁capac	-12686
▁physics	-12687
▁Theater	-12688
▁Silicone	-12689
▁penet	-12690
▁1,000	-12691
ensional	-12692
▁extraordinary	-12693
▁0.1	-12694
▁Moz	-12695
nan	-12696
▁Mercedes	-12697
▁Risk	-12698
version	-12699
▁Pad	-12700
▁calculate	-12701
Call	-12702
elve	-12703
▁awesome	-12704
▁betting	-12705
itime	-12706
▁eco	-12707
▁sees	-12708
▁firmware	-12709
▁combining	-12710
▁dose	-12711
],	-12712
▁`	-12713
▁Basketball	-12714
▁Everything	-12715
▁winners	-12716
▁liber	-12717
▁mobility	-12718
▁Strateg	-12719
▁ham	-12720
range	-12721
▁structural	-12722
▁BY	-12723
▁hood	-12724
▁knee	-12725
▁drawn	-12726
atinum	-12727
▁hanging	-12728
41	-12729
igan	-12730
▁Orange	-12731
▁Camb	-12732
▁Respons	-12733
▁RES	-12734
▁Everyone	-12735
▁bearings	-12736
▁NY	-12737
imp	-12738
▁quote	-12739
▁division	-12740
▁Electronics	-12741
isely	-12742
▁renewable	-12743
▁Jet	-12744
▁abilities	-12745
▁implants	-12746
▁overlooking	-12747
miss	-12748
▁zinc	-12749
▁validity	-12750
▁lymph	-12751
▁parameter	-12752
▁headquarters	-12753
▁balanced	-12754
▁sidew	-12755
andex	-12756
olina	-12757
icket	-12758
LO	-12759
bage	-12760
▁hang	-12761
▁attempts	-12762
▁2.6	-12763
▁Mustafa	-12764
▁advise	-12765
abi	-12766
▁98	-12767
▁→	-12768
▁broke	-12769
▁Quad	-12770
▁Nag	-12771
itcher	-12772
▁Genuine	-12773
▁Cisco	-12774
▁dealing	-12775
▁drum	-12776
vanized	-12777
imm	-12778
leton	-12779
▁stack	-12780
▁Pharm	-12781
▁obtaining	-12782
▁affiliates	-12783
low	-12784
▁Rib	-12785
ysitting	-12786
▁licenses	-12787
aning	-12788
▁drawings	-12789
dar	-12790
imir	-12791
▁Hyper	-12792
▁puts	-12793
▁Falls	-12794
▁phenomen	-12795
▁implementing	-12796
GI	-12797
▁"12	-12798
▁LTD	-12799
▁prost	-12800
▁Sao	-12801
gments	-12802
▁mosque	-12803
▁2009,	-12804
▁photographs	-12805
onian	-12806
▁None	-12807
isodes	-12808
▁Buck	-12809
▁Configuration	-12810
▁suspended	-12811
▁Grow	-12812
▁versatile	-12813
▁heavens	-12814
▁diagnosed	-12815
▁Disk	-12816
▁Riv	-12817
▁nuts	-12818
Special	-12819
▁Schen	-12820
▁expanding	-12821
igen	-12822
▁ISIS	-12823
▁Carbon	-12824
▁8-	-12825
▁ranked	-12826
▁trucks	-12827
▁58	-12828
▁dropped	-12829
▁Wristwatches	-12830
▁DIY	-12831
▁dialogue	-12832
aven	-12833
▁spark	-12834
▁Warsaw	-12835
▁desert	-12836
▁assistant	-12837
▁computing	-12838
tra	-12839
▁aging	-12840
▁unexpected	-12841
▁cheaper	-12842
▁initially	-12843
▁converting	-12844
cos	-12845
▁31,	-12846
▁easiest	-12847
%.	-12848
▁Columb	-12849
▁weapon	-12850
▁charger	-12851
▁2001	-12852
▁scar	-12853
▁entries	-12854
ori	-12855
▁Brazilian	-12856
ateur	-12857
▁Want	-12858
▁Wolf	-12859
▁stocks	-12860
ambo	-12861
▁Valent	-12862
=""	-12863
▁Titan	-12864
▁Kr	-12865
▁sle	-12866
▁disbel	-12867
▁nam	-12868
▁Evening	-12869
iw	-12870
▁Mine	-12871
URE	-12872
▁curtain	-12873
▁Resolution	-12874
▁centres	-12875
▁towel	-12876
▁DJ	-12877
▁Tan	-12878
▁analyst	-12879
▁Accept	-12880
▁activation	-12881
▁Squ	-12882
▁financing	-12883
▁dashboard	-12884
▁shoe	-12885
olas	-12886
▁chose	-12887
govina	-12888
▁blocking	-12889
▁collects	-12890
▁Aw	-12891
▁cleans	-12892
ija	-12893
▁finishing	-12894
...."	-12895
ablished	-12896
▁kitchenette	-12897
▁29,	-12898
▁Connection	-12899
▁Browser	-12900
▁holders	-12901
▁conclusion	-12902
avi	-12903
▁Sri	-12904
▁gum	-12905
▁Coats	-12906
▁strive	-12907
▁polyester	-12908
▁aluminium	-12909
▁graduates	-12910
▁nob	-12911
▁ethical	-12912
.30	-12913
Prov	-12914
▁laugh	-12915
▁OGG	-12916
▁tailored	-12917
ully	-12918
▁nurs	-12919
▁tubes	-12920
aus	-12921
pers	-12922
▁blade	-12923
▁conj	-12924
▁conform	-12925
▁Zur	-12926
▁Stri	-12927
▁coloring	-12928
▁Aparthotel	-12929
▁fax	-12930
▁appliances	-12931
wick	-12932
▁stays	-12933
▁Dong	-12934
itations	-12935
ilingual	-12936
atz	-12937
▁archive	-12938
▁AB	-12939
utures	-12940
Despite	-12941
▁Kid	-12942
▁Ket	-12943
▁Sok	-12944
iazza	-12945
▁determination	-12946
▁Ladies	-12947
▁Calendar	-12948
▁Pure	-12949
▁discrim	-12950
▁Steps	-12951
▁Average	-12952
Watch	-12953
▁protocols	-12954
ENTS	-12955
▁FX	-12956
PORT	-12957
▁holes	-12958
▁Sor	-12959
▁retrie	-12960
▁complement	-12961
Ear	-12962
▁Collar	-12963
▁Summit	-12964
UI	-12965
▁mounted	-12966
▁emotional	-12967
Bel	-12968
▁Duke	-12969
▁gambling	-12970
▁sevent	-12971
▁authors	-12972
▁Intelligence	-12973
▁lat	-12974
▁Montene	-12975
▁Inv	-12976
▁shirts	-12977
zegovina	-12978
▁Internal	-12979
ographical	-12980
that	-12981
▁Defin	-12982
▁plot	-12983
▁Always	-12984
▁studied	-12985
▁stayed	-12986
ilm	-12987
▁256	-12988
▁Categories	-12989
▁collections	-12990
▁machining	-12991
▁yarn	-12992
▁programmes	-12993
Enjoy	-12994
▁59	-12995
ricts	-12996
iratory	-12997
▁subsequent	-12998
▁RT	-12999
ritis	-13000
▁pillow	-13001
▁Economy	-13002
▁Proced	-13003
adata	-13004
▁Andrew	-13005
▁evolution	-13006
▁transparency	-13007
▁Counter	-13008
▁Chan	-13009
▁Anad	-13010
▁overcome	-13011
▁economical	-13012
▁unveiled	-13013
girl	-13014
ullah	-13015
▁Wide	-13016
aped	-13017
▁Moreover	-13018
Dining	-13019
▁Compact	-13020
▁sour	-13021
▁roads	-13022
▁Dynamics	-13023
pson	-13024
▁130	-13025
Similarity	-13026
chtenstein	-13027
▁Mom	-13028
▁Fran	-13029
▁Phoen	-13030
▁calculation	-13031
▁Small	-13032
▁publicly	-13033
ISO	-13034
▁Lane	-13035
astery	-13036
▁chlor	-13037
phy	-13038
▁Taylor	-13039
▁conversations	-13040
requ	-13041
▁Kiev	-13042
▁nodes	-13043
linary	-13044
iot	-13045
▁Past	-13046
Work	-13047
▁renowned	-13048
▁JP	-13049
▁Ark	-13050
rator	-13051
▁vice	-13052
▁Shield	-13053
ithe	-13054
ül	-13055
eroids	-13056
▁sought	-13057
LAN	-13058
▁5.5	-13059
▁deriv	-13060
ün	-13061
▁accurately	-13062
hof	-13063
▁VAT	-13064
efficient	-13065
Learn	-13066
▁BUY	-13067
▁multiplayer	-13068
▁inn	-13069
▁mood	-13070
pires	-13071
▁metabol	-13072
▁animated	-13073
▁Join	-13074
▁Muse	-13075
▁Task	-13076
▁condem	-13077
▁tire	-13078
▁stabil	-13079
▁searches	-13080
▁Stephen	-13081
▁Study	-13082
▁tiles	-13083
iper	-13084
▁chamber	-13085
▁vanilla	-13086
▁diversity	-13087
▁ok	-13088
▁beam	-13089
▁graduated	-13090
▁Pent	-13091
dress	-13092
▁Necklace	-13093
▁DATA	-13094
normal	-13095
▁fingers	-13096
▁survive	-13097
Term	-13098
Video	-13099
▁classified	-13100
▁$15	-13101
ockey	-13102
▁incom	-13103
▁Category	-13104
▁kingdom	-13105
▁Competition	-13106
▁MA	-13107
▁Heavy	-13108
cision	-13109
▁Agriculture	-13110
▁dil	-13111
▁gentle	-13112
▁investing	-13113
▁==	-13114
edi	-13115
yme	-13116
unting	-13117
▁Steve	-13118
▁Tu	-13119
▁Naples	-13120
▁FDA	-13121
▁vel	-13122
▁poison	-13123
▁Wikipedia	-13124
▁Param	-13125
RI	-13126
▁shaft	-13127
▁Liechtenstein	-13128
gyz	-13129
bury	-13130
▁nutrients	-13131
▁52	-13132
▁Volvo	-13133
Back	-13134
ESCO	-13135
▁discharge	-13136
▁Consider	-13137
aud	-13138
International	-13139
mann	-13140
▁Complex	-13141
▁lace	-13142
ez	-13143
▁decline	-13144
▁monuments	-13145
▁peak	-13146
▁scratch	-13147
▁sightseeing	-13148
▁"16	-13149
▁rings	-13150
amel	-13151
▁advised	-13152
Bit	-13153
▁manip	-13154
▁Communications	-13155
CS	-13156
hum	-13157
▁dollar	-13158
▁(5)	-13159
▁Dance	-13160
▁Delhi	-13161
otely	-13162
▁holy	-13163
▁intermedi	-13164
▁spiritual	-13165
▁clar	-13166
▁environmentally	-13167
▁Len	-13168
▁tong	-13169
▁ibis	-13170
▁stood	-13171
▁synthetic	-13172
ANA	-13173
oved	-13174
▁stretch	-13175
▁Shoot	-13176
CI	-13177
Right	-13178
inson	-13179
leading	-13180
▁51	-13181
▁overs	-13182
BN	-13183
▁placement	-13184
▁Monitoring	-13185
▁Sample	-13186
▁Pros	-13187
........	-13188
▁configur	-13189
Priv	-13190
▁tone	-13191
PDF	-13192
▁nightBOOK	-13193
FORMATION	-13194
inia	-13195
habil	-13196
▁static	-13197
bil	-13198
▁hate	-13199
▁Discount	-13200
▁ft	-13201
▁Chall	-13202
▁logging	-13203
▁initiatives	-13204
hos	-13205
ureth	-13206
▁Pil	-13207
encia	-13208
▁Tes	-13209
rible	-13210
▁wellness	-13211
▁tar	-13212
▁Wales	-13213
Besides	-13214
▁anxiety	-13215
▁56	-13216
▁Reset	-13217
▁Cartoon	-13218
▁vibration	-13219
''	-13220
▁Olympics	-13221
▁Harbour	-13222
▁colored	-13223
▁dough	-13224
houette	-13225
▁Whit	-13226
▁equipments	-13227
▁posting	-13228
▁disaster	-13229
▁suspect	-13230
▁Repair	-13231
▁younger	-13232
▁axis	-13233
hal	-13234
▁intest	-13235
▁penalty	-13236
▁expressly	-13237
▁Fan	-13238
acelet	-13239
▁pieceFeedback	-13240
▁Soph	-13241
ogg	-13242
▁QC	-13243
aire	-13244
esthes	-13245
cloth	-13246
▁Cho	-13247
▁DIS	-13248
pense	-13249
▁Liter	-13250
▁resident	-13251
ón	-13252
▁cinema	-13253
▁Pets	-13254
▁Gab	-13255
▁5000	-13256
▁Kuwait	-13257
▁instances	-13258
▁tile	-13259
▁purple	-13260
quisite	-13261
▁Lif	-13262
▁Several	-13263
▁frozen	-13264
▁Nigeria	-13265
▁Aviv	-13266
▁FE	-13267
▁3000	-13268
▁Quant	-13269
▁besides	-13270
▁Salt	-13271
▁determines	-13272
▁Budget	-13273
▁performances	-13274
Lo	-13275
olen	-13276
▁Vent	-13277
iri	-13278
▁BBC	-13279
▁Henry	-13280
enos	-13281
anners	-13282
▁demanding	-13283
▁accessibility	-13284
irs	-13285
▁tweet	-13286
▁occupational	-13287
ipse	-13288
▁Veeam	-13289
▁precious	-13290
▁mounting	-13291
icted	-13292
▁Wat	-13293
bell	-13294
ushion	-13295
▁Mig	-13296
▁Types	-13297
▁gland	-13298
arta	-13299
▁poker	-13300
acco	-13301
▁spir	-13302
▁rope	-13303
▁toolbar	-13304
oples	-13305
ockets	-13306
▁hepat	-13307
▁Koh	-13308
▁header	-13309
▁intake	-13310
▁processors	-13311
elo	-13312
▁Kyr	-13313
▁Emergency	-13314
▁gall	-13315
▁sentence	-13316
▁happening	-13317
▁citizenship	-13318
▁Atlantic	-13319
▁Flight	-13320
▁artistic	-13321
▁tens	-13322
▁papers	-13323
▁Restore	-13324
▁uploaded	-13325
▁offerings	-13326
▁heading	-13327
▁cats	-13328
▁helic	-13329
▁Camping	-13330
▁references	-13331
▁organizational	-13332
Class	-13333
▁IR	-13334
▁attributes	-13335
arat	-13336
▁Multiple	-13337
▁Rh	-13338
▁Ach	-13339
▁Vest	-13340
▁fatigue	-13341
prem	-13342
eties	-13343
HER	-13344
▁aged	-13345
▁Montenegro	-13346
▁cache	-13347
▁anonymous	-13348
▁coordination	-13349
ASE	-13350
▁Rele	-13351
▁enthusi	-13352
▁launching	-13353
▁Branch	-13354
▁authorization	-13355
▁Rental	-13356
▁incoming	-13357
▁administer	-13358
▁Brother	-13359
▁vintage	-13360
▁Innovation	-13361
▁involving	-13362
▁Monaco	-13363
▁ending	-13364
chargeable	-13365
▁ART	-13366
▁Simply	-13367
▁electron	-13368
▁migration	-13369
▁nationality	-13370
▁Diet	-13371
▁Strong	-13372
▁OneDrive	-13373
▁centuries	-13374
▁Esc	-13375
▁Theme	-13376
▁proxy	-13377
▁findings	-13378
▁Kurdish	-13379
Cap	-13380
Berry	-13381
▁mercy	-13382
itives	-13383
▁villages	-13384
▁belonging	-13385
▁Watches	-13386
▁adaptation	-13387
Mus	-13388
▁Early	-13389
▁cartridge	-13390
▁Rab	-13391
ranty	-13392
John	-13393
▁dancing	-13394
appro	-13395
▁theoret	-13396
▁Fi	-13397
▁Electrical	-13398
▁psychological	-13399
▁soda	-13400
▁diplomatic	-13401
.[1]	-13402
▁Rise	-13403
ocopy	-13404
▁delegation	-13405
▁chains	-13406
▁Prepar	-13407
Card	-13408
▁ODM	-13409
Super	-13410
omer	-13411
uket	-13412
▁Iraqi	-13413
▁zones	-13414
▁Autumn	-13415
▁assort	-13416
▁calm	-13417
▁falls	-13418
▁workload	-13419
▁Arrival	-13420
▁tension	-13421
PO	-13422
hn	-13423
▁Hell	-13424
▁grab	-13425
ehir	-13426
▁locked	-13427
▁DR	-13428
zens	-13429
▁cooperate	-13430
▁fest	-13431
▁Kap	-13432
pres	-13433
▁cartoon	-13434
▁lasting	-13435
▁Blackpool	-13436
process	-13437
▁Halloween	-13438
▁TÜ	-13439
EI	-13440
FF	-13441
▁les	-13442
▁cerv	-13443
▁alph	-13444
▁adapted	-13445
Inter	-13446
Create	-13447
▁breathing	-13448
Additionally	-13449
sky	-13450
▁radi	-13451
▁decade	-13452
okes	-13453
riction	-13454
▁hem	-13455
▁Major	-13456
▁anymore	-13457
▁simulation	-13458
▁Joint	-13459
aine	-13460
Commerce	-13461
▁agenda	-13462
eleration	-13463
▁gains	-13464
▁Hann	-13465
▁humanitarian	-13466
Sur	-13467
Brand	-13468
▁absorption	-13469
▁difficulties	-13470
▁96	-13471
▁hip	-13472
▁Holl	-13473
▁wider	-13474
▁apparent	-13475
▁passes	-13476
▁violations	-13477
▁associate	-13478
▁hors	-13479
Es	-13480
▁Cad	-13481
▁honest	-13482
▁scanner	-13483
▁valves	-13484
▁Sharing	-13485
▁representation	-13486
▁drama	-13487
onomous	-13488
▁airports	-13489
▁partial	-13490
▁HR	-13491
suite	-13492
aeological	-13493
▁Likes	-13494
▁worst	-13495
▁journalist	-13496
illion	-13497
▁Occup	-13498
owns	-13499
▁analys	-13500
apped	-13501
▁flav	-13502
veless	-13503
▁fork	-13504
ints	-13505
▁habits	-13506
▁Dell	-13507
Popularity	-13508
▁triple	-13509
▁amongst	-13510
▁Muhammad	-13511
98	-13512
rait	-13513
▁appetite	-13514
▁cylinder	-13515
▁identical	-13516
TION	-13517
▁mart	-13518
mentation	-13519
aa	-13520
▁pc	-13521
▁fonts	-13522
▁shorts	-13523
emy	-13524
Log	-13525
lon	-13526
Pass	-13527
Enter	-13528
▁rocket	-13529
▁experiencing	-13530
▁adopts	-13531
▁welcoming	-13532
▁Liqu	-13533
▁Door	-13534
Keywords	-13535
ICK	-13536
▁Ari	-13537
Vis	-13538
Who	-13539
Male	-13540
heat	-13541
laces	-13542
ilst	-13543
color	-13544
▁True	-13545
▁monitors	-13546
▁veter	-13547
▁Symptoms	-13548
nut	-13549
▁Hob	-13550
▁Grey	-13551
▁Alliance	-13552
▁righteous	-13553
ım	-13554
▁"18	-13555
▁inhab	-13556
▁derived	-13557
quer	-13558
▁supermarket	-13559
▁Ferr	-13560
▁grinding	-13561
▁scenes	-13562
boy	-13563
▁Rou	-13564
▁TER	-13565
▁fence	-13566
▁Kyrgyz	-13567
▁scheme	-13568
▁wallets	-13569
▁Jennifer	-13570
▁subtit	-13571
▁Articles	-13572
eled	-13573
▁conce	-13574
▁republic	-13575
jan	-13576
4]	-13577
▁Mask	-13578
oni	-13579
▁Motion	-13580
▁scenario	-13581
rup	-13582
▁Egyptian	-13583
▁Simulator	-13584
itative	-13585
IFF	-13586
▁observe	-13587
▁volunt	-13588
▁lively	-13589
▁outcomes	-13590
▁citizen	-13591
▁trick	-13592
▁jeans	-13593
▁bladder	-13594
ted	-13595
inking	-13596
aş	-13597
lend	-13598
▁Tat	-13599
▁melt	-13600
opia	-13601
uits	-13602
▁Enh	-13603
holder	-13604
▁thoroughly	-13605
rac	-13606
▁guided	-13607
bas	-13608
▁Chem	-13609
▁0.3	-13610
▁Status	-13611
doğan	-13612
▁Seoul	-13613
▁travelling	-13614
▁Musk	-13615
ailability	-13616
heart	-13617
Bre	-13618
eland	-13619
76	-13620
▁Evil	-13621
▁1⁄	-13622
▁steroids	-13623
▁charts	-13624
▁Reading	-13625
▁Volume	-13626
redient	-13627
bey	-13628
▁INFORMATION	-13629
▁blo	-13630
▁aband	-13631
▁Türkiye	-13632
▁fellow	-13633
▁TA	-13634
▁Unique	-13635
▁climbing	-13636
English	-13637
alone	-13638
▁Eld	-13639
▁Phoenix	-13640
▁creator	-13641
▁glucose	-13642
brow	-13643
▁Kevin	-13644
▁Dj	-13645
▁Half	-13646
.(	-13647
▁Oz	-13648
▁utilize	-13649
▁congress	-13650
▁packs	-13651
weh	-13652
▁Schengen	-13653
▁Following	-13654
▁HotelsClick	-13655
mos	-13656
thal	-13657
▁Advantages	-13658
%."	-13659
▁Avoid	-13660
▁duplic	-13661
▁recreation	-13662
▁hose	-13663
▁decreased	-13664
isdom	-13665
edition	-13666
▁cathedral	-13667
uela	-13668
Black	-13669
▁Perm	-13670
joining	-13671
▁Powder	-13672
▁Character	-13673
▁2.8	-13674
▁Virus	-13675
▁locals	-13676
▁0.2	-13677
rology	-13678
▁External	-13679
▁sequence	-13680
▁depression	-13681
▁controlling	-13682
▁Zoo	-13683
▁potassium	-13684
▁220	-13685
BL	-13686
Bar	-13687
ARE	-13688
▁Irish	-13689
▁accused	-13690
▁Political	-13691
eware	-13692
▁Paulo	-13693
▁10,000	-13694
▁($	-13695
▁Mayor	-13696
hyth	-13697
▁Courses	-13698
Contin	-13699
▁connects	-13700
▁scenarios	-13701
aspers	-13702
▁Administrative	-13703
ocs	-13704
laundry	-13705
▁athletes	-13706
▁Vel	-13707
▁Salv	-13708
▁cease	-13709
hetics	-13710
▁na	-13711
▁credentials	-13712
▁lib	-13713
ructive	-13714
▁compos	-13715
▁ranges	-13716
Near	-13717
▁().	-13718
▁unen	-13719
city	-13720
▁Period	-13721
▁Supporting	-13722
President	-13723
▁intensive	-13724
▁virgin	-13725
▁Balk	-13726
Cor	-13727
▁eyel	-13728
FL	-13729
jiang	-13730
rake	-13731
thod	-13732
▁kiss	-13733
▁freedoms	-13734
▁screenshot	-13735
▁blow	-13736
▁canvas	-13737
Quality	-13738
reading	-13739
ilia	-13740
Works	-13741
▁Origin	-13742
▁rejected	-13743
▁Tracking	-13744
▁Blog	-13745
XX	-13746
▁marine	-13747
▁translated	-13748
▁IELTS	-13749
▁loves	-13750
▁1970	-13751
aining	-13752
▁54	-13753
▁Lumia	-13754
▁Oh	-13755
▁Wine	-13756
▁Vladimir	-13757
▁Bour	-13758
-25	-13759
▁Simon	-13760
▁Maj	-13761
ressed	-13762
chers	-13763
▁compan	-13764
▁memor	-13765
▁Scotland	-13766
▁Changes	-13767
▁acrylic	-13768
▁accompany	-13769
▁libraries	-13770
▁optimum	-13771
▁proportion	-13772
▁blond	-13773
▁Jose	-13774
▁Operations	-13775
▁pulp	-13776
▁Butter	-13777
▁Sabanc	-13778
▁achievements	-13779
▁smaller	-13780
▁reportedly	-13781
▁clo	-13782
▁Viol	-13783
▁facilit	-13784
pread	-13785
▁singers	-13786
▁galaxy	-13787
▁Toys	-13788
▁Abra	-13789
▁imposed	-13790
▁Alloy	-13791
▁painted	-13792
ASH	-13793
posable	-13794
▁downloader	-13795
MC	-13796
▁achieving	-13797
▁Standards	-13798
▁Grade	-13799
▁Hunt	-13800
▁Bali	-13801
ISS	-13802
iza	-13803
atitis	-13804
▁calories	-13805
▁Agent	-13806
▁Events	-13807
rine	-13808
▁addressed	-13809
Thus	-13810
▁incur	-13811
▁Upload	-13812
Latest	-13813
fficiency	-13814
▁Knight	-13815
▁compound	-13816
▁missions	-13817
▁redirect	-13818
▁greenhouse	-13819
▁mechanisms	-13820
-24	-13821
▁Carm	-13822
▁subscribers	-13823
▁Rout	-13824
▁greet	-13825
▁VOB	-13826
▁Baku	-13827
▁Message	-13828
▁overlook	-13829
uri	-13830
▁Shared	-13831
▁cooked	-13832
▁labour	-13833
▁immers	-13834
TI	-13835
Among	-13836
inse	-13837
▁SGS	-13838
▁macro	-13839
iov	-13840
faces	-13841
▁banned	-13842
▁Planet	-13843
ognitive	-13844
roleum	-13845
▁Currency	-13846
▁Obama	-13847
ews	-13848
▁BO	-13849
▁Zh	-13850
▁magnesium	-13851
▁fur	-13852
▁intention	-13853
amo	-13854
▁Integrated	-13855
ERSON	-13856
▁consume	-13857
▁separated	-13858
▁sor	-13859
▁consolid	-13860
icator	-13861
▁transit	-13862
▁Ryan	-13863
▁absence	-13864
▁Alternatives	-13865
▁Rank	-13866
▁exterior	-13867
▁cosmetics	-13868
▁latter	-13869
▁laboratories	-13870
▁backed	-13871
▁BlackBerry	-13872
▁multimedia	-13873
71	-13874
▁Hak	-13875
ocide	-13876
▁Lion	-13877
innam	-13878
ounced	-13879
▁provinces	-13880
▁Mechanical	-13881
aspersky	-13882
▁ul	-13883
!"""	-13884
Samsung	-13885
▁Pra	-13886
▁Pirates	-13887
TERN	-13888
▁4.7/5	-13889
▁sq	-13890
,..."	-13891
▁Yı	-13892
oche	-13893
▁Dental	-13894
▁defects	-13895
▁aviation	-13896
▁tomatoes	-13897
▁Naz	-13898
▁1960	-13899
Those	-13900
▁Birthday	-13901
▁celebrated	-13902
▁publications	-13903
"").	-13904
uder	-13905
▁Indoor	-13906
fu	-13907
▁forb	-13908
ticket	-13909
▁affiliate	-13910
Choose	-13911
▁Covid	-13912
▁edges	-13913
▁yours	-13914
▁Marmaris	-13915
▁Lorem	-13916
vals	-13917
▁Stage	-13918
▁Pump	-13919
Depend	-13920
▁Prices	-13921
▁scored	-13922
▁statistical	-13923
imb	-13924
▁narr	-13925
▁divor	-13926
▁vibrant	-13927
▁hepatitis	-13928
▁Cooper	-13929
ARK	-13930
▁interfer	-13931
▁POS	-13932
▁talent	-13933
ipher	-13934
▁Load	-13935
▁embr	-13936
▁Running	-13937
▁proprietary	-13938
▁Kad	-13939
▁Subject	-13940
▁Principles	-13941
esthesia	-13942
▁Row	-13943
incial	-13944
▁Judah	-13945
▁Flow	-13946
Words	-13947
ithium	-13948
▁"'	-13949
▁subscribe	-13950
▁toxic	-13951
Business	-13952
▁bathrobes	-13953
▁municipal	-13954
▁thirty	-13955
▁acknowledge	-13956
▁professor	-13957
▁Ger	-13958
▁elderly	-13959
iser	-13960
▁beside	-13961
▁garage	-13962
urate	-13963
▁wrink	-13964
▁Panama	-13965
▁feelings	-13966
▁Lift	-13967
orous	-13968
building	-13969
DH	-13970
▁continental	-13971
SW	-13972
▁Wonder	-13973
▁punishment	-13974
▁abund	-13975
▁logic	-13976
▁parliament	-13977
▁ventilation	-13978
▁consultation	-13979
Posted	-13980
onya	-13981
UST	-13982
▁Cyp	-13983
ologna	-13984
▁Kosovo	-13985
▁dealer	-13986
Max	-13987
▁encl	-13988
▁Bridal	-13989
▁shaped	-13990
▁Belgrade	-13991
sale	-13992
▁Race	-13993
▁administrators	-13994
▁foil	-13995
▁Purchase	-13996
▁"1,	-13997
▁Puzzle	-13998
kind	-13999
▁Gem	-14000
▁injuries	-14001
▁brick	-14002
stick	-14003
▁silk	-14004
▁2013.	-14005
▁Ax	-14006
type	-14007
rior	-14008
▁Zomb	-14009
▁Friends	-14010
Str	-14011
ango	-14012
▁Balt	-14013
96	-14014
▁chapter	-14015
▁resin	-14016
orate	-14017
▁cleaned	-14018
Furthermore	-14019
eni	-14020
▁artwork	-14021
▁BL	-14022
▁Tank	-14023
amine	-14024
▁Buff	-14025
▁Sche	-14026
▁Phuket	-14027
▁Superman	-14028
utt	-14029
▁thereby	-14030
hero	-14031
▁Nev	-14032
arel	-14033
▁liv	-14034
▁ran	-14035
▁1200	-14036
▁Individual	-14037
rec	-14038
amboo	-14039
▁steering	-14040
▁Shoulder	-14041
▁independently	-14042
▁wool	-14043
aneous	-14044
▁Besides	-14045
▁CBD	-14046
▁cozy	-14047
▁contributes	-14048
▁Actress	-14049
▁steroid	-14050
▁advertisements	-14051
▁1999	-14052
ız	-14053
driv	-14054
▁"17	-14055
▁Eleg	-14056
▁executed	-14057
DER	-14058
dim	-14059
ecution	-14060
▁boss	-14061
▁alerts	-14062
▁DivX	-14063
▁recipients	-14064
▁refriger	-14065
▁Declaration	-14066
iar	-14067
kers	-14068
▁Bund	-14069
Location	-14070
▁trim	-14071
▁loyalty	-14072
▁cere	-14073
ocial	-14074
▁Forex	-14075
▁Coup	-14076
▁saves	-14077
ük	-14078
Moreover	-14079
▁sciences	-14080
▁Tip	-14081
▁vest	-14082
▁applicant	-14083
▁aside	-14084
▁Marmara	-14085
▁preca	-14086
▁2.7	-14087
▁tort	-14088
ologne	-14089
▁Script	-14090
▁Raspberry	-14091
▁dorm	-14092
▁wrist	-14093
ivia	-14094
▁representing	-14095
essional	-14096
▁fats	-14097
▁switching	-14098
Ge	-14099
▁Provider	-14100
▁reasonably	-14101
suit	-14102
▁2-3	-14103
▁ASF	-14104
▁Springs	-14105
▁embass	-14106
▁Pattaya	-14107
▁crop	-14108
habilitation	-14109
clipse	-14110
EMENT	-14111
▁medication	-14112
eda	-14113
▁Virginia	-14114
▁cultures	-14115
▁Bulgarian	-14116
disc	-14117
Current	-14118
▁supervisory	-14119
▁Rew	-14120
▁follic	-14121
▁extraction	-14122
▁namely	-14123
▁BUYER	-14124
eu	-14125
regular	-14126
▁Unlimited	-14127
▁SY	-14128
▁dummy	-14129
▁logos	-14130
elli	-14131
idges	-14132
▁Automation	-14133
LD	-14134
▁talked	-14135
▁episodes	-14136
▁modular	-14137
▁discussions	-14138
HO	-14139
▁2003,	-14140
pay	-14141
▁Ross	-14142
▁Pearl	-14143
liminary	-14144
▁Survey	-14145
arin	-14146
People	-14147
375	-14148
▁Bond	-14149
▁Guid	-14150
▁unusual	-14151
▁affecting	-14152
▁shadow	-14153
trl	-14154
leyball	-14155
▁slowly	-14156
mont	-14157
arry	-14158
usher	-14159
▁feels	-14160
▁Zurich	-14161
▁2015.	-14162
▁excellence	-14163
▁presidential	-14164
lications	-14165
▁exporting	-14166
otted	-14167
▁Penn	-14168
▁screening	-14169
ICES	-14170
Having	-14171
bin	-14172
▁gap	-14173
▁Interactive	-14174
▁Yahweh	-14175
Such	-14176
sten	-14177
American	-14178
▁bleeding	-14179
▁pointed	-14180
▁composite	-14181
SPA	-14182
▁investigate	-14183
cı	-14184
▁Enc	-14185
▁PCB	-14186
▁rod	-14187
pc	-14188
▁hurt	-14189
Mr	-14190
▁absorb	-14191
▁Quartz	-14192
▁shouldn	-14193
▁Authent	-14194
▁aids	-14195
oked	-14196
▁bay	-14197
▁fi	-14198
▁servants	-14199
▁conducting	-14200
ods	-14201
▁Bear	-14202
var	-14203
assin	-14204
Gr	-14205
▁Pom	-14206
▁switches	-14207
ittings	-14208
72	-14209
▁raising	-14210
▁ears	-14211
▁resume	-14212
Form	-14213
▁Crit	-14214
▁penis	-14215
▁Imperial	-14216
Elect	-14217
▁trainings	-14218
▁positioning	-14219
▁Ms	-14220
▁straw	-14221
▁seaf	-14222
▁Cock	-14223
▁Ahmet	-14224
▁Pel	-14225
▁remotely	-14226
ois	-14227
town	-14228
▁loose	-14229
▁fairly	-14230
uble	-14231
yard	-14232
▁"13	-14233
▁fails	-14234
▁assume	-14235
▁restored	-14236
▁intensity	-14237
▁bandwidth	-14238
▁66	-14239
▁Paint	-14240
▁Cutting	-14241
▁Gord	-14242
▁78	-14243
▁contributed	-14244
▁responses	-14245
▁affiliated	-14246
ending	-14247
▁Erdogan	-14248
peror	-14249
▁Labour	-14250
▁Creator	-14251
▁democracy	-14252
▁53	-14253
▁3.3	-14254
▁XML	-14255
rating	-14256
▁pour	-14257
▁Elite	-14258
▁erase	-14259
▁rentals	-14260
▁Bry	-14261
▁behaviour	-14262
▁proceedings	-14263
▁Chi	-14264
▁Moto	-14265
▁Wear	-14266
▁ruling	-14267
▁veins	-14268
▁complications	-14269
epage	-14270
Er	-14271
▁Acid	-14272
layer	-14273
▁structured	-14274
illy	-14275
▁Reader	-14276
Sign	-14277
▁PO	-14278
▁Bible	-14279
yew	-14280
▁fare	-14281
▁Fle	-14282
▁Kind	-14283
▁LAN	-14284
▁defeat	-14285
▁Printer	-14286
boot	-14287
imal	-14288
▁legendary	-14289
packs	-14290
▁Ja	-14291
▁Boulevard	-14292
City	-14293
▁cumulative	-14294
▁Amazing	-14295
▁dentist	-14296
▁preference	-14297
brew	-14298
▁Keyboard	-14299
▁seminars	-14300
▁disin	-14301
▁PERSON	-14302
▁Complimentary	-14303
Put	-14304
▁Marg	-14305
▁grew	-14306
Gen	-14307
▁Lav	-14308
▁Instructions	-14309
▁«	-14310
▁Division	-14311
▁suffered	-14312
▁warranties	-14313
▁engra	-14314
▁champion	-14315
▁examined	-14316
▁GA	-14317
▁Yemen	-14318
▁Airways	-14319
▁handles	-14320
▁Dian	-14321
ierra	-14322
▁Cars	-14323
enb	-14324
▁tries	-14325
necessary	-14326
▁tie	-14327
▁2016."	-14328
product	-14329
▁Players	-14330
▁protot	-14331
Ste	-14332
usa	-14333
SL	-14334
rape	-14335
▁impacts	-14336
▁Hum	-14337
block	-14338
▁Expert	-14339
▁radical	-14340
:3	-14341
▁Gaza	-14342
▁flooring	-14343
▁Berg	-14344
▁Samuel	-14345
▁Alarm	-14346
ologists	-14347
government	-14348
▁ho	-14349
▁[...]	-14350
imen	-14351
▁"14	-14352
▁smoothly	-14353
▁constructed	-14354
non	-14355
Istanbul	-14356
▁Lump	-14357
▁pets	-14358
▁Brook	-14359
▁(18	-14360
▁Libya	-14361
▁2017."	-14362
atility	-14363
IGHT	-14364
▁2017"	-14365
▁recruit	-14366
▁Thermal	-14367
▁Cath	-14368
▁Biden	-14369
▁lawyers	-14370
▁sunlight	-14371
▁1-2	-14372
▁Tob	-14373
▁Rate	-14374
▁Proble	-14375
▁umbrella	-14376
plex	-14377
ndham	-14378
▁Contacts	-14379
▁varieties	-14380
ARS	-14381
▁CV	-14382
▁wides	-14383
▁domains	-14384
▁notebook	-14385
ipple	-14386
ICLE	-14387
oln	-14388
▁hi	-14389
taking	-14390
▁Capt	-14391
Rest	-14392
▁propos	-14393
▁Success	-14394
INA	-14395
▁Results	-14396
Welcome	-14397
▁loans	-14398
▁Minimum	-14399
▁deaths	-14400
amas	-14401
▁Pressure	-14402
struction	-14403
▁Ibis	-14404
iatric	-14405
▁Movement	-14406
▁Supports	-14407
▁Brun	-14408
▁barrier	-14409
▁promised	-14410
▁$19	-14411
▁1/4	-14412
▁Isaac	-14413
▁practition	-14414
▁Herzegovina	-14415
1-	-14416
▁pills	-14417
▁balls	-14418
▁lying	-14419
ividually	-14420
▁Pok	-14421
▁Fight	-14422
▁subscriptions	-14423
▁beverage	-14424
▁Setting	-14425
hard	-14426
▁glory	-14427
▁Albania	-14428
▁Measure	-14429
▁Ayd	-14430
▁Lost	-14431
▁sam	-14432
ugs	-14433
▁Upper	-14434
▁requiring	-14435
▁Siem	-14436
▁Breast	-14437
▁Kate	-14438
points	-14439
▁skilled	-14440
▁170	-14441
▁Translation	-14442
▁Cir	-14443
century	-14444
▁tomato	-14445
▁Furious	-14446
▁revolutionary	-14447
IND	-14448
▁Effects	-14449
▁PCs	-14450
▁pne	-14451
▁Sets	-14452
lishing	-14453
▁shed	-14454
▁sheep	-14455
▁shorter	-14456
/.	-14457
▁profitable	-14458
▁china	-14459
Rep	-14460
▁BR	-14461
▁reactions	-14462
▁medications	-14463
anship	-14464
abs	-14465
umbai	-14466
dd	-14467
▁SDK	-14468
elfare	-14469
▁nick	-14470
▁mistake	-14471
▁pace	-14472
▁Bologna	-14473
▁joints	-14474
▁barrels	-14475
urers	-14476
▁Affili	-14477
▁folding	-14478
▁associations	-14479
rovnik	-14480
▁Alf	-14481
▁SV	-14482
▁(15	-14483
▁Birds	-14484
▁anticipated	-14485
MO	-14486
▁emerging	-14487
lebration	-14488
gaming	-14489
▁supervision	-14490
▁domin	-14491
▁fulfil	-14492
▁77	-14493
burn	-14494
▁Between	-14495
▁2012.	-14496
▁explosion	-14497
▁Holder	-14498
▁67	-14499
▁Pants	-14500
▁retro	-14501
▁worse	-14502
ERT	-14503
Par	-14504
▁dozens	-14505
Depending	-14506
▁Neg	-14507
▁circular	-14508
▁spr	-14509
▁Hardware	-14510
▁decentral	-14511
▁PNG	-14512
▁uncle	-14513
▁Depending	-14514
hots	-14515
uala	-14516
will	-14517
▁Come	-14518
▁Lyon	-14519
▁Aaron	-14520
▁weakness	-14521
▁receiver	-14522
Service	-14523
▁ARE	-14524
▁Mate	-14525
▁rows	-14526
▁Manufacturing	-14527
▁Rog	-14528
▁variants	-14529
anny	-14530
▁anten	-14531
▁clinic	-14532
ieves	-14533
▁Brighton	-14534
▁Suitable	-14535
▁theoretical	-14536
▁MET	-14537
▁bets	-14538
▁"●	-14539
icular	-14540
▁borrow	-14541
▁Abraham	-14542
▁acknowled	-14543
▁Mike	-14544
▁Dor	-14545
Import	-14546
Af	-14547
▁Cards	-14548
uzzles	-14549
▁Uzbek	-14550
▁Sheet	-14551
▁prosper	-14552
▁contrary	-14553
reservation	-14554
GR	-14555
▁unenforce	-14556
oustic	-14557
▁Error	-14558
TT	-14559
zon	-14560
lift	-14561
▁Laure	-14562
owned	-14563
names	-14564
▁Rand	-14565
fish	-14566
▁stereo	-14567
▁Erdoğan	-14568
▁$50	-14569
▁Transl	-14570
▁underlying	-14571
▁2014.	-14572
▁Marco	-14573
▁occupation	-14574
haus	-14575
▁immun	-14576
▁torque	-14577
▁gau	-14578
chair	-14579
▁accidents	-14580
▁preserv	-14581
gur	-14582
▁palm	-14583
▁Aires	-14584
agnetic	-14585
▁dos	-14586
▁rust	-14587
▁Ground	-14588
▁whitening	-14589
▁surveillance	-14590
▁Tunis	-14591
▁Lounge	-14592
▁inspiration	-14593
▁py	-14594
▁cultiv	-14595
herry	-14596
▁insight	-14597
▁employed	-14598
▁Customized	-14599
4."	-14600
▁İzmir	-14601
▁Present	-14602
▁stickers	-14603
DB	-14604
▁Maximum	-14605
▁disrupt	-14606
▁WW	-14607
▁Mercure	-14608
▁prospect	-14609
▁Textile	-14610
900	-14611
KEY	-14612
▁AdWords	-14613
▁Atlanta	-14614
▁Hills	-14615
lessly	-14616
▁abras	-14617
izers	-14618
▁sperm	-14619
ATIONS	-14620
▁postal	-14621
▁Mohammed	-14622
▁outcome	-14623
▁storing	-14624
▁relatives	-14625
▁painful	-14626
▁08	-14627
▁inflation	-14628
issance	-14629
▁suites	-14630
▁characterized	-14631
.95	-14632
▁erg	-14633
▁ABS	-14634
▁brill	-14635
▁Cologne	-14636
▁territories	-14637
▁Mut	-14638
aturk	-14639
▁additives	-14640
'."	-14641
▁Yahoo	-14642
▁interactions	-14643
9001	-14644
▁Testing	-14645
▁comedy	-14646
▁dictionary	-14647
ouver	-14648
▁Kay	-14649
▁needle	-14650
▁bio	-14651
▁Ctrip	-14652
▁gently	-14653
▁legisl	-14654
▁RS	-14655
▁Alexand	-14656
▁metadata	-14657
cha	-14658
▁Cu	-14659
liam	-14660
▁plasma	-14661
▁TikTok	-14662
▁Dynamic	-14663
▁execute	-14664
▁venture	-14665
▁Patch	-14666
▁UNESCO	-14667
▁Furthermore	-14668
▁identifying	-14669
!""	-14670
shot	-14671
▁von	-14672
Aust	-14673
▁Ple	-14674
▁jet	-14675
▁2017(	-14676
ictions	-14677
▁Vehicle	-14678
▁maximize	-14679
▁EMS	-14680
adesh	-14681
▁reflected	-14682
flower	-14683
ansomware	-14684
▁Roy	-14685
▁acne	-14686
▁controllers	-14687
▁lithium	-14688
▁corrected	-14689
ensus	-14690
develop	-14691
▁engaging	-14692
▁Firm	-14693
▁Khan	-14694
asso	-14695
rio	-14696
▁Lens	-14697
▁Offer	-14698
▁Juan	-14699
▁Shadow	-14700
▁Mort	-14701
▁yog	-14702
▁terrorism	-14703
▁institutional	-14704
▁$12	-14705
3-	-14706
▁nails	-14707
Link	-14708
quest	-14709
▁Machines	-14710
▁consultants	-14711
▁woven	-14712
gely	-14713
▁pist	-14714
▁Promotion	-14715
opter	-14716
▁Maur	-14717
▁sodium	-14718
ifunction	-14719
▁Jama	-14720
▁fits	-14721
=0	-14722
▁sidewalk	-14723
▁exhibitions	-14724
▁Dig	-14725
▁Chap	-14726
alytical	-14727
▁Ancient	-14728
oku	-14729
▁whereas	-14730
.:	-14731
▁Porn	-14732
▁storm	-14733
▁Dubrovnik	-14734
▁Soccer	-14735
▁Interface	-14736
cca	-14737
▁vessel	-14738
▁Freedom	-14739
oded	-14740
▁Tow	-14741
▁"1)	-14742
umbers	-14743
▁Ec	-14744
▁dé	-14745
allow	-14746
onders	-14747
▁manifest	-14748
▁Anna	-14749
▁startup	-14750
▁hur	-14751
otes	-14752
▁Campaign	-14753
▁Additionally	-14754
asis	-14755
▁Americans	-14756
▁entrepreneur	-14757
erious	-14758
arks	-14759
▁Was	-14760
▁assert	-14761
▁debit	-14762
▁transferring	-14763
▁luck	-14764
▁shelf	-14765
▁trades	-14766
▁Loading	-14767
▁swelling	-14768
▁Path	-14769
▁tabs	-14770
▁Seven	-14771
good	-14772
▁pupp	-14773
▁Target	-14774
ogenic	-14775
▁Campus	-14776
▁mistakes	-14777
ocop	-14778
▁bare	-14779
▁88	-14780
▁begun	-14781
Address	-14782
▁enrich	-14783
ASS	-14784
▁Impact	-14785
▁wizard	-14786
▁LinkedIn	-14787
ocate	-14788
▁Letter	-14789
▁secured	-14790
▁Cort	-14791
▁Canvas	-14792
▁Edward	-14793
▁democratic	-14794
▁2017.	-14795
itement	-14796
▁breaks	-14797
▁anch	-14798
▁queen	-14799
▁accelerate	-14800
▁hydrogen	-14801
▁RA	-14802
▁1998	-14803
▁stroke	-14804
isb	-14805
zel	-14806
▁Retrieved	-14807
▁qualities	-14808
omon	-14809
▁hasn	-14810
robat	-14811
▁Easily	-14812
▁Sensor	-14813
South	-14814
▁Sync	-14815
ifa	-14816
▁digit	-14817
▁Sofa	-14818
▁waist	-14819
▁2022."	-14820
▁Styles	-14821
▁sword	-14822
▁rescue	-14823
▁couples	-14824
▁2014."	-14825
▁accommodate	-14826
▁4)	-14827
oglu	-14828
▁Module	-14829
▁rumors	-14830
▁Remember	-14831
▁consumed	-14832
▁loud	-14833
▁metabolism	-14834
fy	-14835
▁Title	-14836
chnology	-14837
ulk	-14838
chant	-14839
track	-14840
▁shots	-14841
▁~	-14842
▁Mexican	-14843
▁membrane	-14844
▁Christopher	-14845
innamon	-14846
▁2021."	-14847
▁tongue	-14848
▁Quint	-14849
▁yoga	-14850
ventions	-14851
▁Languages	-14852
▁precisely	-14853
▁chrom	-14854
▁Messages	-14855
Friend	-14856
▁assured	-14857
Sub	-14858
hall	-14859
▁Bean	-14860
Stand	-14861
▁arom	-14862
▁jail	-14863
▁defence	-14864
▁Traditional	-14865
▁Nan	-14866
▁Sak	-14867
▁Vil	-14868
club	-14869
▁retire	-14870
▁Wyndham	-14871
ffe	-14872
▁ED	-14873
▁civilians	-14874
cul	-14875
▁Sudan	-14876
▁settled	-14877
ELLER	-14878
▁2006,	-14879
▁aiming	-14880
▁Guarant	-14881
▁contractual	-14882
▁2015."	-14883
▁Nu	-14884
curement	-14885
▁regards	-14886
ieces	-14887
▁Valencia	-14888
▁objection	-14889
▁disad	-14890
anquet	-14891
gement	-14892
▁customization	-14893
▁2016.	-14894
▁Honor	-14895
1."	-14896
ducing	-14897
▁Polo	-14898
▁cul	-14899
riculum	-14900
ACE	-14901
isp	-14902
yne	-14903
Design	-14904
▁upgraded	-14905
▁biological	-14906
▁UL	-14907
▁gang	-14908
ospace	-14909
▁metrics	-14910
▁Logistics	-14911
▁dependent	-14912
▁68	-14913
except	-14914
▁Resource	-14915
▁preserve	-14916
Water	-14917
Non	-14918
OME	-14919
▁comforts	-14920
▁consistently	-14921
▁confidentiality	-14922
ureau	-14923
▁tonight	-14924
▁Microwave	-14925
▁TVs	-14926
▁fireplace	-14927
▁babies	-14928
▁Imm	-14929
▁cav	-14930
▁algorithms	-14931
▁$20	-14932
▁deter	-14933
▁Kuala	-14934
▁Lumpur	-14935
▁messenger	-14936
count	-14937
▁promises	-14938
rovers	-14939
Soft	-14940
▁Ready	-14941
▁masks	-14942
▁marketplace	-14943
▁97	-14944
▁Beta	-14945
ioxide	-14946
▁orbit	-14947
zh	-14948
▁OP	-14949
NS	-14950
eing	-14951
▁picnic	-14952
drop	-14953
▁poster	-14954
▁07	-14955
▁Miles	-14956
▁trader	-14957
▁Flights	-14958
▁imaging	-14959
▁Ingredients	-14960
▁Veget	-14961
▁Fresh	-14962
▁crazy	-14963
▁wallpapers	-14964
▁copied	-14965
▁ratings	-14966
▁Python	-14967
▁mush	-14968
)?	-14969
vd	-14970
kaya	-14971
▁Buenos	-14972
▁incredibly	-14973
▁PhD	-14974
▁Similar	-14975
▁Basilica	-14976
▁HA	-14977
▁Philips	-14978
▁districts	-14979
kal	-14980
▁3.4	-14981
▁snack	-14982
▁3.6	-14983
▁judicial	-14984
▁telling	-14985
▁"2)	-14986
itched	-14987
▁rides	-14988
▁conflicts	-14989
ancer	-14990
▁shooter	-14991
▁accredited	-14992
▁formatting	-14993
▁ric	-14994
rah	-14995
oult	-14996
▁Chang	-14997
▁Taj	-14998
▁Nest	-14999
atical	-15000
berries	-15001
adjoining	-15002
▁94	-15003
DVD	-15004
▁disclosed	-15005
▁emp	-15006
▁priest	-15007
▁pursue	-15008
▁Holland	-15009
▁assortment	-15010
inafter	-15011
▁enjoyable	-15012
Room	-15013
▁Speaker	-15014
-30	-15015
▁largely	-15016
▁skateboard	-15017
▁3.7	-15018
▁"201	-15019
inth	-15020
▁Cannes	-15021
▁launches	-15022
▁publisher	-15023
parent	-15024
▁strengthening	-15025
▁Layer	-15026
▁Southeast	-15027
▁Jin	-15028
enhagen	-15029
▁trains	-15030
▁Hop	-15031
▁ideally	-15032
▁turb	-15033
▁backpack	-15034
▁Kor	-15035
▁Jacob	-15036
▁Disease	-15037
▁renewal	-15038
▁Generator	-15039
bast	-15040
ivot	-15041
▁seasons	-15042
yer	-15043
▁soup	-15044
▁PA	-15045
sub	-15046
▁perce	-15047
▁deeply	-15048
inki	-15049
▁Mesh	-15050
iplinary	-15051
▁incorporated	-15052
opard	-15053
▁SSD	-15054
▁variables	-15055
ropri	-15056
▁gest	-15057
obs	-15058
asha	-15059
adows	-15060
ritional	-15061
veniently	-15062
iel	-15063
dong	-15064
▁Lower	-15065
▁bitcoin	-15066
▁Stylish	-15067
▁fathers	-15068
copic	-15069
▁stip	-15070
▁750	-15071
▁Cuff	-15072
▁angel	-15073
Its	-15074
▁loop	-15075
▁Got	-15076
ricks	-15077
▁renewed	-15078
▁Tablet	-15079
▁incent	-15080
▁epid	-15081
▁Guesthouse	-15082
▁twelve	-15083
▁classroom	-15084
writer	-15085
▁safer	-15086
▁anabolic	-15087
▁adhes	-15088
forward	-15089
▁PRODUC	-15090
ancouver	-15091
▁unenforceable	-15092
shine	-15093
▁Crist	-15094
▁drill	-15095
▁fewer	-15096
▁Avengers	-15097
şehir	-15098
▁Links	-15099
aux	-15100
adan	-15101
▁owns	-15102
▁principal	-15103
▁ampl	-15104
▁Wid	-15105
▁Manh	-15106
▁PERSONAL	-15107
built	-15108
▁lamps	-15109
▁continuity	-15110
▁Mes	-15111
▁discon	-15112
▁wax	-15113
▁Hels	-15114
▁throat	-15115
vc	-15116
Tip	-15117
Russian	-15118
▁therein	-15119
Tra	-15120
▁piano	-15121
▁wired	-15122
▁PIN	-15123
Sense	-15124
▁Tesla	-15125
▁Albert	-15126
ucas	-15127
itored	-15128
▁Canal	-15129
▁excav	-15130
▁Diesel	-15131
▁virtually	-15132
▁Physical	-15133
▁Scientific	-15134
▁69	-15135
▁Straight	-15136
▁Recommended	-15137
prof	-15138
▁attitude	-15139
▁harass	-15140
▁Reserve	-15141
▁Epic	-15142
▁bases	-15143
defined	-15144
▁Abs	-15145
atürk	-15146
▁Bros	-15147
kel	-15148
▁Cycling	-15149
▁volumes	-15150
▁Azerbaijani	-15151
56	-15152
Game	-15153
visible	-15154
▁Markets	-15155
ervatory	-15156
▁★	-15157
▁Boots	-15158
▁McC	-15159
▁Navy	-15160
▁Tian	-15161
Neck	-15162
uto	-15163
▁Eval	-15164
[...]
