<pad>	0
<unk>	0
<s>	0
</s>	0
la	-0
er	-1
in	-2
an	-3
▁b	-4
ir	-5
en	-6
ar	-7
il	-8
ın	-9
▁k	-10
▁s	-11
ak	-12
▁v	-13
lar	-14
▁d	-15
el	-16
▁y	-17
ek	-18
▁i	-19
▁g	-20
et	-21
▁o	-22
al	-23
▁ve	-24
▁t	-25
ma	-26
un	-27
es	-28
on	-29
▁"	-30
iz	-31
ler	-32
da	-33
de	-34
or	-35
lan	-36
ik	-37
▁h	-38
▁a	-39
ır	-40
ya	-41
le	-42
▁m	-43
▁bir	-44
im	-45
as	-46
."	-47
is	-48
▁B	-49
at	-50
ul	-51
ur	-52
▁S	-53
lı	-54
▁A	-55
▁iç	-56
it	-57
ay	-58
ün	-59
em	-60
iş	-61
ed	-62
▁ç	-63
iy	-64
▁p	-65
ür	-66
▁için	-67
ız	-68
▁K	-69
▁T	-70
am	-71
▁M	-72
ap	-73
▁ö	-74
li	-75
ları	-76
st	-77
bil	-78
ah	-79
ış	-80
▁f	-81
ağ	-82
▁il	-83
az	-84
ların	-85
mak	-86
ık	-87
▁ol	-88
dan	-89
ey	-90
▁D	-91
ol	-92
▁H	-93
ta	-94
ım	-95
▁P	-96
um	-97
ıl	-98
dır	-99
eri	-100
▁G	-101
aş	-102
ev	-103
▁u	-104
▁gö	-105
ini	-106
üz	-107
▁-	-108
iniz	-109
▁ş	-110
eğ	-111
leri	-112
▁1	-113
bilir	-114
den	-115
▁E	-116
ük	-117
▁(	-118
ında	-119
ine	-120
ok	-121
af	-122
▁C	-123
üm	-124
▁2	-125
▁ar	-126
dir	-127
ab	-128
esi	-129
▁n	-130
ullan	-131
ec	-132
ro	-133
şt	-134
inde	-135
cı	-136
me	-137
▁İ	-138
ut	-139
sı	-140
iğ	-141
▁Y	-142
▁O	-143
▁kullan	-144
mek	-145
▁ile	-146
ip	-147
dı	-148
▁yap	-149
uz	-150
▁r	-151
▁al	-152
iler	-153
ic	-154
lama	-155
lik	-156
us	-157
ad	-158
eç	-159
du	-160
av	-161
▁bil	-162
ez	-163
▁bu	-164
om	-165
▁F	-166
tı	-167
▁R	-168
▁z	-169
ot	-170
ını	-171
▁et	-172
larak	-173
▁en	-174
yon	-175
▁ed	-176
▁kon	-177
ce	-178
▁iş	-179
len	-180
lık	-181
yor	-182
inin	-183
▁veya	-184
▁gör	-185
ti	-186
▁L	-187
ön	-188
▁olarak	-189
cak	-190
man	-191
ist	-192
unu	-193
eler	-194
▁ü	-195
uk	-196
▁ver	-197
lay	-198
tir	-199
di	-200
ından	-201
▁ay	-202
▁tar	-203
os	-204
oğ	-205
▁N	-206
▁an	-207
▁ön	-208
op	-209
▁uy	-210
▁in	-211
00	-212
▁ger	-213
▁kar	-214
aki	-215
ra	-216
▁W	-217
aha	-218
ca	-219
▁son	-220
tır	-221
eş	-222
▁baş	-223
ib	-224
▁V	-225
ası	-226
eni	-227
ına	-228
▁c	-229
▁bul	-230
▁gel	-231
iyor	-232
zel	-233
ğı	-234
ör	-235
""	-236
ınız	-237
▁de	-238
tr	-239
▁yer	-240
gi	-241
▁Bu	-242
▁da	-243
ark	-244
ede	-245
▁sağ	-246
▁değ	-247
ilm	-248
▁her	-249
▁ot	-250
te	-251
tadır	-252
▁sür	-253
alı	-254
ayı	-255
ret	-256
▁I	-257
▁aç	-258
est	-259
▁ek	-260
anı	-261
daki	-262
▁olan	-263
▁ür	-264
siniz	-265
▁3	-266
▁var	-267
duğ	-268
iya	-269
isi	-270
▁daha	-271
sa	-272
laş	-273
lü	-274
siz	-275
▁kur	-276
▁U	-277
lu	-278
ih	-279
▁"-	-280
▁özel	-281
gu	-282
ru	-283
uş	-284
met	-285
ter	-286
eb	-287
tan	-288
ran	-289
ıcı	-290
▁ist	-291
mış	-292
erk	-293
eki	-294
maktadır	-295
..	-296
▁bulun	-297
▁yar	-298
ibi	-299
lem	-300
ması	-301
yun	-302
▁gü	-303
gil	-304
bilirsiniz	-305
alış	-306
üş	-307
▁par	-308
▁20	-309
▁yıl	-310
üy	-311
ağı	-312
▁uz	-313
iye	-314
▁gün	-315
yi	-316
▁Ç	-317
▁kal	-318
cret	-319
eh	-320
aman	-321
▁""	-322
izmet	-323
inden	-324
id	-325
▁or	-326
ka	-327
iştir	-328
▁üz	-329
▁sa	-330
▁tek	-331
▁gerek	-332
re	-333
▁ko	-334
▁sah	-335
mas	-336
▁yeni	-337
▁çalış	-338
▁pro	-339
ecek	-340
▁yük	-341
▁gibi	-342
ac	-343
▁üzer	-344
eden	-345
ley	-346
ing	-347
san	-348
if	-349
ama	-350
liğ	-351
men	-352
imiz	-353
ven	-354
ika	-355
▁taraf	-356
▁kad	-357
lo	-358
▁alan	-359
ştir	-360
▁zaman	-361
asyon	-362
▁ad	-363
▁yön	-364
▁seç	-365
öl	-366
▁bel	-367
larını	-368
▁el	-369
ki	-370
▁geç	-371
▁sun	-372
▁on	-373
▁olduğ	-374
ster	-375
ının	-376
azı	-377
od	-378
yla	-379
imi	-380
▁çok	-381
▁bağ	-382
ind	-383
▁4	-384
ep	-385
▁Bir	-386
cretsiz	-387
▁hizmet	-388
eli	-389
▁hak	-390
esinde	-391
ül	-392
▁An	-393
▁kay	-394
art	-395
ilen	-396
▁Ü	-397
arı	-398
let	-399
▁uygu	-400
▁ola	-401
▁iyi	-402
▁5	-403
ers	-404
▁J	-405
azla	-406
▁ak	-407
erkez	-408
▁kiş	-409
öz	-410
▁doğ	-411
ize	-412
ça	-413
tü	-414
▁ma	-415
▁olu	-416
ren	-417
▁tarafından	-418
unda	-419
▁fazla	-420
ef	-421
▁sahip	-422
▁Ö	-423
han	-424
▁yak	-425
eleri	-426
cu	-427
lat	-428
▁ürün	-429
erv	-430
▁göster	-431
▁kap	-432
▁Ş	-433
leştir	-434
se	-435
▁tüm	-436
dım	-437
iv	-438
üşt	-439
▁düz	-440
ans	-441
rı	-442
eye	-443
▁mes	-444
iğer	-445
istem	-446
lara	-447
▁çık	-448
▁bilg	-449
▁şek	-450
▁oda	-451
asında	-452
edir	-453
ıla	-454
diğ	-455
iyet	-456
▁top	-457
ızı	-458
▁otel	-459
işim	-460
kin	-461
sel	-462
▁201	-463
▁sor	-464
▁güven	-465
▁böl	-466
ştur	-467
lerini	-468
arak	-469
▁mak	-470
iyat	-471
ow	-472
sek	-473
ıyor	-474
elik	-475
lerin	-476
▁kat	-477
çek	-478
oc	-479
▁den	-480
ileri	-481
gr	-482
uy	-483
leme	-484
▁hav	-485
ost	-486
▁dur	-487
larda	-488
▁belir	-489
▁sit	-490
▁l	-491
▁oyun	-492
▁aş	-493
dığ	-494
▁hakk	-495
▁büy	-496
▁sonra	-497
eya	-498
▁açık	-499
ket	-500
otel	-501
ebilir	-502
▁iz	-503
▁gen	-504
▁bo	-505
▁merkez	-506
ide	-507
der	-508
he	-509
lam	-510
▁görün	-511
lığı	-512
may	-513
▁Al	-514
asar	-515
ürk	-516
▁sat	-517
ılan	-518
▁ken	-519
▁şeh	-520
inizi	-521
öy	-522
▁kadar	-523
esini	-524
mekt	-525
▁ara	-526
▁şekil	-527
ken	-528
▁hem	-529
▁öğ	-530
mat	-531
Bu	-532
unuz	-533
ge	-534
eceğ	-535
▁sistem	-536
tar	-537
üt	-538
▁kab	-539
iyle	-540
aret	-541
leş	-542
▁kı	-543
▁kor	-544
▁diğer	-545
eyi	-546
▁dön	-547
▁mesaf	-548
▁yardım	-549
▁neden	-550
liği	-551
▁uzak	-552
▁karş	-553
▁Ar	-554
larına	-555
▁w	-556
for	-557
▁ücretsiz	-558
▁tes	-559
una	-560
nin	-561
ara	-562
▁dak	-563
iyon	-564
▁İn	-565
▁üret	-566
ci	-567
▁kullanıcı	-568
unun	-569
tel	-570
▁6	-571
maya	-572
▁uygulama	-573
▁Hotel	-574
ala	-575
▁/	-576
olo	-577
iç	-578
com	-579
ızlı	-580
asıl	-581
▁içer	-582
▁ilgil	-583
isel	-584
▁tem	-585
ilik	-586
alık	-587
üs	-588
▁biz	-589
ig	-590
cel	-591
▁km	-592
miş	-593
▁yaş	-594
▁şekilde	-595
larının	-596
▁gerçek	-597
▁say	-598
▁yol	-599
▁yüksek	-600
ch	-601
irket	-602
▁dev	-603
ort	-604
▁parça	-605
esine	-606
▁oy	-607
ana	-608
mektedir	-609
tern	-610
▁tel	-611
▁büyük	-612
▁ama	-613
▁oluştur	-614
▁tık	-615
raf	-616
mesi	-617
)"	-618
▁Türk	-619
▁har	-620
▁göre	-621
▁düş	-622
izi	-623
ımı	-624
▁tasar	-625
▁tak	-626
▁yür	-627
ub	-628
abilir	-629
hat	-630
▁e	-631
ici	-632
▁In	-633
▁gir	-634
▁ih	-635
▁10	-636
▁indir	-637
erek	-638
▁ort	-639
▁En	-640
lk	-641
▁yüz	-642
na	-643
gram	-644
▁ilgili	-645
▁sır	-646
▁vardır	-647
▁er	-648
ten	-649
hangi	-650
lamak	-651
▁7	-652
dece	-653
osya	-654
dur	-655
edi	-656
gun	-657
▁hal	-658
ındaki	-659
▁ya	-660
lere	-661
▁fark	-662
lım	-663
trol	-664
▁dest	-665
▁bak	-666
ladı	-667
nı	-668
▁met	-669
og	-670
▁durum	-671
▁tarih	-672
deki	-673
ion	-674
lantı	-675
▁alt	-676
▁yönet	-677
oloj	-678
▁ilet	-679
▁edil	-680
▁bilgi	-681
üc	-682
▁uzaklık	-683
larında	-684
▁Pro	-685
▁doğru	-686
▁eğ	-687
▁Ay	-688
yo	-689
▁önem	-690
▁Z	-691
res	-692
ili	-693
alan	-694
▁mod	-695
ekt	-696
nın	-697
▁özellik	-698
aya	-699
abilirsiniz	-700
siyon	-701
▁yardımcı	-702
▁yan	-703
▁yay	-704
▁müşt	-705
arit	-706
▁tekn	-707
rıca	-708
ite	-709
ünya	-710
ant	-711
▁su	-712
▁bas	-713
pa	-714
▁hakkında	-715
...	-716
dü	-717
▁işlem	-718
▁ilk	-719
▁mal	-720
tiğ	-721
uv	-722
▁duy	-723
▁herhangi	-724
imler	-725
ov	-726
lendir	-727
▁19	-728
bir	-729
▁nasıl	-730
▁yet	-731
▁az	-732
▁kolay	-733
▁düzen	-734
indeki	-735
▁ağ	-736
lemek	-737
▁değil	-738
ast	-739
oz	-740
ılmış	-741
anın	-742
layın	-743
ada	-744
▁Bil	-745
▁şirket	-746
▁tut	-747
▁dosya	-748
▁sadece	-749
ye	-750
▁önce	-751
▁ser	-752
ünü	-753
),	-754
▁çev	-755
▁8	-756
▁olmak	-757
▁aşağı	-758
▁sev	-759
sız	-760
ideo	-761
ipar	-762
las	-763
▁kontrol	-764
20	-765
ipariş	-766
dür	-767
▁Kon	-768
▁bölg	-769
eyahat	-770
▁mev	-771
▁bilgiler	-772
▁içinde	-773
ocuk	-774
▁karşı	-775
▁web	-776
▁arasında	-777
▁yazı	-778
ne	-779
▁ev	-780
▁uygun	-781
▁at	-782
arası	-783
sal	-784
of	-785
▁Av	-786
▁çek	-787
▁etk	-788
laya	-789
afir	-790
▁ne	-791
▁saat	-792
▁im	-793
▁dakika	-794
▁tür	-795
▁mil	-796
▁ter	-797
isafir	-798
ri	-799
ediğ	-800
▁ok	-801
▁seyahat	-802
▁iki	-803
▁ulaş	-804
usu	-805
manız	-806
▁yakın	-807
▁değer	-808
▁makin	-809
▁olma	-810
▁Her	-811
▁geliştir	-812
▁ede	-813
▁önemli	-814
▁öğren	-815
ob	-816
si	-817
▁destek	-818
öyle	-819
▁kayn	-820
çi	-821
enin	-822
sanız	-823
cut	-824
▁dış	-825
▁ban	-826
▁olduğunu	-827
▁yeniden	-828
eşit	-829
▁gön	-830
▁ben	-831
▁of	-832
▁200	-833
▁yaz	-834
▁farklı	-835
one	-836
eği	-837
▁öl	-838
ılır	-839
emek	-840
▁fiyat	-841
dam	-842
ulu	-843
▁bulunmaktadır	-844
izin	-845
▁göz	-846
ısı	-847
▁görüntü	-848
▁Baş	-849
▁eden	-850
ternet	-851
lanan	-852
lerinin	-853
▁Tr	-854
▁taş	-855
▁bulunan	-856
enek	-857
yı	-858
▁get	-859
istan	-860
lığ	-861
▁der	-862
uma	-863
▁sunu	-864
tur	-865
osta	-866
dığı	-867
efon	-868
likte	-869
eriler	-870
▁İs	-871
▁es	-872
▁ülk	-873
Harit	-874
▁kişisel	-875
eme	-876
▁–	-877
▁insan	-878
▁kö	-879
eg	-880
▁kaz	-881
lerine	-882
▁çöz	-883
per	-884
ows	-885
▁üzere	-886
▁yat	-887
▁dah	-888
▁aynı	-889
▁hes	-890
▁St	-891
ile	-892
ent	-893
▁çalışma	-894
▁Bo	-895
enk	-896
ER	-897
▁sı	-898
▁getir	-899
gı	-900
▁şehr	-901
lardan	-902
▁mevcut	-903
▁tan	-904
ihaz	-905
yal	-906
▁san	-907
maz	-908
▁ise	-909
US	-910
▁yapmak	-911
▁9	-912
▁iletişim	-913
lük	-914
matik	-915
ilir	-916
▁gönder	-917
abil	-918
indows	-919
▁üzerinde	-920
▁kr	-921
▁üst	-922
▁do	-923
ia	-924
lanmış	-925
eniz	-926
:"	-927
▁veriler	-928
▁Ek	-929
▁güç	-930
ünde	-931
mel	-932
▁ihti	-933
orm	-934
ıs	-935
▁"1	-936
eti	-937
ayan	-938
▁tab	-939
bo	-940
▁tama	-941
acak	-942
▁olduğu	-943
▁olacak	-944
uslar	-945
▁Ch	-946
▁em	-947
isay	-948
▁program	-949
▁birlikte	-950
diği	-951
▁size	-952
▁$	-953
▁res	-954
fa	-955
larla	-956
▁Türkiye	-957
▁kan	-958
gel	-959
▁|	-960
layan	-961
▁serv	-962
▁ortak	-963
▁konak	-964
Haritayı	-965
zer	-966
▁hat	-967
▁mesafede	-968
▁AB	-969
▁şey	-970
ver	-971
ilmiş	-972
▁bağlantı	-973
▁orta	-974
kan	-975
log	-976
mız	-977
ebilirsiniz	-978
larınızı	-979
azır	-980
▁oldu	-981
tem	-982
▁as	-983
eyen	-984
▁sayı	-985
▁bunu	-986
rn	-987
▁ihtiya	-988
oog	-989
▁Otel	-990
▁devam	-991
aç	-992
kı	-993
▁genel	-994
▁dahil	-995
malı	-996
ımız	-997
▁Ücretsiz	-998
▁X	-999
tal	-1000
▁Am	-1001
oogle	-1002
▁Kur	-1003
▁mo	-1004
▁değiş	-1005
▁bek	-1006
ros	-1007
yoruz	-1008
▁çocuk	-1009
van	-1010
▁Or	-1011
▁te	-1012
▁hava	-1013
uslararası	-1014
lerle	-1015
uh	-1016
▁video	-1017
ard	-1018
lerimiz	-1019
iyaret	-1020
▁kurul	-1021
masını	-1022
isayar	-1023
▁Windows	-1024
▁değiştir	-1025
▁İş	-1026
ve	-1027
ity	-1028
▁15	-1029
uç	-1030
▁etmek	-1031
▁kadın	-1032
▁kabul	-1033
▁söz	-1034
▁alın	-1035
▁iliş	-1036
▁veri	-1037
ag	-1038
▁telefon	-1039
ern	-1040
lif	-1041
çe	-1042
çok	-1043
ezerv	-1044
▁film	-1045
lerde	-1046
▁etkin	-1047
▁zor	-1048
mayı	-1049
ektör	-1050
mez	-1051
▁bağlı	-1052
ore	-1053
▁dünya	-1054
str	-1055
aj	-1056
▁yok	-1057
▁cihaz	-1058
pp	-1059
▁bazı	-1060
lak	-1061
orum	-1062
▁yanı	-1063
end	-1064
itesi	-1065
▁kes	-1066
▁yılında	-1067
esinin	-1068
▁ayar	-1069
ari	-1070
▁hızlı	-1071
▁sal	-1072
luk	-1073
▁çeşit	-1074
▁don	-1075
ate	-1076
▁iP	-1077
▁hazır	-1078
▁kend	-1079
▁kam	-1080
▁sağlar	-1081
sını	-1082
▁dok	-1083
▁öde	-1084
olit	-1085
ektr	-1086
▁pay	-1087
tif	-1088
▁önc	-1089
ivers	-1090
larından	-1091
▁uzun	-1092
▁belirt	-1093
meye	-1094
▁ziyaret	-1095
▁olur	-1096
▁deney	-1097
▁San	-1098
nun	-1099
▁art	-1100
▁milyon	-1101
AN	-1102
ğu	-1103
▁olabilir	-1104
▁is	-1105
▁aşağıdaki	-1106
ece	-1107
▁tam	-1108
larınız	-1109
ezervasyon	-1110
▁geri	-1111
to	-1112
▁tat	-1113
oğraf	-1114
▁man	-1115
duğu	-1116
ınızı	-1117
▁teknoloj	-1118
▁yazılım	-1119
laşık	-1120
üzel	-1121
▁yıld	-1122
▁Gen	-1123
ebil	-1124
▁Sipariş	-1125
▁başka	-1126
▁kazan	-1127
asa	-1128
▁oyn	-1129
tand	-1130
▁The	-1131
azar	-1132
▁güncel	-1133
eket	-1134
▁şehir	-1135
dık	-1136
▁tal	-1137
kanı	-1138
▁sp	-1139
itim	-1140
hone	-1141
▁biri	-1142
▁'	-1143
yan	-1144
▁nedenle	-1145
ation	-1146
▁konum	-1147
▁araç	-1148
▁yapılan	-1149
landır	-1150
▁Mar	-1151
ew	-1152
▁ul	-1153
▁Yön	-1154
meler	-1155
ij	-1156
ılabilir	-1157
▁Ex	-1158
▁kim	-1159
daş	-1160
▁çevr	-1161
likle	-1162
▁&	-1163
▁İst	-1164
▁yayın	-1165
▁ekran	-1166
▁plan	-1167
ou	-1168
sun	-1169
usunda	-1170
▁eş	-1171
ava	-1172
▁bilgil	-1173
üne	-1174
ilmesi	-1175
pan	-1176
şul	-1177
leyin	-1178
lim	-1179
lilik	-1180
▁Kr	-1181
▁kom	-1182
▁El	-1183
▁list	-1184
ck	-1185
▁erk	-1186
▁kut	-1187
lah	-1188
oft	-1189
rupa	-1190
atı	-1191
▁gid	-1192
ınır	-1193
▁ABD	-1194
▁bölüm	-1195
▁per	-1196
tik	-1197
AR	-1198
▁banyo	-1199
ift	-1200
▁Daha	-1201
▁gru	-1202
▁ancak	-1203
▁Kar	-1204
otoğraf	-1205
olu	-1206
ha	-1207
▁birçok	-1208
mi	-1209
▁Google	-1210
▁haf	-1211
▁prof	-1212
▁eriş	-1213
▁mut	-1214
fen	-1215
▁çıkar	-1216
line	-1217
ton	-1218
▁bizim	-1219
ucu	-1220
iği	-1221
▁tasarım	-1222
▁oto	-1223
▁uzaklıkta	-1224
ştır	-1225
▁kaps	-1226
up	-1227
▁misafir	-1228
▁bilgisayar	-1229
▁kullanım	-1230
▁edin	-1231
masına	-1232
aber	-1233
mu	-1234
▁Sev	-1235
▁Gün	-1236
gan	-1237
ışı	-1238
▁Kullan	-1239
▁boy	-1240
▁hiç	-1241
▁konaklama	-1242
▁ses	-1243
▁bar	-1244
erli	-1245
▁geniş	-1246
▁uç	-1247
▁Ul	-1248
▁kaynak	-1249
000	-1250
▁dik	-1251
▁mik	-1252
▁Tom	-1253
▁kalit	-1254
sin	-1255
▁Mic	-1256
tırma	-1257
sından	-1258
▁sorun	-1259
▁1.	-1260
▁12	-1261
▁rezervasyon	-1262
▁adam	-1263
izyon	-1264
ber	-1265
lenen	-1266
▁bin	-1267
▁kullanarak	-1268
▁dil	-1269
..."	-1270
▁On	-1271
▁kendi	-1272
asyonu	-1273
▁makinesi	-1274
▁ürünler	-1275
▁0	-1276
▁gerçekleştir	-1277
▁Er	-1278
▁proj	-1279
▁teklif	-1280
▁fır	-1281
▁renk	-1282
▁çözüm	-1283
▁blog	-1284
cağ	-1285
▁24	-1286
▁arab	-1287
▁Su	-1288
dav	-1289
edef	-1290
▁rah	-1291
kaç	-1292
ılması	-1293
▁gelen	-1294
▁Sh	-1295
▁üretim	-1296
▁istediğ	-1297
üler	-1298
▁mesafesinde	-1299
▁2.	-1300
▁nok	-1301
erj	-1302
▁tıklayın	-1303
▁yürüy	-1304
ang	-1305
▁Ak	-1306
▁bur	-1307
50	-1308
▁sıra	-1309
lerden	-1310
▁ediyor	-1311
avaş	-1312
inizin	-1313
▁çeşitli	-1314
po	-1315
uyor	-1316
larımız	-1317
▁sistemi	-1318
▁satış	-1319
▁geçir	-1320
▁has	-1321
▁sak	-1322
▁Son	-1323
▁mark	-1324
manın	-1325
▁yemek	-1326
▁çer	-1327
ırak	-1328
▁sahiptir	-1329
▁satın	-1330
▁paylaş	-1331
,"	-1332
▁olanak	-1333
oğu	-1334
nız	-1335
▁Eğ	-1336
▁İngil	-1337
▁para	-1338
üğ	-1339
▁And	-1340
▁Yönet	-1341
▁Ayrıca	-1342
▁oluş	-1343
▁malz	-1344
▁%	-1345
gin	-1346
ess	-1347
umlu	-1348
▁arka	-1349
pe	-1350
ola	-1351
▁kol	-1352
th	-1353
lerinde	-1354
▁öz	-1355
posta	-1356
oh	-1357
▁temiz	-1358
▁eder	-1359
▁İç	-1360
▁bildir	-1361
▁bun	-1362
gün	-1363
▁ik	-1364
▁yaptı	-1365
▁seçin	-1366
▁sizin	-1367
üny	-1368
bet	-1369
dından	-1370
isk	-1371
▁Oyun	-1372
▁Bel	-1373
▁ala	-1374
▁Pr	-1375
all	-1376
▁ün	-1377
▁tamam	-1378
▁zamanda	-1379
▁Avrupa	-1380
▁Fran	-1381
alnız	-1382
dığını	-1383
sınız	-1384
▁saç	-1385
ecektir	-1386
▁rek	-1387
▁konu	-1388
▁sık	-1389
▁otur	-1390
▁müşteri	-1391
▁Yeni	-1392
▁Özel	-1393
ınızda	-1394
▁tanı	-1395
▁sürüm	-1396
▁hizmeti	-1397
▁bırak	-1398
▁kişi	-1399
co	-1400
emmel	-1401
▁almak	-1402
▁amaç	-1403
anlı	-1404
▁Uy	-1405
ükemmel	-1406
nivers	-1407
min	-1408
los	-1409
ayıt	-1410
▁"2	-1411
10	-1412
▁örn	-1413
üştür	-1414
▁sayf	-1415
rar	-1416
▁sıcak	-1417
tür	-1418
▁sınır	-1419
▁kah	-1420
ehir	-1421
kiyat	-1422
dik	-1423
▁rahat	-1424
▁30	-1425
▁birkaç	-1426
▁iPhone	-1427
▁güzel	-1428
▁Res	-1429
ilerin	-1430
Bir	-1431
▁taşı	-1432
▁Tek	-1433
▁Web	-1434
▁elektr	-1435
▁yapabilirsiniz	-1436
▁kullanıcısından	-1437
▁blogladı	-1438
▁erkek	-1439
▁bilgileri	-1440
▁otomatik	-1441
▁sonr	-1442
ice	-1443
leşik	-1444
▁bah	-1445
▁Hizmet	-1446
rosoft	-1447
▁olması	-1448
▁istiyor	-1449
▁yıldızlı	-1450
▁uzaklıktadır	-1451
▁gerekir	-1452
mesini	-1453
▁merkezi	-1454
taj	-1455
mayan	-1456
▁Wi	-1457
▁stand	-1458
▁Ro	-1459
bu	-1460
qu	-1461
▁ücret	-1462
ıp	-1463
▁karar	-1464
uluk	-1465
elen	-1466
imleri	-1467
▁geliş	-1468
▁kaldır	-1469
go	-1470
fer	-1471
▁US	-1472
meyi	-1473
▁tatil	-1474
▁dair	-1475
are	-1476
▁tah	-1477
aliyet	-1478
▁işlet	-1479
ılı	-1480
▁tur	-1481
ord	-1482
▁hedef	-1483
AS	-1484
▁görev	-1485
▁un	-1486
▁Bak	-1487
▁dakik	-1488
▁gerekli	-1489
lüğ	-1490
▁bit	-1491
▁tesis	-1492
▁mü	-1493
▁Merkez	-1494
dak	-1495
▁kapsam	-1496
üme	-1497
▁yas	-1498
forman	-1499
▁Kiş	-1500
lek	-1501
▁alanı	-1502
▁•	-1503
▁hay	-1504
estor	-1505
▁izin	-1506
▁haya	-1507
ade	-1508
▁fotoğraf	-1509
▁Sp	-1510
latfor	-1511
▁hesab	-1512
▁müz	-1513
▁num	-1514
▁müşteriler	-1515
▁(1	-1516
Fi	-1517
▁Co	-1518
vet	-1519
▁mevcuttur	-1520
▁duyar	-1521
int	-1522
▁üç	-1523
▁Dev	-1524
▁yen	-1525
▁sağlamak	-1526
▁kısa	-1527
oru	-1528
▁Yük	-1529
ırım	-1530
onom	-1531
▁sunar	-1532
▁Min	-1533
▁Par	-1534
larca	-1535
▁Oda	-1536
▁dakikalık	-1537
▁mi	-1538
▁Sevkiyat	-1539
▁kil	-1540
▁model	-1541
▁başarı	-1542
osyal	-1543
▁giy	-1544
▁Gü	-1545
▁As	-1546
alnızca	-1547
▁tic	-1548
▁güvenlik	-1549
alt	-1550
▁"""	-1551
▁aracı	-1552
ital	-1553
▁ayrıca	-1554
▁la	-1555
▁seçenek	-1556
▁fa	-1557
undan	-1558
umu	-1559
▁internet	-1560
▁adr	-1561
tib	-1562
imli	-1563
lerinden	-1564
▁boyun	-1565
kü	-1566
▁sunmaktadır	-1567
▁pazar	-1568
▁yağ	-1569
ime	-1570
ütün	-1571
det	-1572
tre	-1573
▁eğitim	-1574
▁koşul	-1575
▁test	-1576
▁din	-1577
▁temel	-1578
▁üy	-1579
ork	-1580
▁hareket	-1581
ildi	-1582
latın	-1583
bul	-1584
▁ölç	-1585
▁yarat	-1586
.0	-1587
ale	-1588
▁edilen	-1589
▁ayr	-1590
lüt	-1591
▁11	-1592
cek	-1593
▁Trip	-1594
▁Gör	-1595
▁onay	-1596
alim	-1597
evizyon	-1598
roid	-1599
▁ardından	-1600
▁18	-1601
lin	-1602
ıntı	-1603
laj	-1604
▁kır	-1605
▁ki	-1606
tor	-1607
▁Amer	-1608
▁kit	-1609
▁sonuç	-1610
inize	-1611
pt	-1612
▁iy	-1613
▁Rus	-1614
▁14	-1615
ack	-1616
▁Ad	-1617
▁mükemmel	-1618
!"	-1619
eğin	-1620
ong	-1621
asına	-1622
▁yöntem	-1623
▁Book	-1624
iyatı	-1625
kün	-1626
▁Ko	-1627
-1	-1628
isini	-1629
esyon	-1630
▁Kal	-1631
ıldı	-1632
▁metre	-1633
▁uzman	-1634
isinde	-1635
▁Tüm	-1636
▁lüt	-1637
▁Sa	-1638
emiz	-1639
ni	-1640
▁Br	-1641
▁ihtiyaç	-1642
▁kıs	-1643
aştırma	-1644
vur	-1645
esyonel	-1646
Ad	-1647
▁engel	-1648
elerin	-1649
▁App	-1650
▁üzerine	-1651
lanır	-1652
ünün	-1653
▁Q	-1654
▁yolu	-1655
uvar	-1656
▁altında	-1657
bol	-1658
ise	-1659
anbul	-1660
▁for	-1661
▁performan	-1662
▁Microsoft	-1663
suz	-1664
era	-1665
rak	-1666
ina	-1667
ga	-1668
mesine	-1669
▁ısı	-1670
▁lütfen	-1671
▁Mac	-1672
▁istediğiniz	-1673
inc	-1674
▁giriş	-1675
▁st	-1676
▁şu	-1677
▁dikk	-1678
▁düğ	-1679
▁elde	-1680
▁konusunda	-1681
şa	-1682
hur	-1683
▁tedav	-1684
▁boyut	-1685
emi	-1686
.1	-1687
▁havuz	-1688
▁mad	-1689
▁konuş	-1690
▁j	-1691
▁kir	-1692
▁yaklaşık	-1693
▁tip	-1694
▁sunul	-1695
val	-1696
▁Ünivers	-1697
üst	-1698
ere	-1699
estoran	-1700
▁değişik	-1701
çı	-1702
▁Alman	-1703
meniz	-1704
▁ettiğ	-1705
▁ele	-1706
▁sen	-1707
isyon	-1708
▁Booking	-1709
▁adım	-1710
▁kız	-1711
▁Böl	-1712
▁giz	-1713
▁gur	-1714
▁dönüştür	-1715
alet	-1716
ff	-1717
▁kayıt	-1718
▁hesap	-1719
▁Mo	-1720
▁donat	-1721
▁çalışan	-1722
cih	-1723
▁mek	-1724
▁dayan	-1725
angi	-1726
▁pak	-1727
▁yarar	-1728
eyaz	-1729
▁ana	-1730
lev	-1731
▁yalnızca	-1732
IN	-1733
▁televizyon	-1734
▁mot	-1735
▁Serv	-1736
AB	-1737
▁Ban	-1738
▁13	-1739
▁ekip	-1740
▁sektör	-1741
ud	-1742
▁bize	-1743
▁TV	-1744
ht	-1745
▁tav	-1746
▁gez	-1747
ON	-1748
▁talep	-1749
lanabilir	-1750
ört	-1751
▁manz	-1752
üp	-1753
▁adres	-1754
▁100	-1755
▁kaç	-1756
mızı	-1757
iyeti	-1758
▁gec	-1759
▁hiçbir	-1760
iss	-1761
bileceğ	-1762
▁men	-1763
▁hız	-1764
▁oyunu	-1765
▁Tar	-1766
▁dav	-1767
▁yerine	-1768
▁amacı	-1769
▁sağlık	-1770
▁Park	-1771
▁spor	-1772
▁boyunca	-1773
layıcı	-1774
ond	-1775
▁gurur	-1776
use	-1777
▁söy	-1778
olitik	-1779
langı	-1780
▁standart	-1781
lanmıştır	-1782
▁düşük	-1783
ciler	-1784
ry	-1785
▁muh	-1786
▁platfor	-1787
▁faaliyet	-1788
gın	-1789
ümkün	-1790
▁değerlendir	-1791
üyor	-1792
▁seviy	-1793
rans	-1794
▁almaktadır	-1795
▁hük	-1796
asını	-1797
laştır	-1798
▁uluslararası	-1799
▁vb	-1800
▁Be	-1801
esel	-1802
▁Ben	-1803
▁Exp	-1804
vis	-1805
ba	-1806
▁Bar	-1807
lanması	-1808
▁dö	-1809
▁erişim	-1810
imiçi	-1811
▁Top	-1812
onya	-1813
madan	-1814
▁üzerinden	-1815
▁adı	-1816
▁Yap	-1817
onu	-1818
▁oku	-1819
iyi	-1820
▁milyonlarca	-1821
▁indirimler	-1822
▁Mak	-1823
▁4.	-1824
▁ip	-1825
▁donatılmış	-1826
▁mobil	-1827
▁tanım	-1828
▁git	-1829
miştir	-1830
▁sil	-1831
▁Ho	-1832
▁gelir	-1833
▁"3	-1834
▁Birleşik	-1835
mıştır	-1836
▁İngiliz	-1837
urt	-1838
99	-1839
RE	-1840
caktır	-1841
liyor	-1842
▁tıklatın	-1843
▁servisi	-1844
▁grup	-1845
panya	-1846
▁sipariş	-1847
▁malzem	-1848
▁pop	-1849
▁sırasında	-1850
▁olduk	-1851
umhur	-1852
▁ilişk	-1853
umuz	-1854
▁yürüyüş	-1855
▁soru	-1856
asındaki	-1857
▁ila	-1858
▁artır	-1859
▁16	-1860
▁açıklama	-1861
▁Android	-1862
akk	-1863
▁Sistem	-1864
▁zar	-1865
▁li	-1866
▁mümkün	-1867
inal	-1868
▁güvenle	-1869
amp	-1870
langıç	-1871
▁3.	-1872
OS	-1873
▁mas	-1874
▁am	-1875
▁25	-1876
isinin	-1877
▁Çin	-1878
▁edilm	-1879
▁202	-1880
▁fay	-1881
▁Yar	-1882
onik	-1883
ram	-1884
uklar	-1885
liğini	-1886
▁takip	-1887
▁anlam	-1888
▁sek	-1889
▁diz	-1890
visor	-1891
usal	-1892
▁fiyatı	-1893
▁Ed	-1894
sik	-1895
ekli	-1896
muş	-1897
ınıza	-1898
▁the	-1899
AL	-1900
▁sunan	-1901
▁gereken	-1902
yum	-1903
▁enerj	-1904
▁ödeme	-1905
ilebilir	-1906
enc	-1907
▁koru	-1908
malıdır	-1909
▁Kişisel	-1910
örü	-1911
ure	-1912
▁anal	-1913
bi	-1914
land	-1915
▁çiz	-1916
Otel	-1917
▁ortaklığı	-1918
talya	-1919
tık	-1920
▁Genel	-1921
▁kez	-1922
▁oluyoruz	-1923
▁ürünleri	-1924
sil	-1925
inizde	-1926
veriş	-1927
cil	-1928
son	-1929
▁varsa	-1930
▁sab	-1931
▁çift	-1932
▁yapmaktan	-1933
▁depo	-1934
▁başvur	-1935
imdi	-1936
ıllı	-1937
esinden	-1938
ınıf	-1939
▁kullanılan	-1940
▁profesyonel	-1941
nde	-1942
▁seçen	-1943
▁karşıla	-1944
ly	-1945
▁fir	-1946
▁düşün	-1947
rika	-1948
tım	-1949
ışık	-1950
▁böyle	-1951
▁olmayan	-1952
eyin	-1953
▁tarihi	-1954
▁kalite	-1955
Advisor	-1956
AP	-1957
ünyanın	-1958
utma	-1959
abı	-1960
xy	-1961
▁Dünya	-1962
sında	-1963
▁teknik	-1964
lıyor	-1965
ayla	-1966
▁yönelik	-1967
bon	-1968
▁day	-1969
▁bilin	-1970
▁Biz	-1971
aran	-1972
▁Ma	-1973
▁basın	-1974
alanı	-1975
▁Tes	-1976
▁tercih	-1977
larıyla	-1978
▁edene	-1979
▁kaliteli	-1980
alk	-1981
▁etkil	-1982
eriğ	-1983
).	-1984
▁ortaya	-1985
▁kü	-1986
▁servis	-1987
▁seyahatleri	-1988
▁yaşam	-1989
▁ro	-1990
▁doğrudan	-1991
acağ	-1992
uc	-1993
▁Gel	-1994
▁arkadaş	-1995
▁Ön	-1996
▁mı	-1997
ünkü	-1998
aba	-1999
▁güçlü	-2000
etay	-2001
▁Con	-2002
▁merkezine	-2003
▁benzer	-2004
▁teş	-2005
▁kart	-2006
▁tekliflerle	-2007
▁haber	-2008
▁kurum	-2009
üsü	-2010
luluk	-2011
▁Merkezi	-2012
landı	-2013
stik	-2014
▁marka	-2015
▁yorum	-2016
isans	-2017
iyel	-2018
▁olup	-2019
▁hizmetleri	-2020
▁hast	-2021
▁Tem	-2022
ino	-2023
▁and	-2024
day	-2025
own	-2026
AT	-2027
ype	-2028
ebek	-2029
aban	-2030
▁belirli	-2031
ach	-2032
▁ortam	-2033
▁pan	-2034
üle	-2035
▁form	-2036
ijital	-2037
ıştır	-2038
▁sayesinde	-2039
eksiyon	-2040
▁değildir	-2041
mem	-2042
▁olun	-2043
ümüz	-2044
▁arama	-2045
and	-2046
ayın	-2047
▁hayat	-2048
▁dir	-2049
urg	-2050
▁dikkat	-2051
▁restoran	-2052
▁id	-2053
▁emin	-2054
▁kullanıl	-2055
▁Müz	-2056
▁İstanbul	-2057
▁belg	-2058
apor	-2059
anış	-2060
▁biç	-2061
▁bütün	-2062
etr	-2063
▁özellikleri	-2064
likleri	-2065
▁güvenli	-2066
oğun	-2067
▁mutf	-2068
tığ	-2069
▁Üniversitesi	-2070
▁seb	-2071
?"	-2072
ültür	-2073
▁[	-2074
ali	-2075
▁Uluslararası	-2076
elidir	-2077
▁oyuncu	-2078
▁görüş	-2079
▁Tel	-2080
üyük	-2081
▁kuruluş	-2082
lil	-2083
▁Diğer	-2084
▁Har	-2085
▁kablos	-2086
▁TripAdvisor	-2087
isine	-2088
▁süre	-2089
za	-2090
ET	-2091
▁Cen	-2092
▁Cumhur	-2093
▁çerez	-2094
▁Güven	-2095
meleri	-2096
▁dol	-2097
bı	-2098
▁yürüme	-2099
gulama	-2100
▁diş	-2101
▁eski	-2102
▁siya	-2103
▁katı	-2104
üket	-2105
▁içeren	-2106
AM	-2107
▁piya	-2108
▁incel	-2109
▁popüler	-2110
▁örnek	-2111
▁ağır	-2112
yu	-2113
30	-2114
▁reklam	-2115
▁kas	-2116
leyen	-2117
▁Ara	-2118
An	-2119
▁ilişkin	-2120
▁aktar	-2121
▁yatırım	-2122
▁tarihinde	-2123
atif	-2124
çık	-2125
elerini	-2126
▁Ür	-2127
▁mekan	-2128
pr	-2129
edia	-2130
▁Ev	-2131
likler	-2132
tion	-2133
uar	-2134
▁alış	-2135
▁Kom	-2136
▁Kral	-2137
▁At	-2138
sunuz	-2139
▁alma	-2140
▁sosyal	-2141
▁dayalı	-2142
▁söyle	-2143
ust	-2144
▁modern	-2145
meden	-2146
▁Ne	-2147
EL	-2148
▁Sam	-2149
▁Gala	-2150
▁Yüksek	-2151
▁adet	-2152
▁siz	-2153
▁sizi	-2154
ment	-2155
▁bula	-2156
▁tarayı	-2157
▁Hava	-2158
▁nokta	-2159
▁Devlet	-2160
EN	-2161
▁edilir	-2162
düğ	-2163
edar	-2164
osu	-2165
▁tamamen	-2166
▁geçerli	-2167
▁kullanımı	-2168
İN	-2169
dül	-2170
▁kullanmak	-2171
▁itib	-2172
▁ait	-2173
ive	-2174
▁hangi	-2175
▁nak	-2176
▁Bur	-2177
▁New	-2178
▁etti	-2179
dığınız	-2180
201	-2181
elere	-2182
ai	-2183
▁araştırma	-2184
meyen	-2185
▁anlaş	-2186
ikay	-2187
▁Th	-2188
▁hafta	-2189
orn	-2190
▁50	-2191
liye	-2192
▁sağlaya	-2193
▁sem	-2194
erede	-2195
edya	-2196
menin	-2197
▁alır	-2198
▁İnternet	-2199
Baş	-2200
▁paket	-2201
▁dağı	-2202
▁çevrimiçi	-2203
▁Ancak	-2204
ED	-2205
▁içerik	-2206
60	-2207
▁mesaj	-2208
ps	-2209
▁savaş	-2210
▁Man	-2211
▁sağlayan	-2212
▁Apple	-2213
▁yüksel	-2214
uzey	-2215
lardır	-2216
ron	-2217
be	-2218
▁işlen	-2219
▁dönem	-2220
▁Le	-2221
▁2015	-2222
▁Sun	-2223
ress	-2224
▁str	-2225
tu	-2226
▁Uz	-2227
istik	-2228
▁yatak	-2229
ümü	-2230
▁Nasıl	-2231
▁eklen	-2232
▁yönetim	-2233
▁sürec	-2234
▁anda	-2235
elt	-2236
▁günü	-2237
▁duş	-2238
▁denet	-2239
akt	-2240
▁gaz	-2241
▁De	-2242
▁tekrar	-2243
▁elektrik	-2244
imize	-2245
ıda	-2246
▁Hotels	-2247
landa	-2248
bilecek	-2249
▁Kan	-2250
▁+	-2251
▁kanal	-2252
▁kuru	-2253
leyici	-2254
▁öner	-2255
▁Eğer	-2256
ww	-2257
üstü	-2258
▁Hav	-2259
▁Şehir	-2260
▁kullanı	-2261
▁bile	-2262
▁kullanılabilir	-2263
etik	-2264
▁sınıf	-2265
dirim	-2266
▁organ	-2267
▁masa	-2268
▁düzey	-2269
ahtar	-2270
düstr	-2271
▁kolayca	-2272
▁yetk	-2273
oş	-2274
rafik	-2275
▁hüküm	-2276
kinci	-2277
maları	-2278
▁yem	-2279
unuyor	-2280
sına	-2281
▁Es	-2282
▁sağla	-2283
▁parç	-2284
ire	-2285
ES	-2286
▁olacaktır	-2287
▁Kat	-2288
edarik	-2289
▁nedeniyle	-2290
▁odalar	-2291
▁Ser	-2292
ücü	-2293
▁platform	-2294
▁fayda	-2295
layarak	-2296
ill	-2297
▁koruma	-2298
▁bölgesinde	-2299
▁günlük	-2300
▁bulunur	-2301
sat	-2302
mayın	-2303
▁hale	-2304
▁17	-2305
▁Kay	-2306
▁genellikle	-2307
▁aracılığı	-2308
icisi	-2309
▁Galaxy	-2310
▁işaret	-2311
ukuk	-2312
▁fon	-2313
aşı	-2314
ded	-2315
▁inşa	-2316
illa	-2317
▁içeriğ	-2318
ünüz	-2319
▁Sür	-2320
ukarı	-2321
rat	-2322
ger	-2323
iklet	-2324
▁onun	-2325
lerinizi	-2326
▁mey	-2327
▁arasındaki	-2328
▁Kap	-2329
▁oran	-2330
▁sayfa	-2331
▁klas	-2332
▁Sağ	-2333
▁ekonom	-2334
gü	-2335
▁verileri	-2336
▁işlev	-2337
▁(2	-2338
▁keş	-2339
▁Doğ	-2340
▁sitesi	-2341
▁sanat	-2342
tıcı	-2343
▁içerir	-2344
her	-2345
▁ekipman	-2346
▁MP	-2347
imum	-2348
dığında	-2349
opark	-2350
erson	-2351
▁Met	-2352
4.	-2353
▁yapıl	-2354
lus	-2355
▁Aş	-2356
▁ey	-2357
▁bakım	-2358
▁Em	-2359
▁Amerika	-2360
▁dem	-2361
▁uyar	-2362
▁sözleş	-2363
udi	-2364
▁çağ	-2365
▁saldır	-2366
▁mu	-2367
▁verir	-2368
▁Büyük	-2369
▁fil	-2370
▁Hol	-2371
tiv	-2372
ınızın	-2373
▁tüket	-2374
▁Re	-2375
lor	-2376
ars	-2377
▁deneyim	-2378
▁odası	-2379
SO	-2380
▁onu	-2381
▁mem	-2382
muştur	-2383
ırı	-2384
▁kasa	-2385
alar	-2386
▁Geri	-2387
▁Mon	-2388
▁oyunları	-2389
▁özellikle	-2390
uan	-2391
ame	-2392
-2	-2393
▁Ey	-2394
▁doğal	-2395
▁La	-2396
▁Tur	-2397
▁Port	-2398
▁amacıyla	-2399
▁yakınında	-2400
▁merkezinden	-2401
▁Mal	-2402
▁yapı	-2403
diğini	-2404
▁kablosuz	-2405
▁Inn	-2406
diğiniz	-2407
çev	-2408
laması	-2409
ash	-2410
▁Fa	-2411
5.	-2412
valtı	-2413
▁*	-2414
iyoruz	-2415
▁Sit	-2416
▁kurun	-2417
▁etkinleştir	-2418
▁İyi	-2419
edik	-2420
▁Sat	-2421
▁mer	-2422
▁PC	-2423
▁istem	-2424
▁mim	-2425
seniz	-2426
▁trans	-2427
▁Bilg	-2428
▁Çev	-2429
▁harika	-2430
▁Et	-2431
▁şart	-2432
▁artık	-2433
▁Ver	-2434
ses	-2435
▁Bul	-2436
ick	-2437
lenme	-2438
▁performans	-2439
▁resmi	-2440
▁Kad	-2441
▁Başkanı	-2442
▁şehrinde	-2443
▁İz	-2444
▁aracılığıyla	-2445
80	-2446
▁Rusya	-2447
olitika	-2448
▁ihtiyac	-2449
ell	-2450
▁yum	-2451
▁Kas	-2452
eceği	-2453
▁beyaz	-2454
▁Kor	-2455
atej	-2456
dıktan	-2457
▁unut	-2458
▁dünyanın	-2459
EM	-2460
▁Tan	-2461
book	-2462
▁rapor	-2463
lanma	-2464
▁sim	-2465
▁Ürün	-2466
▁isten	-2467
▁dört	-2468
▁>	-2469
▁Mod	-2470
▁Allah	-2471
▁Giz	-2472
▁baskı	-2473
esindeki	-2474
▁Type	-2475
sas	-2476
▁risk	-2477
iciler	-2478
▁basit	-2479
▁İngilizce	-2480
▁Ve	-2481
rip	-2482
mer	-2483
can	-2484
▁deniz	-2485
▁şif	-2486
▁kalı	-2487
üb	-2488
▁Misafir	-2489
İn	-2490
rim	-2491
ıyoruz	-2492
▁yerel	-2493
ner	-2494
▁online	-2495
edek	-2496
part	-2497
▁Program	-2498
▁havalim	-2499
▁le	-2500
▁oluşturmak	-2501
▁yık	-2502
▁2014	-2503
▁arabayla	-2504
teki	-2505
▁Video	-2506
manıza	-2507
▁Yak	-2508
taki	-2509
▁enerji	-2510
▁oper	-2511
▁odak	-2512
▁verilen	-2513
burg	-2514
oloji	-2515
▁dönüş	-2516
▁Almanya	-2517
lastik	-2518
tma	-2519
▁Bas	-2520
▁Ph	-2521
▁sürdür	-2522
üks	-2523
ormal	-2524
▁ayrı	-2525
ray	-2526
▁yasal	-2527
opya	-2528
hend	-2529
▁genç	-2530
▁müzik	-2531
▁tren	-2532
▁Ter	-2533
ova	-2534
esin	-2535
▁maliyet	-2536
dırma	-2537
▁dek	-2538
▁sig	-2539
▁kısm	-2540
▁dışında	-2541
▁moda	-2542
br	-2543
▁Az	-2544
lum	-2545
elim	-2546
▁çap	-2547
▁şar	-2548
▁kullanın	-2549
."""	-2550
▁miktar	-2551
▁Ok	-2552
ult	-2553
▁Tekn	-2554
edeki	-2555
lış	-2556
▁konusu	-2557
▁sahibi	-2558
▁güneş	-2559
▁Den	-2560
▁veren	-2561
dal	-2562
▁akıllı	-2563
nda	-2564
▁fik	-2565
elerinin	-2566
2.	-2567
▁Uygulama	-2568
▁Af	-2569
eşil	-2570
lenir	-2571
▁gecelik	-2572
▁Car	-2573
leriyle	-2574
oy	-2575
▁Çalış	-2576
▁keşf	-2577
Ay	-2578
▁takım	-2579
▁Gö	-2580
muz	-2581
▁oldukça	-2582
▁kod	-2583
▁izle	-2584
▁dijital	-2585
▁öğret	-2586
▁düzelt	-2587
▁sürekli	-2588
▁adresi	-2589
rag	-2590
▁Görün	-2591
▁eğlen	-2592
▁eleştir	-2593
anta	-2594
▁ticaret	-2595
şte	-2596
gen	-2597
unuzu	-2598
▁tavs	-2599
▁cev	-2600
▁Değ	-2601
sung	-2602
elerde	-2603
▁kullanır	-2604
▁No	-2605
▁kav	-2606
▁durumda	-2607
▁Dr	-2608
▁HD	-2609
▁pat	-2610
▁mon	-2611
inans	-2612
▁Se	-2613
ıb	-2614
▁tedarik	-2615
▁toplam	-2616
ink	-2617
▁park	-2618
▁Mü	-2619
ılacak	-2620
gar	-2621
▁Mart	-2622
▁konuk	-2623
sh	-2624
;"	-2625
lasyon	-2626
ıklı	-2627
io	-2628
▁temsil	-2629
unan	-2630
yn	-2631
▁Play	-2632
▁Air	-2633
▁gelecek	-2634
▁Not	-2635
▁Bunun	-2636
▁alışveriş	-2637
▁Mil	-2638
ele	-2639
▁ce	-2640
dın	-2641
rac	-2642
▁tarz	-2643
▁Te	-2644
gre	-2645
▁piyasa	-2646
▁mağ	-2647
tin	-2648
▁hemen	-2649
obüs	-2650
▁buz	-2651
▁Sur	-2652
▁etik	-2653
TM	-2654
▁süreç	-2655
▁imkan	-2656
▁Yer	-2657
▁madd	-2658
oli	-2659
▁Kullanıcı	-2660
▁benim	-2661
▁burada	-2662
▁rol	-2663
▁fab	-2664
sör	-2665
egor	-2666
▁zarar	-2667
▁nes	-2668
dem	-2669
ileştir	-2670
▁etme	-2671
▁Yıl	-2672
ışma	-2673
abet	-2674
▁yanıt	-2675
▁İtalya	-2676
tarı	-2677
▁dedi	-2678
▁köp	-2679
▁sonraki	-2680
▁Bit	-2681
ie	-2682
▁soğ	-2683
▁av	-2684
▁kurutma	-2685
▁iletişime	-2686
avel	-2687
hendis	-2688
▁teslim	-2689
tası	-2690
our	-2691
.,	-2692
aranti	-2693
isan	-2694
▁ayrıntı	-2695
▁Öğ	-2696
su	-2697
▁süresi	-2698
bala	-2699
▁key	-2700
▁Harit	-2701
▁çelik	-2702
▁hiss	-2703
▁motor	-2704
amaş	-2705
▁kesin	-2706
amak	-2707
▁otopark	-2708
ight	-2709
alama	-2710
▁toplantı	-2711
▁yapan	-2712
▁mutfak	-2713
▁Film	-2714
çiler	-2715
ham	-2716
ksiyon	-2717
Al	-2718
sının	-2719
gesi	-2720
tere	-2721
▁güvenilir	-2722
eceğiniz	-2723
rand	-2724
▁manzar	-2725
▁alanında	-2726
ube	-2727
▁gerektir	-2728
▁böylece	-2729
==	-2730
▁kullanılır	-2731
▁kültür	-2732
▁lisans	-2733
out	-2734
▁bileş	-2735
▁boş	-2736
▁kötü	-2737
▁dışı	-2738
ata	-2739
▁Mas	-2740
▁uçuş	-2741
40	-2742
▁elb	-2743
▁konfor	-2744
▁İl	-2745
anım	-2746
▁ör	-2747
cebook	-2748
lima	-2749
▁edecek	-2750
imizi	-2751
▁istiyorsanız	-2752
AK	-2753
leyebilirsiniz	-2754
▁türlü	-2755
▁biçim	-2756
▁Şirket	-2757
▁Cas	-2758
▁Bun	-2759
▁seçim	-2760
▁şirketle	-2761
▁Kim	-2762
▁detay	-2763
▁kapat	-2764
▁içerisinde	-2765
▁halinde	-2766
▁çünkü	-2767
we	-2768
ünden	-2769
Kon	-2770
▁sin	-2771
▁Com	-2772
▁medya	-2773
▁hüc	-2774
▁21	-2775
ld	-2776
▁Stre	-2777
inci	-2778
İL	-2779
▁Söz	-2780
▁İsv	-2781
▁ku	-2782
elerine	-2783
▁City	-2784
▁çerçev	-2785
▁mah	-2786
▁1,	-2787
masının	-2788
manızı	-2789
arken	-2790
laşım	-2791
lendi	-2792
alya	-2793
lulu	-2794
▁teh	-2795
▁ünlü	-2796
leştirme	-2797
▁uc	-2798
▁dolay	-2799
▁çalıştır	-2800
▁verilerin	-2801
▁şehrinin	-2802
endir	-2803
tt	-2804
▁kons	-2805
ona	-2806
iyorum	-2807
▁Mad	-2808
▁tarayıcı	-2809
vi	-2810
▁söyledi	-2811
▁duyur	-2812
balaj	-2813
▁199	-2814
atör	-2815
▁bebek	-2816
▁doğr	-2817
luğu	-2818
▁katılım	-2819
nek	-2820
cılık	-2821
▁ders	-2822
▁endüstr	-2823
▁kahvaltı	-2824
nak	-2825
▁güc	-2826
bit	-2827
▁gerektiğ	-2828
▁anahtar	-2829
▁olmadan	-2830
rik	-2831
En	-2832
iber	-2833
▁itibar	-2834
▁durumunda	-2835
▁tutar	-2836
▁analiz	-2837
asının	-2838
eder	-2839
▁makal	-2840
▁azalt	-2841
▁gece	-2842
deal	-2843
▁görül	-2844
imizin	-2845
lüğü	-2846
/5	-2847
ational	-2848
▁penc	-2849
▁zorunda	-2850
▁Alan	-2851
▁IP	-2852
▁2017	-2853
▁İki	-2854
▁yerde	-2855
▁Expedia	-2856
▁ödül	-2857
▁başla	-2858
▁ticari	-2859
▁Do	-2860
▁kapas	-2861
isiklet	-2862
▁canlı	-2863
▁nit	-2864
▁sunuyor	-2865
itam	-2866
▁yaptığı	-2867
cağını	-2868
▁yanında	-2869
icileri	-2870
iksel	-2871
▁Bildirim	-2872
eceğini	-2873
▁vermek	-2874
manı	-2875
efer	-2876
iran	-2877
atan	-2878
▁x	-2879
▁aldı	-2880
bar	-2881
AC	-2882
lığını	-2883
▁ikinci	-2884
▁danış	-2885
//	-2886
▁kopya	-2887
amik	-2888
sen	-2889
▁İnsan	-2890
şam	-2891
ilmiştir	-2892
box	-2893
dola	-2894
▁sorum	-2895
üresel	-2896
cının	-2897
▁bağım	-2898
▁başlat	-2899
lül	-2900
▁ifa	-2901
▁ışık	-2902
▁koy	-2903
▁herk	-2904
▁seçeneğ	-2905
▁pas	-2906
▁yapma	-2907
▁vur	-2908
▁kişiler	-2909
▁kaynağı	-2910
abancı	-2911
ekk	-2912
vantaj	-2913
▁plaj	-2914
▁yaygın	-2915
ştı	-2916
PN	-2917
▁Bakan	-2918
6.	-2919
3,	-2920
▁işleme	-2921
üf	-2922
▁Un	-2923
veya	-2924
://	-2925
▁sunucu	-2926
▁etm	-2927
▁araya	-2928
ian	-2929
bilirler	-2930
▁$1	-2931
ilt	-2932
▁alıyor	-2933
▁erişimi	-2934
ue	-2935
▁Tic	-2936
▁inan	-2937
▁Per	-2938
amaşır	-2939
▁mikro	-2940
▁gereksin	-2941
▁Çocuk	-2942
▁Prof	-2943
ood	-2944
▁40	-2945
▁Bağ	-2946
▁hoş	-2947
etleri	-2948
cağı	-2949
▁müc	-2950
ID	-2951
▁iyileştir	-2952
ect	-2953
▁avantaj	-2954
▁Veri	-2955
OR	-2956
eline	-2957
▁Street	-2958
▁beklen	-2959
▁işbir	-2960
▁şun	-2961
▁oluşan	-2962
▁stratej	-2963
▁katıl	-2964
▁ente	-2965
ilah	-2966
▁Açık	-2967
kâ	-2968
lamaya	-2969
▁Da	-2970
ZER	-2971
▁mini	-2972
▁teknoloji	-2973
▁nedir	-2974
akat	-2975
▁Haz	-2976
▁olsun	-2977
kın	-2978
▁Beach	-2979
IM	-2980
▁sunulmaktadır	-2981
▁boz	-2982
▁kapsamında	-2983
pit	-2984
▁sayıda	-2985
anıt	-2986
ux	-2987
engin	-2988
▁Mark	-2989
▁nerede	-2990
td	-2991
▁yoğun	-2992
▁merkezinde	-2993
▁Krallık	-2994
▁etkili	-2995
▁Ac	-2996
iri	-2997
▁parçası	-2998
3.	-2999
ilerini	-3000
lon	-3001
▁Ven	-3002
ics	-3003
▁başına	-3004
▁İlk	-3005
▁Güney	-3006
▁katkı	-3007
)."	-3008
▁cam	-3009
▁derece	-3010
Ar	-3011
arlar	-3012
ins	-3013
eneksel	-3014
▁Yazı	-3015
9.	-3016
▁edebilirsiniz	-3017
▁yönetimi	-3018
▁çıkış	-3019
▁2016	-3020
rail	-3021
▁tedavi	-3022
▁bunun	-3023
akter	-3024
▁kural	-3025
▁hayvan	-3026
epsiyon	-3027
ens	-3028
ezon	-3029
▁tad	-3030
ıza	-3031
▁lider	-3032
etler	-3033
▁göm	-3034
▁tuş	-3035
▁duvar	-3036
vuz	-3037
▁gider	-3038
▁Dış	-3039
ayıs	-3040
▁çalışır	-3041
▁belirtilen	-3042
▁otobüs	-3043
ish	-3044
▁yüzde	-3045
▁Yorum	-3046
▁korun	-3047
▁bizimle	-3048
Başlangıç	-3049
On	-3050
dığımız	-3051
▁eksik	-3052
▁sorumlu	-3053
12	-3054
Her	-3055
▁fonksiyon	-3056
uyu	-3057
eyn	-3058
avun	-3059
▁kum	-3060
ince	-3061
▁ifade	-3062
▁kans	-3063
UR	-3064
akkabı	-3065
wit	-3066
ümlü	-3067
▁isteyen	-3068
▁Pol	-3069
▁derec	-3070
▁posta	-3071
mos	-3072
▁hakkı	-3073
▁profil	-3074
▁kitap	-3075
▁kaf	-3076
▁Çok	-3077
ılavuz	-3078
ürlük	-3079
▁depolama	-3080
▁garanti	-3081
▁fırsat	-3082
lenmiş	-3083
▁oyna	-3084
leyebilir	-3085
duk	-3086
▁ah	-3087
▁Mat	-3088
▁odaları	-3089
lamanız	-3090
▁Lond	-3091
▁programı	-3092
bin	-3093
sta	-3094
▁Fransa	-3095
ZERV	-3096
▁İspanya	-3097
lenmesi	-3098
yak	-3099
ich	-3100
▁açın	-3101
▁Eylül	-3102
▁komp	-3103
▁22	-3104
biz	-3105
rol	-3106
▁bugün	-3107
▁Kadın	-3108
▁metin	-3109
▁firma	-3110
▁ideal	-3111
alığı	-3112
▁Gizlilik	-3113
▁person	-3114
ock	-3115
▁beri	-3116
REZERV	-3117
▁ham	-3118
▁anlamına	-3119
▁azal	-3120
▁Örn	-3121
YA	-3122
▁sol	-3123
▁ütü	-3124
▁beş	-3125
PS	-3126
▁ask	-3127
▁imkanı	-3128
ohn	-3129
▁Server	-3130
emez	-3131
▁pek	-3132
ülebilir	-3133
▁Müşt	-3134
▁hukuk	-3135
Oran	-3136
▁hasta	-3137
▁Samsung	-3138
lal	-3139
▁geçen	-3140
▁siyah	-3141
▁tavsiye	-3142
▁Jap	-3143
▁uygulaması	-3144
▁One	-3145
▁Mayıs	-3146
▁hep	-3147
▁Müzesi	-3148
▁öğrenciler	-3149
leştirilmiş	-3150
▁karakter	-3151
▁Alt	-3152
ech	-3153
▁Col	-3154
▁memnun	-3155
DF	-3156
▁eleştirileri	-3157
IS	-3158
▁Resort	-3159
▁doldur	-3160
esiyle	-3161
▁istasyon	-3162
▁iler	-3163
▁biraz	-3164
amaz	-3165
▁mağaz	-3166
menizi	-3167
▁hey	-3168
▁Tak	-3169
▁if	-3170
▁bilim	-3171
▁olmaya	-3172
ph	-3173
IC	-3174
▁Yönetim	-3175
ayi	-3176
▁Seç	-3177
▁Ekim	-3178
AD	-3179
▁Politik	-3180
▁ail	-3181
▁Yat	-3182
Oransal	-3183
▁Dan	-3184
▁içi	-3185
▁dal	-3186
▁sar	-3187
abilirler	-3188
▁bekliyor	-3189
▁politik	-3190
erken	-3191
▁birbir	-3192
▁ister	-3193
▁hata	-3194
▁itibaren	-3195
▁Cumhuriyeti	-3196
dia	-3197
ılmıştır	-3198
.""	-3199
▁neler	-3200
▁Görüntü	-3201
▁edilmiş	-3202
▁Sunduğu	-3203
▁edebilir	-3204
▁ada	-3205
▁Off	-3206
▁kategor	-3207
▁onları	-3208
meli	-3209
▁2018	-3210
▁çay	-3211
▁Bazı	-3212
ipto	-3213
▁kayded	-3214
sıt	-3215
▁suç	-3216
▁Dub	-3217
▁Kuzey	-3218
▁Travel	-3219
▁kala	-3220
luğ	-3221
▁sertif	-3222
4,	-3223
fi	-3224
tığı	-3225
▁benz	-3226
▁pil	-3227
▁Geç	-3228
▁Aşağı	-3229
▁yasa	-3230
▁kontrolü	-3231
▁tabi	-3232
ısından	-3233
▁end	-3234
▁yıllık	-3235
▁yeterli	-3236
▁Ağ	-3237
▁Orta	-3238
VD	-3239
ıt	-3240
▁kul	-3241
▁sunmak	-3242
▁format	-3243
▁ucuz	-3244
ku	-3245
▁Ger	-3246
olf	-3247
▁tesisi	-3248
▁yoluyla	-3249
▁otelden	-3250
8.	-3251
kray	-3252
ınca	-3253
ower	-3254
▁kaydet	-3255
▁gıda	-3256
▁başladı	-3257
▁kâ	-3258
Türk	-3259
omo	-3260
▁ISO	-3261
▁Sen	-3262
▁insanlar	-3263
▁şark	-3264
▁5.	-3265
rop	-3266
▁Can	-3267
▁htt	-3268
▁Kö	-3269
▁Mi	-3270
▁devlet	-3271
▁Hes	-3272
▁min	-3273
▁çoğu	-3274
▁şimdi	-3275
▁tespit	-3276
▁havaliman	-3277
▁uyumlu	-3278
▁Pric	-3279
▁olası	-3280
▁Yunan	-3281
lıkla	-3282
lack	-3283
eğe	-3284
▁Ge	-3285
▁mücad	-3286
▁Gru	-3287
▁Priceline	-3288
▁Facebook	-3289
▁arası	-3290
▁yukarı	-3291
▁Yardım	-3292
▁bulunuyor	-3293
▁sabit	-3294
▁olay	-3295
▁Gu	-3296
2'	-3297
▁geldi	-3298
▁araba	-3299
yen	-3300
▁hafif	-3301
masyon	-3302
ames	-3303
▁işlemi	-3304
yar	-3305
lob	-3306
▁önceden	-3307
lendirme	-3308
dolabı	-3309
▁mesafesindedir	-3310
▁yenilik	-3311
oth	-3312
değ	-3313
emin	-3314
baş	-3315
coin	-3316
▁kalan	-3317
irüs	-3318
ücut	-3319
▁nakliye	-3320
▁zengin	-3321
▁yedek	-3322
▁vak	-3323
▁hastalık	-3324
▁dolar	-3325
▁Haziran	-3326
▁yoktur	-3327
▁kurtar	-3328
▁çıkan	-3329
▁Kab	-3330
▁birey	-3331
▁Gar	-3332
▁Öz	-3333
▁bec	-3334
menize	-3335
▁bes	-3336
▁Türkçe	-3337
▁Adı	-3338
▁Str	-3339
▁makine	-3340
ete	-3341
▁pazarlama	-3342
▁poz	-3343
▁yarış	-3344
▁eğit	-3345
1.	-3346
▁Kasım	-3347
▁elektronik	-3348
▁fiz	-3349
lanmaktadır	-3350
▁davran	-3351
rek	-3352
▁fiyatREZERV	-3353
ustr	-3354
▁Gir	-3355
ulan	-3356
▁He	-3357
tak	-3358
ris	-3359
▁toz	-3360
▁dayanıklı	-3361
▁uygulamaları	-3362
▁kamera	-3363
şiv	-3364
ediye	-3365
▁Çek	-3366
▁silin	-3367
▁yapın	-3368
izm	-3369
▁ölçü	-3370
EK	-3371
ester	-3372
▁baz	-3373
▁veril	-3374
▁görmek	-3375
isiniz	-3376
▁bisiklet	-3377
ula	-3378
YON	-3379
▁2,	-3380
LAR	-3381
▁oturum	-3382
The	-3383
lığında	-3384
arp	-3385
ansiyon	-3386
▁metal	-3387
▁yararlan	-3388
▁ambalaj	-3389
elerinde	-3390
les	-3391
ült	-3392
▁kişinin	-3393
▁okul	-3394
▁Amerik	-3395
▁Düz	-3396
▁Proj	-3397
eng	-3398
▁Sal	-3399
izasyon	-3400
▁Aralık	-3401
▁özelliği	-3402
▁yerleştir	-3403
Eğ	-3404
▁finans	-3405
▁geçmiş	-3406
▁Out	-3407
▁lim	-3408
▁hassas	-3409
▁kargo	-3410
7.	-3411
▁değişiklik	-3412
▁yana	-3413
▁yüzey	-3414
ternatif	-3415
▁kapalı	-3416
▁Ama	-3417
▁süt	-3418
70	-3419
▁York	-3420
▁adlı	-3421
▁gelişmiş	-3422
▁banka	-3423
▁Net	-3424
uvalet	-3425
▁Dön	-3426
▁büny	-3427
▁del	-3428
▁Pat	-3429
▁taşıma	-3430
▁ünivers	-3431
▁Cam	-3432
krayna	-3433
▁Tesis	-3434
▁normal	-3435
und	-3436
▁edilebilir	-3437
▁2013	-3438
▁mimar	-3439
etre	-3440
▁yemeği	-3441
▁geliştirme	-3442
▁başarılı	-3443
▁korumak	-3444
▁Fil	-3445
ansı	-3446
▁Dav	-3447
▁tep	-3448
▁can	-3449
▁sok	-3450
]"	-3451
▁SA	-3452
liliğ	-3453
▁ayakkabı	-3454
▁Pla	-3455
▁sunulan	-3456
▁geliyor	-3457
utbol	-3458
▁yaptığ	-3459
err	-3460
net	-3461
ky	-3462
▁malzeme	-3463
erseniz	-3464
▁Temmuz	-3465
▁net	-3466
▁Blu	-3467
▁gerçekleş	-3468
Daha	-3469
▁yapar	-3470
▁fabrika	-3471
▁dosyaları	-3472
▁dost	-3473
▁bulunduğu	-3474
▁"•	-3475
▁Birliği	-3476
▁yüzden	-3477
▁Di	-3478
▁bor	-3479
ator	-3480
ites	-3481
▁ekonomik	-3482
▁iptal	-3483
ene	-3484
▁cevap	-3485
▁Qu	-3486
▁Ber	-3487
▁İngiltere	-3488
mp	-3489
eck	-3490
▁kullanma	-3491
▁Sar	-3492
mm	-3493
▁sistemleri	-3494
ica	-3495
▁donanım	-3496
har	-3497
▁havaalan	-3498
▁diye	-3499
▁pot	-3500
▁ülke	-3501
▁odalarda	-3502
▁Çift	-3503
▁Yazılım	-3504
▁gerçekten	-3505
▁sebep	-3506
▁AP	-3507
▁Ot	-3508
▁Siparişler	-3509
▁Nisan	-3510
ısır	-3511
▁Hak	-3512
11	-3513
geo	-3514
makta	-3515
way	-3516
ocity	-3517
▁Mah	-3518
▁birden	-3519
TC	-3520
ree	-3521
▁kredi	-3522
uğ	-3523
▁kem	-3524
▁Office	-3525
ho	-3526
▁prot	-3527
▁rağ	-3528
alığ	-3529
▁kırmızı	-3530
▁sonrası	-3531
▁Bay	-3532
▁Ab	-3533
▁dakikada	-3534
.000	-3535
▁Havaalanı	-3536
ild	-3537
acaktır	-3538
▁John	-3539
▁grafik	-3540
▁toplum	-3541
ruf	-3542
"",	-3543
▁Has	-3544
▁Sistemi	-3545
▁Plus	-3546
▁oynat	-3547
cılar	-3548
▁Travelocity	-3549
best	-3550
▁birleştir	-3551
laştı	-3552
▁cep	-3553
diğinde	-3554
asından	-3555
▁sağlamaktadır	-3556
▁not	-3557
▁Wat	-3558
▁yürüt	-3559
graf	-3560
▁birini	-3561
üper	-3562
▁to	-3563
lamaz	-3564
▁YAP	-3565
90	-3566
▁60	-3567
▁Veriler	-3568
ke	-3569
şık	-3570
▁önceki	-3571
▁kartı	-3572
▁yel	-3573
▁bunları	-3574
digeo	-3575
▁havaalanı	-3576
▁Güvenlik	-3577
▁Xbox	-3578
▁Kam	-3579
Son	-3580
IP	-3581
▁haline	-3582
▁it	-3583
▁Kurul	-3584
▁vitam	-3585
▁desteği	-3586
dikten	-3587
▁açısından	-3588
▁Bah	-3589
şap	-3590
Pro	-3591
▁otele	-3592
ohbet	-3593
▁elbise	-3594
anlar	-3595
İR	-3596
▁bey	-3597
▁Tarih	-3598
St	-3599
▁durumu	-3600
▁rağmen	-3601
▁opt	-3602
latma	-3603
▁kent	-3604
▁kapı	-3605
▁‹	-3606
MA	-3607
▁aray	-3608
ternational	-3609
▁deri	-3610
65	-3611
▁derin	-3612
▁USB	-3613
In	-3614
▁çanta	-3615
▁ayak	-3616
enizi	-3617
orld	-3618
▁İndir	-3619
▁edilmesi	-3620
▁İsrail	-3621
▁aktiv	-3622
▁komut	-3623
▁gerekiyor	-3624
▁deneyimi	-3625
▁verim	-3626
▁tart	-3627
▁Fir	-3628
▁ber	-3629
▁durumlarda	-3630
▁vermektedir	-3631
ustralya	-3632
▁Java	-3633
▁pol	-3634
▁koş	-3635
yle	-3636
mey	-3637
▁meydan	-3638
lıklı	-3639
▁ederek	-3640
▁re	-3641
▁politika	-3642
EC	-3643
▁transfer	-3644
▁silah	-3645
▁sayısı	-3646
▁aktif	-3647
▁You	-3648
▁akış	-3649
▁Bilgi	-3650
olojik	-3651
▁oluşturul	-3652
▁kripto	-3653
IL	-3654
▁sürüş	-3655
▁resepsiyon	-3656
▁önünde	-3657
▁tasarımı	-3658
yıl	-3659
▁Fransız	-3660
▁Pan	-3661
▁ayında	-3662
dar	-3663
deş	-3664
▁dokunun	-3665
▁Mer	-3666
▁dizi	-3667
işkin	-3668
▁plastik	-3669
▁müşter	-3670
▁Mobil	-3671
ülü	-3672
▁II	-3673
▁şeyi	-3674
▁Dest	-3675
▁Anal	-3676
▁güncellem	-3677
▁tadını	-3678
ubat	-3679
EO	-3680
▁öğrenc	-3681
▁öldür	-3682
2,	-3683
hane	-3684
▁Koşul	-3685
▁çub	-3686
set	-3687
limat	-3688
▁şarj	-3689
▁bl	-3690
crip	-3691
masında	-3692
▁şekl	-3693
Gen	-3694
▁piş	-3695
▁Ocak	-3696
▁kahve	-3697
▁düşünü	-3698
▁Star	-3699
▁işletim	-3700
▁olmadığını	-3701
▁Adım	-3702
▁toplu	-3703
▁ayır	-3704
undaki	-3705
ıyorsanız	-3706
▁harit	-3707
old	-3708
▁Online	-3709
▁lüks	-3710
App	-3711
▁Sch	-3712
stos	-3713
▁oteller	-3714
mekten	-3715
▁Konuklar	-3716
ane	-3717
ingo	-3718
▁numar	-3719
▁ince	-3720
▁çevir	-3721
▁yapılır	-3722
Tüm	-3723
▁Havalim	-3724
▁küresel	-3725
▁bağımsız	-3726
▁kaybet	-3727
ğustos	-3728
UL	-3729
▁Dosya	-3730
▁fikir	-3731
eks	-3732
ASYON	-3733
atur	-3734
jen	-3735
▁War	-3736
▁ihtiyacınız	-3737
▁port	-3738
ney	-3739
▁esnek	-3740
yasal	-3741
lav	-3742
▁Kore	-3743
▁hücr	-3744
SS	-3745
▁Eğitim	-3746
▁öm	-3747
alkon	-3748
sak	-3749
uyucu	-3750
▁kıya	-3751
▁görsel	-3752
▁House	-3753
▁Pa	-3754
▁DVD	-3755
layabilir	-3756
ness	-3757
▁uyum	-3758
▁halk	-3759
iden	-3760
rada	-3761
rom	-3762
▁yeşil	-3763
▁ilaç	-3764
▁yazılımı	-3765
▁uğ	-3766
dim	-3767
lıklar	-3768
▁27	-3769
▁Ekran	-3770
▁aile	-3771
pany	-3772
▁West	-3773
▁eğer	-3774
▁Sözleş	-3775
▁ir	-3776
▁puan	-3777
ostel	-3778
▁özg	-3779
uşak	-3780
iste	-3781
layabilirsiniz	-3782
▁klima	-3783
▁biridir	-3784
UN	-3785
▁İçin	-3786
▁benzersiz	-3787
▁kişilik	-3788
▁tasarruf	-3789
▁Pas	-3790
eci	-3791
▁iklim	-3792
▁aşağıda	-3793
▁Ol	-3794
cısı	-3795
▁resim	-3796
▁geleneksel	-3797
▁"4	-3798
ons	-3799
sed	-3800
▁ortalama	-3801
hi	-3802
▁verdi	-3803
▁görünüm	-3804
▁(3	-3805
▁cez	-3806
▁şirketi	-3807
▁Ken	-3808
liliği	-3809
▁kısıt	-3810
ings	-3811
ladığı	-3812
▁"1.	-3813
▁Don	-3814
indistan	-3815
▁International	-3816
▁yurt	-3817
▁Azure	-3818
▁Dir	-3819
▁akşam	-3820
lıdır	-3821
▁Eur	-3822
▁ekib	-3823
▁bileşen	-3824
▁Ukrayna	-3825
▁içecek	-3826
▁Apart	-3827
▁eg	-3828
İK	-3829
▁Oyuncu	-3830
ocu	-3831
aktör	-3832
▁operasyon	-3833
▁seçenekleri	-3834
▁alacak	-3835
▁edilmiştir	-3836
laşma	-3837
▁şiş	-3838
▁Tasar	-3839
1'	-3840
▁bana	-3841
▁Kullanım	-3842
▁yapabil	-3843
ediy	-3844
ekiz	-3845
vik	-3846
ex	-3847
▁vücut	-3848
do	-3849
leriniz	-3850
amız	-3851
▁buzdolabı	-3852
▁geliştirmek	-3853
▁bilinen	-3854
▁yükümlü	-3855
▁takdir	-3856
▁Word	-3857
▁geçiş	-3858
▁TL	-3859
ğıt	-3860
loud	-3861
▁Kons	-3862
ilmelidir	-3863
OL	-3864
▁ef	-3865
iyer	-3866
ori	-3867
▁Stand	-3868
▁etmektedir	-3869
▁başvuru	-3870
▁herkes	-3871
▁yapıyor	-3872
▁açı	-3873
▁Vi	-3874
eliğ	-3875
▁uygulan	-3876
ütfen	-3877
▁rad	-3878
▁Adam	-3879
ansiyel	-3880
▁gizlilik	-3881
▁çıktı	-3882
-3	-3883
▁proje	-3884
▁havuzu	-3885
▁Val	-3886
sansör	-3887
tiği	-3888
▁Bölüm	-3889
▁unutmayın	-3890
▁bildirim	-3891
▁Ağustos	-3892
▁ulaşılabilir	-3893
agaj	-3894
▁Mot	-3895
25	-3896
İT	-3897
kem	-3898
▁bilgilerinizi	-3899
MS	-3900
▁köpek	-3901
▁Black	-3902
▁dağ	-3903
IF	-3904
▁onlar	-3905
lerce	-3906
▁masası	-3907
▁yürüyerek	-3908
leyerek	-3909
▁kullanıcıların	-3910
yaklaşık	-3911
▁elektrikli	-3912
▁işbirliği	-3913
▁sigara	-3914
▁Mes	-3915
▁kamu	-3916
▁bulmak	-3917
▁çocuklar	-3918
▁rekabet	-3919
evi	-3920
kek	-3921
simum	-3922
▁"2.	-3923
sesuar	-3924
▁pencer	-3925
Tube	-3926
▁eylem	-3927
ijinal	-3928
TS	-3929
erg	-3930
yse	-3931
▁boyutu	-3932
▁ulaşım	-3933
goda	-3934
Eğer	-3935
▁mühendis	-3936
sü	-3937
▁şehrindeki	-3938
▁taleb	-3939
▁saldırı	-3940
DA	-3941
LER	-3942
▁önemlidir	-3943
yap	-3944
▁ağrı	-3945
▁red	-3946
uvvet	-3947
▁VE	-3948
▁Tab	-3949
▁gidin	-3950
▁Kit	-3951
ılma	-3952
▁inç	-3953
ts	-3954
▁tuvalet	-3955
▁salonu	-3956
▁sonunda	-3957
hal	-3958
adaki	-3959
▁2020	-3960
Ayrıca	-3961
▁türü	-3962
▁arşiv	-3963
001	-3964
▁2010	-3965
▁gösterin	-3966
anada	-3967
▁23	-3968
▁Agoda	-3969
aştır	-3970
ilere	-3971
bilen	-3972
lıkları	-3973
▁cilt	-3974
▁ileri	-3975
▁Kol	-3976
▁Doğu	-3977
bak	-3978
▁Sig	-3979
Yeni	-3980
▁Londra	-3981
▁kelim	-3982
▁Telefon	-3983
bor	-3984
▁dolayı	-3985
▁yabancı	-3986
▁aydın	-3987
▁dam	-3988
▁Savaş	-3989
▁kaşı	-3990
▁Pay	-3991
▁Hay	-3992
ücu	-3993
▁Ulusal	-3994
gıt	-3995
▁2012	-3996
▁Avustralya	-3997
,5	-3998
fır	-3999
▁üzerindeki	-4000
ütü	-4001
▁iOS	-4002
▁log	-4003
ani	-4004
▁olduğundan	-4005
▁sağlayıcı	-4006
racat	-4007
▁gösteren	-4008
▁orijinal	-4009
mar	-4010
▁gösterir	-4011
▁altın	-4012
mıştı	-4013
ilecek	-4014
▁Spa	-4015
ayılan	-4016
anda	-4017
cript	-4018
▁düzenlem	-4019
▁taz	-4020
▁mez	-4021
▁rak	-4022
sp	-4023
▁İşlem	-4024
▁Gal	-4025
mekte	-4026
▁tipi	-4027
ştu	-4028
erler	-4029
▁maç	-4030
▁imkâ	-4031
▁#	-4032
▁ekleyin	-4033
▁üstün	-4034
▁yiy	-4035
▁dışarı	-4036
▁6.	-4037
▁kaşığı	-4038
Misafir	-4039
▁Ltd	-4040
▁zinc	-4041
▁çamaşır	-4042
▁Yüz	-4043
▁GB	-4044
ith	-4045
▁Mary	-4046
▁Şubat	-4047
▁Gaz	-4048
▁Mus	-4049
labilir	-4050
▁dekor	-4051
▁edildi	-4052
▁çalışıyor	-4053
▁amaçlı	-4054
lüm	-4055
▁(""	-4056
eter	-4057
▁sürümü	-4058
▁balkon	-4059
▁bakın	-4060
▁ıs	-4061
▁filtr	-4062
▁kilom	-4063
müş	-4064
▁kullanıcılar	-4065
▁Gr	-4066
▁yönlendir	-4067
▁Örneğin	-4068
▁bulabilirsiniz	-4069
▁döv	-4070
▁eşit	-4071
▁oyunlar	-4072
ix	-4073
▁Bunu	-4074
duğunuz	-4075
larınıza	-4076
▁Sadece	-4077
▁makineleri	-4078
▁ilgilen	-4079
▁uçak	-4080
amam	-4081
▁Tay	-4082
▁sert	-4083
▁boya	-4084
▁personel	-4085
▁Rom	-4086
▁Dem	-4087
amanı	-4088
▁Paris	-4089
▁kutu	-4090
▁yanlış	-4091
):	-4092
▁28	-4093
▁bağlan	-4094
▁kimlik	-4095
21	-4096
▁Havalimanı	-4097
▁yine	-4098
red	-4099
mail	-4100
▁Del	-4101
▁du	-4102
▁şifr	-4103
deri	-4104
lerimizi	-4105
ox	-4106
▁özellikler	-4107
iddet	-4108
▁semt	-4109
▁Ste	-4110
▁Afrika	-4111
veti	-4112
IK	-4113
▁hatır	-4114
▁Öğren	-4115
ılmaz	-4116
▁ülkeler	-4117
unuzun	-4118
▁adımları	-4119
▁Elektr	-4120
▁ettiği	-4121
▁mar	-4122
ilerine	-4123
retim	-4124
▁fırın	-4125
işleri	-4126
▁ölçüde	-4127
▁Store	-4128
▁milyar	-4129
▁500	-4130
▁ceket	-4131
▁mm	-4132
▁Sah	-4133
lken	-4134
▁PDF	-4135
▁yayım	-4136
▁Suites	-4137
▁tanıt	-4138
▁Bakanlığı	-4139
▁Böyle	-4140
insel	-4141
ıyla	-4142
▁ona	-4143
▁kapsamlı	-4144
▁26	-4145
▁onların	-4146
▁ısıtma	-4147
▁Sır	-4148
▁adına	-4149
▁VPN	-4150
malar	-4151
Av	-4152
▁2008	-4153
hen	-4154
İş	-4155
masından	-4156
▁doktor	-4157
▁Tingo	-4158
▁imz	-4159
▁Is	-4160
▁Bank	-4161
mal	-4162
▁Villa	-4163
witter	-4164
▁gömlek	-4165
âh	-4166
▁Banyo	-4167
▁girişim	-4168
teş	-4169
lex	-4170
ülk	-4171
▁entegre	-4172
▁yükselt	-4173
▁karıştır	-4174
▁olsa	-4175
que	-4176
▁yılı	-4177
▁tabanlı	-4178
car	-4179
▁açmak	-4180
▁Muh	-4181
ümin	-4182
▁karşılaştır	-4183
▁anla	-4184
▁verimli	-4185
larınızın	-4186
▁konumlanmıştır	-4187
▁yolc	-4188
▁Down	-4189
adem	-4190
larındaki	-4191
▁simg	-4192
24	-4193
load	-4194
▁kaynağ	-4195
lash	-4196
▁ta	-4197
▁seçeneği	-4198
İZ	-4199
▁Men	-4200
liğe	-4201
adan	-4202
ko	-4203
miyor	-4204
▁arttır	-4205
▁klasör	-4206
▁yapılandır	-4207
▁Bat	-4208
lanıyor	-4209
anız	-4210
▁Oto	-4211
▁Suriye	-4212
kara	-4213
▁gar	-4214
▁altı	-4215
ülen	-4216
unt	-4217
▁Kaz	-4218
▁bilgilerini	-4219
▁olmalıdır	-4220
▁hizmetler	-4221
dışı	-4222
ınav	-4223
▁kutus	-4224
▁dokun	-4225
ceğ	-4226
▁hala	-4227
▁ulusal	-4228
▁sezon	-4229
▁çıkara	-4230
▁gerekmektedir	-4231
▁şöyle	-4232
▁Hal	-4233
▁sorunu	-4234
▁‹‹	-4235
eceğiz	-4236
▁ekle	-4237
▁düzenlenen	-4238
▁etiket	-4239
▁alıcı	-4240
▁iPad	-4241
▁başlayan	-4242
uel	-4243
▁otelleri	-4244
▁Odalar	-4245
lenebilir	-4246
▁cid	-4247
▁barda	-4248
▁Sanat	-4249
▁çevre	-4250
AY	-4251
IR	-4252
atandaş	-4253
▁yapım	-4254
▁Pak	-4255
▁içine	-4256
▁sürücü	-4257
anya	-4258
▁yüzme	-4259
▁Portekiz	-4260
ug	-4261
▁Makin	-4262
▁sohbet	-4263
▁danışman	-4264
▁sınırlı	-4265
lot	-4266
▁ücreti	-4267
ull	-4268
▁yere	-4269
▁önlem	-4270
▁Rob	-4271
▁yani	-4272
▁tanın	-4273
mediğ	-4274
zersiz	-4275
▁yeri	-4276
▁Sı	-4277
▁barın	-4278
▁Aynı	-4279
▁Nak	-4280
▁nef	-4281
▁Kır	-4282
▁"(	-4283
oid	-4284
▁filmi	-4285
▁ima	-4286
▁yaptır	-4287
.[	-4288
▁Yunanistan	-4289
▁sağlıklı	-4290
ump	-4291
▁etkinlik	-4292
▁Grand	-4293
▁Bitcoin	-4294
▁tec	-4295
▁dök	-4296
▁kalın	-4297
▁devre	-4298
▁Ada	-4299
anan	-4300
ilim	-4301
▁sonucu	-4302
▁Güncel	-4303
▁Tanrı	-4304
talyan	-4305
▁kesinlikle	-4306
▁but	-4307
▁RAB	-4308
▁Bunlar	-4309
bileceğiniz	-4310
▁sıcaklık	-4311
Online	-4312
▁düzenli	-4313
▁senin	-4314
▁çapında	-4315
▁teslimat	-4316
▁disk	-4317
▁vardı	-4318
▁köş	-4319
bot	-4320
ihazı	-4321
▁oğ	-4322
▁Başkan	-4323
▁panel	-4324
ira	-4325
eld	-4326
▁ofis	-4327
zz	-4328
▁lo	-4329
▁ahşap	-4330
ert	-4331
▁For	-4332
deniz	-4333
irin	-4334
▁teşvik	-4335
▁dosyasını	-4336
▁teknolojisi	-4337
gili	-4338
▁balık	-4339
ezi	-4340
▁serbest	-4341
▁reh	-4342
▁hatta	-4343
▁enf	-4344
teşem	-4345
▁Ham	-4346
olar	-4347
▁iddia	-4348
▁olduğunuz	-4349
dığınızda	-4350
dülü	-4351
▁kapasit	-4352
▁dosyası	-4353
▁alınan	-4354
paz	-4355
▁istenmeyen	-4356
▁keyf	-4357
▁kanıt	-4358
▁meş	-4359
15	-4360
omobil	-4361
▁bünyesinde	-4362
▁savun	-4363
▁aldığı	-4364
▁zamanı	-4365
▁versiyon	-4366
▁genişlet	-4367
▁onlara	-4368
▁Yaz	-4369
▁geçirmez	-4370
▁İşlet	-4371
▁davet	-4372
▁İşte	-4373
▁renkli	-4374
▁Os	-4375
▁uydu	-4376
▁etkileş	-4377
9'	-4378
▁iade	-4379
▁adını	-4380
umaş	-4381
__	-4382
lacak	-4383
Script	-4384
ratik	-4385
▁görüntülemek	-4386
▁Kurulu	-4387
▁kolaylaştır	-4388
▁sitesinde	-4389
▁kurulum	-4390
98	-4391
row	-4392
▁sıv	-4393
:00	-4394
▁yıkama	-4395
olog	-4396
add	-4397
▁kablo	-4398
▁tablo	-4399
mesinin	-4400
▁mus	-4401
▁olduğunda	-4402
▁dolu	-4403
▁Kı	-4404
tiler	-4405
lanmaz	-4406
emen	-4407
▁durdur	-4408
▁Devletleri	-4409
▁ton	-4410
▁oturma	-4411
▁fit	-4412
nik	-4413
▁Arap	-4414
▁hasar	-4415
▁endiş	-4416
illi	-4417
▁hikay	-4418
▁istasyonu	-4419
▁çat	-4420
üzdan	-4421
▁Say	-4422
▁Vis	-4423
▁geçer	-4424
tim	-4425
İS	-4426
▁AM	-4427
▁bagaj	-4428
▁Misafirler	-4429
▁grub	-4430
stit	-4431
▁abon	-4432
▁ihlal	-4433
içek	-4434
▁YouTube	-4435
eral	-4436
ınabilir	-4437
olon	-4438
▁üyesi	-4439
▁odada	-4440
▁kampanya	-4441
▁"*	-4442
▁aksesuar	-4443
▁Sm	-4444
Biz	-4445
▁Tam	-4446
▁uygulamalar	-4447
aten	-4448
▁PS	-4449
▁Kız	-4450
▁Kil	-4451
▁çözün	-4452
▁Ses	-4453
▁İstasyonu	-4454
zu	-4455
▁serisi	-4456
lerimizin	-4457
▁karış	-4458
▁çıkarın	-4459
port	-4460
▁malzemeleri	-4461
▁araştır	-4462
OM	-4463
esiz	-4464
ano	-4465
isin	-4466
▁Sosyal	-4467
▁faktör	-4468
▁Yaş	-4469
ikayet	-4470
osk	-4471
CD	-4472
Ek	-4473
ğa	-4474
dük	-4475
▁Tor	-4476
▁aşırı	-4477
por	-4478
liğine	-4479
▁198	-4480
▁2022	-4481
▁altına	-4482
▁etmiş	-4483
▁35	-4484
▁Ana	-4485
iyim	-4486
▁yeter	-4487
▁site	-4488
▁Li	-4489
▁Dep	-4490
▁bilgilendir	-4491
▁bat	-4492
ington	-4493
▁sitem	-4494
▁izleyin	-4495
erez	-4496
▁geçici	-4497
▁işlemleri	-4498
▁numarası	-4499
▁Hat	-4500
dit	-4501
▁To	-4502
bay	-4503
ampiyon	-4504
▁Güç	-4505
▁parlak	-4506
Evet	-4507
mini	-4508
eceksiniz	-4509
▁kılavuz	-4510
▁ölüm	-4511
ABD	-4512
▁tasarlanmış	-4513
tra	-4514
▁Of	-4515
lolu	-4516
▁salon	-4517
▁Hızlı	-4518
▁asit	-4519
▁"3.	-4520
▁kork	-4521
▁bulut	-4522
ıbbi	-4523
ung	-4524
yacak	-4525
AV	-4526
ekkür	-4527
▁geçin	-4528
▁Bilgisayar	-4529
▁futbol	-4530
▁uyarınca	-4531
▁ilgi	-4532
tiğimiz	-4533
▁yelpaz	-4534
▁etraf	-4535
▁tır	-4536
sın	-4537
stra	-4538
enler	-4539
▁Road	-4540
▁kullanıla	-4541
EG	-4542
Türkiye	-4543
▁kaplama	-4544
▁kurs	-4545
▁potansiyel	-4546
anet	-4547
▁güvenliği	-4548
▁ark	-4549
ain	-4550
▁bahçe	-4551
1,	-4552
▁arayüz	-4553
▁karma	-4554
cusu	-4555
üminyum	-4556
▁nitelik	-4557
dalı	-4558
uzur	-4559
▁JavaScript	-4560
lerimize	-4561
3'	-4562
▁Gerek	-4563
▁Roma	-4564
▁yayınlanan	-4565
▁otelde	-4566
▁yıldız	-4567
teri	-4568
▁yetenek	-4569
▁alternatif	-4570
▁kiralama	-4571
▁alım	-4572
▁dar	-4573
▁zorun	-4574
emizde	-4575
▁kuş	-4576
▁verdiği	-4577
▁İsveç	-4578
blem	-4579
▁tahmin	-4580
▁fiziksel	-4581
▁kok	-4582
▁beraber	-4583
▁vücu	-4584
▁arac	-4585
▁Bakanı	-4586
lub	-4587
▁Saç	-4588
▁oluşturma	-4589
enüz	-4590
▁küveti	-4591
▁Var	-4592
uty	-4593
▁adlandır	-4594
▁pr	-4595
ilmesini	-4596
▁manzaralı	-4597
bah	-4598
▁yükleme	-4599
▁Dok	-4600
▁Red	-4601
▁izleme	-4602
▁Kut	-4603
▁dünyada	-4604
▁Fotoğraf	-4605
▁Fin	-4606
▁kulak	-4607
yt	-4608
75	-4609
▁ülken	-4610
"")	-4611
▁Ticaret	-4612
▁AV	-4613
▁krit	-4614
lobal	-4615
▁Şimdi	-4616
▁Lütfen	-4617
▁Kanada	-4618
▁Ha	-4619
errah	-4620
süz	-4621
▁Sağlık	-4622
▁Göz	-4623
▁Amerikan	-4624
landığı	-4625
ii	-4626
▁toprak	-4627
▁Hollanda	-4628
eğen	-4629
▁Sil	-4630
▁düşünüyor	-4631
engi	-4632
▁kullanabilir	-4633
ayıp	-4634
▁vars	-4635
▁çarp	-4636
▁varış	-4637
▁eğlenc	-4638
▁Des	-4639
▁mesafededir	-4640
▁girin	-4641
▁Bin	-4642
eff	-4643
.)	-4644
lında	-4645
▁Slo	-4646
▁Cor	-4647
▁Plaj	-4648
isyonu	-4649
tay	-4650
▁mavi	-4651
▁sitesini	-4652
▁içeriği	-4653
Kiş	-4654
▁sanal	-4655
eto	-4656
▁içindeki	-4657
▁meydana	-4658
▁Part	-4659
con	-4660
▁alanda	-4661
▁araçları	-4662
▁klasik	-4663
▁Yah	-4664
▁noktası	-4665
orta	-4666
▁dosyalarını	-4667
▁İtalyan	-4668
ustur	-4669
▁takv	-4670
▁Hindistan	-4671
▁Max	-4672
dün	-4673
▁tehlik	-4674
▁yaratıcı	-4675
▁diren	-4676
İM	-4677
ille	-4678
▁sona	-4679
üph	-4680
şı	-4681
100	-4682
igh	-4683
▁öncelik	-4684
ilya	-4685
▁Kah	-4686
▁nokt	-4687
dek	-4688
▁tuz	-4689
▁Araç	-4690
▁vatandaş	-4691
▁mac	-4692
▁Aşağıdaki	-4693
ınızdan	-4694
▁tasarlanmıştır	-4695
▁kilit	-4696
▁LED	-4697
▁gizli	-4698
mıyor	-4699
▁Asya	-4700
▁hakları	-4701
▁hastan	-4702
▁Nor	-4703
meyin	-4704
▁yapabilir	-4705
▁https	-4706
çak	-4707
dalga	-4708
etim	-4709
▁tecr	-4710
▁mücadele	-4711
esti	-4712
lerdir	-4713
▁kullanan	-4714
▁Destek	-4715
▁Fak	-4716
22	-4717
▁Sta	-4718
mazon	-4719
▁maksimum	-4720
diğimiz	-4721
▁banyolar	-4722
▁Muse	-4723
▁keyfini	-4724
▁Dis	-4725
cisi	-4726
▁şık	-4727
▁heyec	-4728
OV	-4729
▁ateş	-4730
▁şeker	-4731
▁3,	-4732
▁Çalışma	-4733
▁önlemek	-4734
▁tablet	-4735
eytin	-4736
elerinden	-4737
▁getirmek	-4738
▁Hizmetleri	-4739
▁şiddet	-4740
▁Feder	-4741
rens	-4742
▁etmeye	-4743
▁alabilirsiniz	-4744
▁başlangıç	-4745
▁Bor	-4746
▁kimyasal	-4747
▁amel	-4748
▁zamanlı	-4749
lamanın	-4750
TA	-4751
anıyor	-4752
antolon	-4753
▁kurmak	-4754
▁tarzı	-4755
▁kâğıt	-4756
▁Casino	-4757
▁etkisi	-4758
▁Düzen	-4759
ndan	-4760
▁birim	-4761
lığa	-4762
ence	-4763
▁artış	-4764
larımızın	-4765
diler	-4766
▁bay	-4767
▁yazılı	-4768
▁Rek	-4769
▁olmuştur	-4770
▁benzeri	-4771
▁"5	-4772
ser	-4773
ilmeyen	-4774
▁Gerçek	-4775
rist	-4776
irli	-4777
▁Erkek	-4778
▁telefonu	-4779
sızın	-4780
▁kurumsal	-4781
oint	-4782
▁kış	-4783
▁Haritada	-4784
▁Mey	-4785
ımızı	-4786
▁sizinle	-4787
▁Power	-4788
▁parçaları	-4789
▁Aç	-4790
QL	-4791
Min	-4792
▁eşya	-4793
▁2007	-4794
arklı	-4795
liğinde	-4796
ildiği	-4797
▁ilan	-4798
cilik	-4799
ök	-4800
DE	-4801
››	-4802
▁kayb	-4803
▁Center	-4804
▁Erişim	-4805
▁Genç	-4806
ban	-4807
"""	-4808
▁demir	-4809
over	-4810
▁süreci	-4811
laka	-4812
akf	-4813
aları	-4814
▁Op	-4815
▁Müdür	-4816
▁yumuşak	-4817
▁ep	-4818
▁havlu	-4819
▁kalb	-4820
▁değeri	-4821
▁Şart	-4822
lüyor	-4823
▁cas	-4824
▁merak	-4825
mo	-4826
ze	-4827
cü	-4828
ivil	-4829
▁mülk	-4830
diniz	-4831
eyle	-4832
▁kalp	-4833
mesinde	-4834
▁İlet	-4835
▁anti	-4836
luluğ	-4837
▁mater	-4838
▁Internet	-4839
▁Pazar	-4840
▁Sk	-4841
▁Beyaz	-4842
▁çekir	-4843
ier	-4844
edeni	-4845
▁yağı	-4846
▁oranı	-4847
▁şarkı	-4848
▁Ortak	-4849
▁80	-4850
▁üretimi	-4851
▁4,	-4852
▁300	-4853
▁devr	-4854
doğ	-4855
▁Orbit	-4856
iki	-4857
▁yılından	-4858
▁destekler	-4859
▁insanların	-4860
düğü	-4861
▁ekibi	-4862
▁istek	-4863
▁mobilya	-4864
▁dostu	-4865
▁tok	-4866
▁ihracat	-4867
▁kutusu	-4868
▁Lim	-4869
▁yerler	-4870
abilecek	-4871
▁fazlası	-4872
▁madde	-4873
LAN	-4874
▁Plan	-4875
▁kalıp	-4876
içre	-4877
▁çocu	-4878
▁açıkladı	-4879
▁op	-4880
GB	-4881
▁materyal	-4882
▁menüs	-4883
▁çal	-4884
▁neredeyse	-4885
▁Tah	-4886
emli	-4887
dıkları	-4888
ebilecek	-4889
▁boru	-4890
▁Twitter	-4891
rıs	-4892
ua	-4893
▁aday	-4894
etrol	-4895
Tes	-4896
▁indirmek	-4897
▁kilometre	-4898
▁yoksa	-4899
▁yiyecek	-4900
▁yenilen	-4901
▁olanakları	-4902
▁tor	-4903
▁cm	-4904
▁programları	-4905
▁sahib	-4906
▁suyu	-4907
▁lazer	-4908
▁TripOnline	-4909
tral	-4910
▁muhteşem	-4911
▁olursa	-4912
▁bahç	-4913
▁sız	-4914
BA	-4915
▁Orbitz	-4916
unuza	-4917
yalı	-4918
▁def	-4919
▁verilerinizi	-4920
▁Site	-4921
▁Hır	-4922
eleme	-4923
LE	-4924
▁Dur	-4925
▁ata	-4926
▁gal	-4927
▁çağrı	-4928
▁piyasaya	-4929
▁ortadan	-4930
stagram	-4931
ami	-4932
▁Kontrol	-4933
▁29	-4934
▁sürüc	-4935
▁güçlendir	-4936
▁sunuyoruz	-4937
▁kök	-4938
med	-4939
▁ediyoruz	-4940
▁modeli	-4941
▁sh	-4942
▁Zaman	-4943
▁asansör	-4944
▁değerlendirme	-4945
▁devamını	-4946
ündeki	-4947
ıbrıs	-4948
-0	-4949
melerini	-4950
45	-4951
▁^	-4952
▁kardeş	-4953
▁Lo	-4954
▁görünüyor	-4955
ider	-4956
▁değerli	-4957
▁ayrıntılı	-4958
▁Gre	-4959
▁Deniz	-4960
Gün	-4961
▁45	-4962
▁Sy	-4963
▁cihazı	-4964
▁ürünü	-4965
▁Der	-4966
▁bal	-4967
emium	-4968
▁listesi	-4969
▁tali	-4970
yet	-4971
▁isim	-4972
▁altındaki	-4973
▁huzur	-4974
mur	-4975
▁vad	-4976
ny	-4977
▁imkân	-4978
lardaki	-4979
▁Neden	-4980
ferans	-4981
IA	-4982
▁ciddi	-4983
panyol	-4984
▁tartış	-4985
irt	-4986
▁ten	-4987
▁erken	-4988
usturya	-4989
▁sorunları	-4990
▁ulaşmak	-4991
▁kel	-4992
üyle	-4993
▁bilgilerin	-4994
▁doğrult	-4995
ğan	-4996
sk	-4997
▁gelişim	-4998
▁askeri	-4999
▁önde	-5000
▁Yol	-5001
RL	-5002
edr	-5003
▁ülkede	-5004
▁hid	-5005
▁Üç	-5006
16	-5007
▁Parkı	-5008
www	-5009
▁Mana	-5010
rama	-5011
▁um	-5012
▁yapılacak	-5013
▁sertifik	-5014
▁inşaat	-5015
▁Herhangi	-5016
▁aygıt	-5017
▁İran	-5018
▁bakış	-5019
▁yakınındadır	-5020
▁konuşma	-5021
▁yazın	-5022
▁Cap	-5023
▁Ankara	-5024
amı	-5025
▁pom	-5026
▁yaptık	-5027
▁World	-5028
ary	-5029
▁Sol	-5030
▁sonuçları	-5031
din	-5032
▁biçimde	-5033
▁şab	-5034
▁BM	-5035
▁lezz	-5036
▁saati	-5037
▁bağlantılı	-5038
▁diya	-5039
▁hesabı	-5040
ükle	-5041
eton	-5042
lığına	-5043
▁günde	-5044
▁sıfır	-5045
▁kenar	-5046
iyorsanız	-5047
▁eklemek	-5048
▁uygulamasını	-5049
▁Hostel	-5050
▁cüzdan	-5051
▁düğmesine	-5052
▁blok	-5053
▁değiştirmek	-5054
▁hakkına	-5055
▁verit	-5056
▁Programı	-5057
▁Sc	-5058
Özel	-5059
Ben	-5060
▁ruh	-5061
enize	-5062
▁Mısır	-5063
▁denetim	-5064
▁çoğ	-5065
layacak	-5066
▁bağlantısı	-5067
▁Tasarım	-5068
▁güncelleştir	-5069
▁donatılmıştır	-5070
▁keşfet	-5071
WL	-5072
▁2011	-5073
look	-5074
▁kumaş	-5075
lip	-5076
▁Araştırma	-5077
▁indirin	-5078
▁kus	-5079
cağız	-5080
▁açılır	-5081
Kişisel	-5082
mir	-5083
▁yöntemi	-5084
ji	-5085
▁elem	-5086
▁ölçüm	-5087
▁açıklamada	-5088
▁gem	-5089
▁7.	-5090
▁kanser	-5091
▁set	-5092
▁pantolon	-5093
Not	-5094
▁Char	-5095
▁odalarında	-5096
▁sonuc	-5097
▁olduğuna	-5098
▁ettik	-5099
▁Sor	-5100
▁bon	-5101
▁ch	-5102
▁malzemeler	-5103
▁Hakk	-5104
▁koşulları	-5105
▁gerektiğini	-5106
▁keşfed	-5107
▁Batı	-5108
▁aktivit	-5109
▁32	-5110
amuk	-5111
isiz	-5112
dy	-5113
▁üye	-5114
▁virüs	-5115
gn	-5116
▁Yıld	-5117
▁Sim	-5118
mosyon	-5119
▁irtib	-5120
▁2000	-5121
▁ışı	-5122
▁gücü	-5123
▁giyim	-5124
▁tas	-5125
ilerek	-5126
▁Mik	-5127
gam	-5128
▁belli	-5129
▁şeklinde	-5130
▁part	-5131
▁kağı	-5132
oto	-5133
▁teşekkür	-5134
▁vizyon	-5135
▁işe	-5136
▁hac	-5137
▁be	-5138
liğinin	-5139
gisi	-5140
4)	-5141
taur	-5142
▁Kaynak	-5143
azer	-5144
▁Tat	-5145
▁görüntüle	-5146
▁spa	-5147
landırma	-5148
▁grubu	-5149
▁düşür	-5150
▁soğuk	-5151
▁Müşteri	-5152
▁Politikası	-5153
▁aylık	-5154
▁Burada	-5155
▁misafirlere	-5156
ahh	-5157
lec	-5158
okol	-5159
urta	-5160
alım	-5161
Posta	-5162
▁sokak	-5163
uta	-5164
▁kalitesi	-5165
▁2021	-5166
▁doğrultusunda	-5167
▁Çık	-5168
▁problem	-5169
estival	-5170
bat	-5171
nden	-5172
▁Cihaz	-5173
▁süper	-5174
▁ifad	-5175
▁=	-5176
▁Ah	-5177
▁gazet	-5178
erji	-5179
▁bağlıdır	-5180
▁Fiyat	-5181
▁ac	-5182
yaz	-5183
▁olanağı	-5184
ılıyor	-5185
▁özelleştir	-5186
▁dağıt	-5187
▁Spor	-5188
▁nesn	-5189
▁Doğru	-5190
▁kodu	-5191
▁İsviçre	-5192
▁ettiğiniz	-5193
▁listelen	-5194
▁hap	-5195
▁konforlu	-5196
▁buna	-5197
malısınız	-5198
▁tarif	-5199
▁tutmak	-5200
▁yasak	-5201
▁koleksiyon	-5202
lant	-5203
▁90	-5204
▁paketi	-5205
▁genelinde	-5206
▁daire	-5207
▁karbon	-5208
Misafirler	-5209
▁dep	-5210
▁uyarı	-5211
▁sorumluluk	-5212
low	-5213
outh	-5214
tıyor	-5215
▁engelley	-5216
ende	-5217
▁Jo	-5218
veç	-5219
▁Ali	-5220
Hotel	-5221
▁Trans	-5222
▁biy	-5223
▁Böylece	-5224
Odigeo	-5225
OdigeoWL	-5226
▁BookingOdigeoWL	-5227
▁Haber	-5228
▁vurgu	-5229
gileri	-5230
ida	-5231
▁numara	-5232
▁Pala	-5233
ks	-5234
▁doğum	-5235
▁bazıları	-5236
▁Çünkü	-5237
▁metro	-5238
▁Üst	-5239
va	-5240
oks	-5241
▁by	-5242
▁edilmektedir	-5243
ition	-5244
başkanı	-5245
ald	-5246
▁kurulan	-5247
ass	-5248
▁bireysel	-5249
▁çalışmaları	-5250
▁Saat	-5251
ail	-5252
▁bulunma	-5253
örn	-5254
▁pansiyon	-5255
erik	-5256
▁Para	-5257
▁artırmak	-5258
▁Bus	-5259
erial	-5260
▁My	-5261
▁Kıbrıs	-5262
org	-5263
▁fiyatları	-5264
apın	-5265
▁stil	-5266
▁Japonya	-5267
▁Hil	-5268
▁vitamini	-5269
DP	-5270
lığın	-5271
ısıyla	-5272
▁70	-5273
obe	-5274
▁Yönetimi	-5275
gal	-5276
▁alanları	-5277
▁davranış	-5278
▁alarak	-5279
▁sıvı	-5280
▁yapımı	-5281
▁çiçek	-5282
▁hakkını	-5283
▁öğrenci	-5284
▁etki	-5285
▁havalimanından	-5286
Kullan	-5287
itr	-5288
▁diy	-5289
▁fer	-5290
▁Boy	-5291
hats	-5292
▁sitesinin	-5293
▁karmaşık	-5294
ath	-5295
luluğu	-5296
▁Özellikleri	-5297
▁yüzyıl	-5298
▁Mc	-5299
▁Amazon	-5300
lamayı	-5301
▁oluşur	-5302
▁Pal	-5303
▁öden	-5304
▁Mev	-5305
▁Polonya	-5306
▁sabah	-5307
▁Çöz	-5308
▁geçerlidir	-5309
oo	-5310
▁Yas	-5311
İs	-5312
ürlüğ	-5313
meni	-5314
▁eklem	-5315
▁kurulu	-5316
6,	-5317
rid	-5318
ake	-5319
▁sanayi	-5320
▁Avusturya	-5321
ysanız	-5322
ayet	-5323
▁bölge	-5324
▁oluşturur	-5325
▁Nok	-5326
▁5.0	-5327
▁Sab	-5328
▁ulaşabilirsiniz	-5329
▁sürdürülebilir	-5330
▁Intel	-5331
▁yansı	-5332
▁tedavisi	-5333
ates	-5334
▁uygundur	-5335
14	-5336
▁hayal	-5337
▁yarı	-5338
▁64	-5339
▁olmasını	-5340
▁Ör	-5341
▁öncesi	-5342
▁gereklidir	-5343
▁öğrenmek	-5344
ulması	-5345
▁sağlam	-5346
▁Est	-5347
▁platformu	-5348
▁bulundu	-5349
▁Siya	-5350
▁halka	-5351
ilmektedir	-5352
▁pişir	-5353
ware	-5354
▁Duty	-5355
▁henüz	-5356
35	-5357
▁sey	-5358
▁sap	-5359
▁ölçek	-5360
▁temin	-5361
▁Müzik	-5362
Google	-5363
▁kullanılarak	-5364
▁öng	-5365
▁üniversit	-5366
▁hızı	-5367
bilmek	-5368
▁Lisans	-5369
▁İr	-5370
▁Lin	-5371
▁bunların	-5372
9,	-5373
▁altyap	-5374
▁zaten	-5375
▁talimat	-5376
▁mutlu	-5377
▁aj	-5378
ytics	-5379
berg	-5380
▁konuma	-5381
▁çekin	-5382
▁değişim	-5383
▁Arab	-5384
▁güm	-5385
▁toptan	-5386
200	-5387
TR	-5388
▁Tren	-5389
El	-5390
▁Bizim	-5391
▁kalıcı	-5392
▁konuda	-5393
▁seçeneğini	-5394
▁büyüm	-5395
Or	-5396
▁Düş	-5397
▁Otomatik	-5398
▁Rad	-5399
▁bulundur	-5400
▁des	-5401
▁şeyler	-5402
sur	-5403
▁Club	-5404
▁asla	-5405
▁aşağıdak	-5406
▁konaklamanız	-5407
▁esas	-5408
▁seçmek	-5409
▁montaj	-5410
▁Yatak	-5411
▁edinin	-5412
erse	-5413
ımıza	-5414
tle	-5415
▁vide	-5416
arıyla	-5417
8,	-5418
▁eğlence	-5419
▁Bilgiler	-5420
▁kadınlar	-5421
▁Oy	-5422
▁pozisyon	-5423
▁kullanabil	-5424
▁Inc	-5425
itör	-5426
▁alabilir	-5427
▁muhtem	-5428
ela	-5429
İngil	-5430
▁karşılamak	-5431
-4	-5432
▁Aut	-5433
▁Call	-5434
▁dönüşüm	-5435
▁kilo	-5436
▁Rab	-5437
▁Uzun	-5438
▁göndermek	-5439
udio	-5440
▁kaybı	-5441
Web	-5442
▁bölümünde	-5443
▁ısıtıcı	-5444
▁ab	-5445
acağız	-5446
els	-5447
▁İspanyol	-5448
ayıf	-5449
▁CD	-5450
▁Plajı	-5451
▁nüf	-5452
▁Tarihi	-5453
▁Dışişleri	-5454
▁yenilikçi	-5455
▁akadem	-5456
▁150	-5457
▁AL	-5458
▁sınav	-5459
▁verici	-5460
tör	-5461
▁Venere	-5462
TP	-5463
▁kapak	-5464
▁Express	-5465
arl	-5466
antı	-5467
acağı	-5468
▁kayd	-5469
▁gide	-5470
▁korunuyor	-5471
Windows	-5472
bileceği	-5473
▁Museum	-5474
▁öne	-5475
▁orada	-5476
▁miktarı	-5477
▁olmadığı	-5478
▁düzenlen	-5479
sedür	-5480
▁"4.	-5481
esiden	-5482
▁so	-5483
▁temizleme	-5484
rit	-5485
▁gezgin	-5486
Bil	-5487
▁buraya	-5488
64	-5489
▁çevres	-5490
▁Teknik	-5491
▁kablolu	-5492
çisi	-5493
▁Oyunları	-5494
ğın	-5495
▁civ	-5496
▁düzeyde	-5497
▁fakat	-5498
▁düzenleme	-5499
ual	-5500
ıcılar	-5501
▁yeten	-5502
▁Sn	-5503
▁sürede	-5504
dum	-5505
dığından	-5506
▁başken	-5507
▁Yet	-5508
▁itir	-5509
▁bölgesine	-5510
▁sonrasında	-5511
▁yatır	-5512
zerbay	-5513
▁ekipmanları	-5514
▁kendini	-5515
▁otomobil	-5516
▁masaj	-5517
ydı	-5518
▁Bre	-5519
yabilir	-5520
▁oluşturun	-5521
▁yolcu	-5522
▁lam	-5523
▁oluyor	-5524
▁vücud	-5525
▁yenil	-5526
▁basınç	-5527
▁dola	-5528
"".	-5529
▁0,	-5530
▁tıbbi	-5531
mon	-5532
▁sebeb	-5533
▁ülkenin	-5534
üyü	-5535
▁Apartment	-5536
▁öğle	-5537
▁garant	-5538
▁kullanılması	-5539
▁Ku	-5540
ilasyon	-5541
Hz	-5542
▁katkıda	-5543
▁çerezler	-5544
▁endüstriyel	-5545
atistik	-5546
▁ka	-5547
▁bayan	-5548
leşt	-5549
▁bilet	-5550
enn	-5551
▁yüklem	-5552
▁Yakın	-5553
▁hisset	-5554
▁Berlin	-5555
▁istiyorum	-5556
▁çözümler	-5557
embe	-5558
ann	-5559
▁Geliştir	-5560
taurant	-5561
▁sunulur	-5562
vat	-5563
▁$2	-5564
▁zorunlu	-5565
▁sana	-5566
tain	-5567
evk	-5568
▁tehdit	-5569
▁eğlenceli	-5570
▁dağıtım	-5571
elerden	-5572
▁nesil	-5573
bileceğini	-5574
ırken	-5575
▁rul	-5576
▁Ülk	-5577
▁seçebilirsiniz	-5578
▁çaba	-5579
▁dis	-5580
▁sürece	-5581
▁tecrüb	-5582
▁üreticisi	-5583
▁(1)	-5584
▁Çevr	-5585
▁kalma	-5586
une	-5587
▁Antalya	-5588
▁bozuk	-5589
▁temas	-5590
▁Lit	-5591
▁varlık	-5592
▁SP	-5593
duğunu	-5594
▁yaşa	-5595
▁tr	-5596
isinden	-5597
zerbaycan	-5598
arka	-5599
▁götür	-5600
▁şunları	-5601
▁Diş	-5602
▁yazar	-5603
▁Macar	-5604
▁modelleri	-5605
-5	-5606
▁Ekonom	-5607
kar	-5608
▁len	-5609
▁başlar	-5610
lediği	-5611
iti	-5612
▁incelem	-5613
IT	-5614
▁Size	-5615
▁mikrodalga	-5616
oğlu	-5617
▁Güneş	-5618
ilerinin	-5619
iydi	-5620
▁Kurum	-5621
▁açılı	-5622
lit	-5623
▁kusur	-5624
▁bizi	-5625
Sh	-5626
▁nedeni	-5627
▁heyecan	-5628
▁manzara	-5629
▁Kul	-5630
▁yetişkin	-5631
don	-5632
şehir	-5633
▁detaylı	-5634
orth	-5635
▁egzersiz	-5636
▁kuvvet	-5637
ott	-5638
work	-5639
▁çözümleri	-5640
▁köy	-5641
▁organizasyon	-5642
▁kanun	-5643
ezg	-5644
▁yapılması	-5645
▁ettir	-5646
▁verilerinizin	-5647
▁ömr	-5648
▁eb	-5649
▁kullanıcıları	-5650
▁So	-5651
par	-5652
▁uzaktan	-5653
layıp	-5654
ena	-5655
▁çekici	-5656
▁Outlook	-5657
▁bölgesindeki	-5658
▁sağlayacak	-5659
lisi	-5660
elle	-5661
yeni	-5662
▁bina	-5663
▁yılın	-5664
inizle	-5665
▁Eş	-5666
yız	-5667
▁Kir	-5668
▁yaşayan	-5669
▁arşivlendi	-5670
Konuklar	-5671
ico	-5672
▁bitk	-5673
....	-5674
stanbul	-5675
diya	-5676
▁birinci	-5677
▁yaklaşım	-5678
ulmuş	-5679
▁Etkin	-5680
▁miktarda	-5681
▁—	-5682
▁örneğin	-5683
ance	-5684
wood	-5685
▁otelin	-5686
etli	-5687
tey	-5688
▁anlat	-5689
95	-5690
▁SS	-5691
▁dikkate	-5692
▁cihazlar	-5693
▁yetkil	-5694
ase	-5695
tiğiniz	-5696
▁Note	-5697
▁Test	-5698
▁etkilen	-5699
OT	-5700
▁güney	-5701
▁imza	-5702
▁değiştirme	-5703
▁uygulanan	-5704
▁AC	-5705
18	-5706
▁saf	-5707
▁şans	-5708
lock	-5709
lis	-5710
▁Bankası	-5711
▁hızla	-5712
ediğiniz	-5713
▁erkekler	-5714
▁zemin	-5715
Ch	-5716
▁tanır	-5717
▁yüklemek	-5718
▁sefer	-5719
▁Gro	-5720
▁alanlarda	-5721
▁çalışmak	-5722
▁aşama	-5723
▁büt	-5724
▁Oper	-5725
▁Koruma	-5726
▁Ödülü	-5727
▁yerleş	-5728
▁ürünlerin	-5729
çük	-5730
▁İk	-5731
▁takdirde	-5732
▁ED	-5733
▁yapmaya	-5734
ılmasını	-5735
▁yaparak	-5736
bahar	-5737
▁kesme	-5738
bek	-5739
mad	-5740
çika	-5741
▁Flor	-5742
▁veriyor	-5743
ever	-5744
▁biliyor	-5745
fak	-5746
▁makale	-5747
▁konuklar	-5748
7,	-5749
▁finansal	-5750
▁yapılmış	-5751
▁istasyonuna	-5752
▁taban	-5753
2)	-5754
iver	-5755
▁çevresinde	-5756
ektörü	-5757
▁yaparken	-5758
▁çerçevesinde	-5759
▁ayarları	-5760
--	-5761
▁birik	-5762
▁çekme	-5763
lışveriş	-5764
▁Eski	-5765
▁hediye	-5766
▁Tip	-5767
liğin	-5768
▁isterseniz	-5769
ila	-5770
▁emanet	-5771
▁büyü	-5772
▁Hem	-5773
ora	-5774
▁dük	-5775
▁fatur	-5776
kel	-5777
▁bölümü	-5778
▁gelin	-5779
inema	-5780
▁Onlar	-5781
EF	-5782
OP	-5783
▁sunduğu	-5784
▁Modern	-5785
▁koşullar	-5786
uck	-5787
▁rehber	-5788
▁Giriş	-5789
lass	-5790
▁co	-5791
Kur	-5792
saat	-5793
▁Kend	-5794
▁kamp	-5795
▁prosedür	-5796
▁bür	-5797
▁İletişim	-5798
▁döş	-5799
▁hattı	-5800
ife	-5801
afaz	-5802
▁gay	-5803
▁Rec	-5804
▁alg	-5805
▁AS	-5806
âhil	-5807
▁zincir	-5808
aka	-5809
dikleri	-5810
▁lideri	-5811
▁Kart	-5812
▁Kayıt	-5813
▁saklı	-5814
▁performansı	-5815
▁fitness	-5816
▁kuzey	-5817
▁sözleşme	-5818
13	-5819
▁yapıla	-5820
ling	-5821
değiştir	-5822
▁kalmak	-5823
▁Hizmeti	-5824
▁testi	-5825
▁Super	-5826
ardı	-5827
Aş	-5828
▁anlay	-5829
▁enfeksiyon	-5830
▁Meydan	-5831
▁taşın	-5832
artesi	-5833
▁ı	-5834
▁refer	-5835
▁sinyal	-5836
▁Evet	-5837
▁adresine	-5838
▁Instagram	-5839
hou	-5840
stri	-5841
leşme	-5842
▁Arama	-5843
fet	-5844
kz	-5845
▁Japon	-5846
▁Lazer	-5847
imizde	-5848
caksınız	-5849
▁bitir	-5850
▁Sing	-5851
▁sırada	-5852
▁Wh	-5853
▁yavaş	-5854
ekil	-5855
▁bant	-5856
▁his	-5857
▁siyasi	-5858
uklu	-5859
▁oynamak	-5860
▁"10	-5861
anlık	-5862
▁kıl	-5863
çileri	-5864
▁misafirler	-5865
▁Mut	-5866
▁zeytin	-5867
▁oyuncak	-5868
▁nem	-5869
▁lok	-5870
▁Analytics	-5871
▁şehrini	-5872
ras	-5873
▁duyurdu	-5874
BM	-5875
▁Kara	-5876
lamaktadır	-5877
▁arada	-5878
▁Otelin	-5879
Haritada	-5880
▁kullanmaya	-5881
▁başında	-5882
▁nelerdir	-5883
▁Standart	-5884
geç	-5885
lanacak	-5886
Press	-5887
▁minibar	-5888
▁kamer	-5889
sam	-5890
▁İh	-5891
▁Hesap	-5892
▁İsa	-5893
▁Nedir	-5894
▁yapmaktadır	-5895
▁Soru	-5896
▁İslam	-5897
▁atın	-5898
▁göl	-5899
anları	-5900
au	-5901
ford	-5902
▁Görüntülemek	-5903
ginç	-5904
▁Dil	-5905
4'	-5906
▁dâhil	-5907
ors	-5908
ülmesi	-5909
rome	-5910
tığını	-5911
imini	-5912
▁Kültür	-5913
▁Şu	-5914
▁taahh	-5915
▁Pet	-5916
tein	-5917
▁EN	-5918
▁Art	-5919
▁konumu	-5920
ışın	-5921
▁menü	-5922
memiş	-5923
▁kalbinde	-5924
▁stok	-5925
▁mimari	-5926
▁kaçır	-5927
▁dinlenme	-5928
▁Go	-5929
get	-5930
▁se	-5931
▁indirme	-5932
▁oteldir	-5933
▁aşa	-5934
▁maden	-5935
▁Cre	-5936
eria	-5937
▁satışa	-5938
ezya	-5939
Bo	-5940
▁şunlardır	-5941
▁kaldırmak	-5942
▁URL	-5943
▁atı	-5944
▁optimize	-5945
▁alüminyum	-5946
eyebilirsiniz	-5947
▁istik	-5948
olik	-5949
▁Grup	-5950
ble	-5951
uştur	-5952
▁Tim	-5953
ıldığında	-5954
▁vektör	-5955
▁AR	-5956
▁Onun	-5957
▁Farklı	-5958
▁engelleyicileri	-5959
▁beklenen	-5960
▁Mini	-5961
iliğ	-5962
▁Hangi	-5963
etin	-5964
uzu	-5965
Ul	-5966
▁eser	-5967
▁Bal	-5968
▁diyor	-5969
▁cerrah	-5970
▁birimi	-5971
iliyor	-5972
▁beğen	-5973
▁kadros	-5974
ilikon	-5975
layınız	-5976
▁Bulgar	-5977
elerle	-5978
▁kaydı	-5979
lığının	-5980
asıyla	-5981
▁Nakliye	-5982
▁param	-5983
▁Bey	-5984
afe	-5985
▁alb	-5986
▁sağlanan	-5987
SA	-5988
▁görünür	-5989
▁Mühendis	-5990
▁bab	-5991
▁Excel	-5992
▁yapısı	-5993
▁Yayın	-5994
▁zevk	-5995
çin	-5996
▁Hük	-5997
▁edeceğ	-5998
Dev	-5999
▁maliyeti	-6000
▁yapacak	-6001
▁şüph	-6002
▁vadeli	-6003
sim	-6004
▁bölgede	-6005
RO	-6006
üksek	-6007
▁alanlarında	-6008
kat	-6009
sızlık	-6010
▁dinamik	-6011
▁uzat	-6012
▁isteğe	-6013
MP	-6014
▁bö	-6015
▁sayılı	-6016
▁ihtiyacı	-6017
ste	-6018
▁Dern	-6019
ys	-6020
Uy	-6021
▁deneyin	-6022
iner	-6023
▁şablon	-6024
lemeye	-6025
▁Belçika	-6026
nuv	-6027
▁düzenlemek	-6028
▁zayıf	-6029
İŞ	-6030
onim	-6031
▁isimler	-6032
▁yemekleri	-6033
Mic	-6034
▁sarı	-6035
atik	-6036
▁Hakkında	-6037
▁hâ	-6038
▁teras	-6039
▁yaşında	-6040
▁Renk	-6041
▁Sec	-6042
▁tarayıc	-6043
melidir	-6044
▁Enstit	-6045
▁kayıp	-6046
▁Kalite	-6047
▁kral	-6048
▁katılımcı	-6049
▁yerlerde	-6050
▁saygı	-6051
▁kanseri	-6052
▁vergi	-6053
ls	-6054
▁yalı	-6055
ümüzde	-6056
▁Hukuk	-6057
▁satır	-6058
▁Cal	-6059
▁olmasına	-6060
▁2019	-6061
▁sertifika	-6062
▁fazlasını	-6063
▁Wars	-6064
diven	-6065
▁beni	-6066
▁oteli	-6067
▁robot	-6068
inme	-6069
ğanüstü	-6070
▁eşsiz	-6071
ağa	-6072
▁Form	-6073
▁Üy	-6074
▁ilave	-6075
▁eyalet	-6076
irken	-6077
▁çoğun	-6078
▁hayatını	-6079
eta	-6080
▁özelliklerini	-6081
IZ	-6082
▁Ros	-6083
▁giden	-6084
▁kaynakları	-6085
▁bilimsel	-6086
ited	-6087
lanmasını	-6088
▁civar	-6089
▁Millet	-6090
▁Fakült	-6091
▁türleri	-6092
Tek	-6093
▁Reklam	-6094
▁işletme	-6095
▁SQL	-6096
▁doku	-6097
▁yerini	-6098
▁Arka	-6099
▁petrol	-6100
▁eklent	-6101
19	-6102
▁Bon	-6103
▁sisteminin	-6104
1)	-6105
tığınızda	-6106
▁Politika	-6107
▁yakındır	-6108
▁Haf	-6109
ago	-6110
▁paslanmaz	-6111
▁Pot	-6112
▁varsayılan	-6113
▁197	-6114
▁seri	-6115
▁şaş	-6116
isesi	-6117
-19	-6118
5'	-6119
▁gitmek	-6120
▁Makinesi	-6121
ektif	-6122
▁yetkili	-6123
isyen	-6124
ülasyon	-6125
ograf	-6126
▁manzarası	-6127
▁sessiz	-6128
lic	-6129
▁Restaurant	-6130
Station	-6131
▁yaklaş	-6132
▁tıkla	-6133
▁sıkı	-6134
▁kişilerin	-6135
post	-6136
ezilya	-6137
▁barındır	-6138
▁Satış	-6139
▁dili	-6140
iriz	-6141
kol	-6142
▁katman	-6143
larım	-6144
▁sürümünü	-6145
tive	-6146
mamız	-6147
▁Ep	-6148
▁buluş	-6149
▁ürünün	-6150
▁gr	-6151
▁yor	-6152
menistan	-6153
▁Özellikler	-6154
▁www	-6155
sini	-6156
▁almaya	-6157
ladığımız	-6158
var	-6159
▁Ayarlar	-6160
▁gecik	-6161
▁itiraz	-6162
▁ani	-6163
▁çant	-6164
akende	-6165
▁hastalığı	-6166
▁Trump	-6167
▁Sitesi	-6168
▁Odalarda	-6169
▁Mor	-6170
enkul	-6171
▁Bağlantı	-6172
cess	-6173
chan	-6174
▁Güzel	-6175
▁şirketin	-6176
effaf	-6177
▁şehrin	-6178
▁başkan	-6179
▁24-	-6180
▁Hep	-6181
▁Temiz	-6182
▁8.	-6183
▁belirtti	-6184
▁anında	-6185
▁Alışveriş	-6186
yabilirsiniz	-6187
örf	-6188
▁pratik	-6189
avi	-6190
▁hariç	-6191
TV	-6192
▁Sek	-6193
▁izlemek	-6194
▁siteleri	-6195
▁acil	-6196
▁Material	-6197
etooth	-6198
his	-6199
▁Dubai	-6200
▁sergil	-6201
eşitli	-6202
aklama	-6203
▁Ödül	-6204
hael	-6205
▁ilişkili	-6206
▁Norveç	-6207
▁tör	-6208
▁Siz	-6209
▁5,	-6210
▁2009	-6211
▁kullanıma	-6212
▁yapılmaktadır	-6213
fik	-6214
▁yakıt	-6215
leşmiş	-6216
oom	-6217
▁AD	-6218
▁çerezleri	-6219
phan	-6220
▁uzaklıktaki	-6221
ürt	-6222
Sa	-6223
öm	-6224
▁pi	-6225
▁kaynağından	-6226
▁kurt	-6227
▁"201	-6228
lemesi	-6229
▁Önc	-6230
▁İrlanda	-6231
▁Paul	-6232
ita	-6233
▁semtinde	-6234
bur	-6235
▁tatlı	-6236
▁ulaşabilirler	-6237
Point	-6238
hatsApp	-6239
▁Sigara	-6240
Ak	-6241
▁değişiklikler	-6242
▁Pu	-6243
▁31	-6244
ileş	-6245
32	-6246
borat	-6247
▁yılda	-6248
▁pamuk	-6249
▁Mag	-6250
▁kaçın	-6251
▁Ayar	-6252
iness	-6253
▁sağlıyor	-6254
3)	-6255
▁OEM	-6256
▁Me	-6257
▁edinmek	-6258
▁çubuğ	-6259
▁ann	-6260
ikâ	-6261
▁tanıtım	-6262
▁promosyon	-6263
▁Çerez	-6264
▁Başbak	-6265
▁Azerbaycan	-6266
▁müda	-6267
▁gözden	-6268
eğini	-6269
Ön	-6270
▁İnsanlar	-6271
▁Garden	-6272
▁ner	-6273
▁ağaç	-6274
▁açma	-6275
▁yönetmen	-6276
unes	-6277
▁mağaza	-6278
6)	-6279
▁pansiyonlar	-6280
▁Tok	-6281
acağını	-6282
anızı	-6283
larımızı	-6284
▁yayınlandı	-6285
örün	-6286
▁yumurta	-6287
▁kullanıcının	-6288
▁Sizin	-6289
metik	-6290
yolu	-6291
bilmektedir	-6292
▁toplama	-6293
▁şehri	-6294
nam	-6295
air	-6296
▁belirlemek	-6297
▁cins	-6298
▁Şey	-6299
gue	-6300
▁konferans	-6301
tuğ	-6302
▁HP	-6303
unuzda	-6304
▁Elektrik	-6305
▁Taşı	-6306
▁Günü	-6307
OD	-6308
▁çalışması	-6309
▁yapmanız	-6310
inizden	-6311
▁verilir	-6312
▁laborat	-6313
▁sürer	-6314
▁olumlu	-6315
▁yetiştir	-6316
ilmesine	-6317
ilmez	-6318
▁güncelleme	-6319
▁Olu	-6320
raz	-6321
ilendir	-6322
▁Far	-6323
▁oluşturulan	-6324
lıca	-6325
Er	-6326
▁Fu	-6327
▁sivil	-6328
limalı	-6329
▁keyif	-6330
▁Motor	-6331
▁tıklayarak	-6332
ST	-6333
larımıza	-6334
▁Centre	-6335
▁ederken	-6336
▁Hırvat	-6337
app	-6338
▁özgür	-6339
landiya	-6340
▁alınması	-6341
▁Grubu	-6342
▁Ap	-6343
lamalı	-6344
iplo	-6345
▁Gön	-6346
Ancak	-6347
▁kayak	-6348
▁memnuniyet	-6349
▁bahis	-6350
▁taşıyan	-6351
Otelin	-6352
dev	-6353
▁Değer	-6354
▁==	-6355
▁birinin	-6356
▁bulaşık	-6357
▁Malz	-6358
biliyor	-6359
NC	-6360
▁çözümü	-6361
▁USD	-6362
▁ulaşın	-6363
▁Enter	-6364
▁Model	-6365
▁Game	-6366
▁Ka	-6367
▁Cumhurbaşkanı	-6368
ima	-6369
▁Pe	-6370
▁roman	-6371
omb	-6372
▁İp	-6373
▁sandal	-6374
▁raf	-6375
ical	-6376
▁bunlar	-6377
▁araçlar	-6378
by	-6379
imarka	-6380
▁yerinde	-6381
▁Neler	-6382
▁kanallı	-6383
▁azaltmak	-6384
▁sitesine	-6385
▁gerektirir	-6386
▁ekstra	-6387
▁bardağı	-6388
▁Watch	-6389
▁yıldır	-6390
uçları	-6391
▁okuyun	-6392
▁ameliyat	-6393
▁döndür	-6394
Ex	-6395
5,	-6396
usuna	-6397
ışlı	-6398
ümüzdeki	-6399
▁faydalan	-6400
▁olacağını	-6401
▁doğa	-6402
▁örneği	-6403
▁şah	-6404
osh	-6405
▁Platfor	-6406
▁Univers	-6407
▁dönüştürmek	-6408
▁sauna	-6409
▁Enerji	-6410
▁yast	-6411
eveyn	-6412
▁bakımı	-6413
▁anlaşma	-6414
▁üretilen	-6415
tuk	-6416
▁parti	-6417
ette	-6418
▁kısmı	-6419
▁Tamam	-6420
▁Eth	-6421
tayız	-6422
▁Otelde	-6423
▁Jack	-6424
▁sonu	-6425
▁koruyucu	-6426
ükleer	-6427
ilip	-6428
▁zorluk	-6429
▁artan	-6430
▁__	-6431
▁mezun	-6432
▁kişiye	-6433
▁havaalanına	-6434
▁nih	-6435
▁unsur	-6436
▁James	-6437
▁kullanıyor	-6438
sul	-6439
▁kazandır	-6440
niyet	-6441
▁beceriler	-6442
▁XP	-6443
OB	-6444
▁etrafında	-6445
▁taze	-6446
uru	-6447
işmiş	-6448
▁tuşuna	-6449
▁Emir	-6450
▁Yes	-6451
lamaları	-6452
▁süs	-6453
▁Aka	-6454
6'	-6455
▁karşılaş	-6456
▁bulunmak	-6457
laf	-6458
uluğ	-6459
▁buton	-6460
▁modu	-6461
▁meyve	-6462
▁360	-6463
ülecek	-6464
rum	-6465
▁5.0/5	-6466
ranı	-6467
▁bekleniyor	-6468
▁Up	-6469
▁entegr	-6470
▁Kup	-6471
▁Tech	-6472
▁Download	-6473
verter	-6474
▁kalır	-6475
▁kazandı	-6476
.2	-6477
▁havalimanı	-6478
▁ap	-6479
▁itibarıyla	-6480
▁çıkarmak	-6481
ektedir	-6482
▁izley	-6483
ndaki	-6484
▁kariyer	-6485
ashion	-6486
şturma	-6487
ekler	-6488
PU	-6489
ediği	-6490
▁arayın	-6491
Tar	-6492
uğu	-6493
inler	-6494
▁diyet	-6495
raman	-6496
▁öğretim	-6497
▁rakip	-6498
▁kavram	-6499
▁Akdeniz	-6500
▁Lüks	-6501
▁cinsel	-6502
▁uzantı	-6503
▁üyeleri	-6504
▁ücretli	-6505
enizin	-6506
ason	-6507
▁gözlem	-6508
ee	-6509
▁frag	-6510
my	-6511
ınızla	-6512
▁nefes	-6513
▁pah	-6514
▁alanına	-6515
▁Bununla	-6516
ental	-6517
▁söylüyor	-6518
▁kolaydır	-6519
▁Konseyi	-6520
lanabilirler	-6521
▁yüklü	-6522
▁sahipliği	-6523
▁Golf	-6524
lix	-6525
▁çıkarı	-6526
Top	-6527
übü	-6528
▁bağış	-6529
▁Van	-6530
ulur	-6531
erit	-6532
▁API	-6533
▁yapıştır	-6534
syon	-6535
▁OS	-6536
▁fiyatlar	-6537
▁Residen	-6538
diğinizde	-6539
▁öt	-6540
▁Kılavuz	-6541
▁Meydanı	-6542
lıcı	-6543
▁ref	-6544
▁bulma	-6545
▁ilginç	-6546
ory	-6547
▁görebilirsiniz	-6548
hang	-6549
ayol	-6550
▁Squ	-6551
▁tutun	-6552
▁uzmanlaş	-6553
▁kalitesini	-6554
▁geliştirilen	-6555
▁mutluluk	-6556
örneğin	-6557
▁sta	-6558
▁sel	-6559
▁We	-6560
▁Sunu	-6561
▁göstermek	-6562
.'	-6563
▁oynatıcı	-6564
▁yerleri	-6565
oskova	-6566
▁demek	-6567
oter	-6568
▁Fakültesi	-6569
▁kumar	-6570
Item	-6571
▁Sonra	-6572
amaya	-6573
▁Bölg	-6574
▁Manager	-6575
pro	-6576
▁dekorasyon	-6577
▁rekabetçi	-6578
▁Dijital	-6579
▁çatı	-6580
▁çin	-6581
LC	-6582
▁sektöründe	-6583
▁havaalanından	-6584
imizden	-6585
▁400	-6586
▁yaralan	-6587
Bel	-6588
▁Home	-6589
▁mevzu	-6590
.."	-6591
▁WordPress	-6592
▁binlerce	-6593
▁Chris	-6594
▁gür	-6595
▁verin	-6596
▁muhafaz	-6597
▁sur	-6598
▁bı	-6599
▁Öde	-6600
▁küm	-6601
ener	-6602
88	-6603
Gel	-6604
▁olmaz	-6605
▁anket	-6606
17	-6607
▁Altın	-6608
▁yükümlülük	-6609
▁beyan	-6610
gütü	-6611
bilmesi	-6612
▁sonuçlar	-6613
);	-6614
HA	-6615
▁Paz	-6616
▁sanatçı	-6617
▁Satın	-6618
▁WiFi	-6619
▁maruz	-6620
▁atan	-6621
▁gösteriyor	-6622
▁Akıllı	-6623
▁Free	-6624
▁tane	-6625
▁oğlu	-6626
istin	-6627
üştü	-6628
▁Fransızca	-6629
orge	-6630
UM	-6631
▁Gran	-6632
▁ederiz	-6633
abanı	-6634
▁düğmesini	-6635
▁algı	-6636
▁kültürel	-6637
▁zarif	-6638
▁öğrenme	-6639
▁odaklı	-6640
▁ters	-6641
▁paylaşmak	-6642
▁Macaristan	-6643
▁bez	-6644
▁2'	-6645
▁PlayStation	-6646
▁Adobe	-6647
▁kelime	-6648
▁oynuyor	-6649
Detay	-6650
oker	-6651
▁Temel	-6652
▁öğrenin	-6653
▁Siyah	-6654
▁üstlen	-6655
imd	-6656
▁Po	-6657
azi	-6658
▁250	-6659
▁Mel	-6660
▁Cloud	-6661
▁indirim	-6662
▁List	-6663
▁kartları	-6664
▁kaldırma	-6665
jistik	-6666
bis	-6667
ıldığı	-6668
giler	-6669
▁Fır	-6670
▁yandan	-6671
▁olduğumuz	-6672
lamadan	-6673
▁etkiley	-6674
▁ücretsizdir	-6675
▁golf	-6676
▁üstü	-6677
▁Oyuncular	-6678
▁zamanında	-6679
▁şap	-6680
▁Bugün	-6681
▁göv	-6682
▁Dik	-6683
▁birimleri	-6684
▁kıyı	-6685
liliğini	-6686
▁Danimarka	-6687
▁seçeneğine	-6688
NA	-6689
▁yükleyin	-6690
▁birinde	-6691
ME	-6692
▁gereksinimleri	-6693
▁temizlik	-6694
▁olanaklar	-6695
▁sağlayabilir	-6696
▁videoları	-6697
▁sakin	-6698
eth	-6699
▁birine	-6700
ese	-6701
68	-6702
▁mümkündür	-6703
PA	-6704
▁misiniz	-6705
▁taahhüt	-6706
▁kayıtlı	-6707
▁adresinden	-6708
▁ster	-6709
▁pu	-6710
ove	-6711
umsuz	-6712
▁kütü	-6713
▁kayde	-6714
▁sorunuz	-6715
ımda	-6716
▁sahipsiniz	-6717
▁Finlandiya	-6718
Açık	-6719
▁Angel	-6720
▁seti	-6721
▁dikkatli	-6722
ahtarı	-6723
▁Hilton	-6724
▁telif	-6725
isiyle	-6726
▁Plaza	-6727
▁Buna	-6728
Yer	-6729
▁Du	-6730
▁düşman	-6731
▁Aj	-6732
▁bası	-6733
▁Toplantı	-6734
▁kıyas	-6735
cılığı	-6736
işik	-6737
mişti	-6738
epe	-6739
melerine	-6740
Sun	-6741
▁2.0	-6742
ınızdaki	-6743
48	-6744
▁link	-6745
▁kararı	-6746
▁Hiç	-6747
▁görülen	-6748
Genel	-6749
▁Win	-6750
▁misafirlerine	-6751
iski	-6752
▁onar	-6753
Kar	-6754
▁eğitimi	-6755
lıyoruz	-6756
▁konsol	-6757
▁SD	-6758
▁vaz	-6759
NS	-6760
▁numarasını	-6761
Via	-6762
▁istikrar	-6763
▁uygulamayı	-6764
erlek	-6765
amet	-6766
▁Etik	-6767
eliği	-6768
ılmasına	-6769
Ge	-6770
▁Yardımcısı	-6771
usunu	-6772
ısını	-6773
▁Yemek	-6774
▁sensör	-6775
ediler	-6776
▁7,	-6777
▁Seri	-6778
▁Royal	-6779
▁topluluk	-6780
▁Vol	-6781
▁TR	-6782
▁açıkça	-6783
▁aslında	-6784
liy	-6785
▁doğrulama	-6786
▁konumda	-6787
▁final	-6788
▁çocuğ	-6789
▁Bölgesi	-6790
▁alına	-6791
melisiniz	-6792
▁başı	-6793
CO	-6794
▁·	-6795
▁GT	-6796
▁Ef	-6797
▁Dair	-6798
Çev	-6799
stil	-6800
▁referans	-6801
ozit	-6802
▁uzay	-6803
feri	-6804
▁Bilim	-6805
▁verme	-6806
altı	-6807
rin	-6808
▁izni	-6809
usunun	-6810
▁miyim	-6811
abilen	-6812
kets	-6813
▁Pi	-6814
▁Name	-6815
ordin	-6816
▁istatistik	-6817
▁http	-6818
arch	-6819
▁Savaşı	-6820
.5	-6821
▁adresini	-6822
▁akademik	-6823
▁politikası	-6824
Avrupa	-6825
▁"5.	-6826
Aşağı	-6827
/2	-6828
ct	-6829
▁WhatsApp	-6830
emesi	-6831
▁sorunsuz	-6832
▁TÜ	-6833
▁Geniş	-6834
▁hek	-6835
üzgar	-6836
▁Sıcak	-6837
ağın	-6838
▁sürük	-6839
▁Med	-6840
▁Pen	-6841
dılar	-6842
orit	-6843
▁havalimanına	-6844
eyiz	-6845
▁birimler	-6846
▁çalışmalar	-6847
▁yönlü	-6848
▁düzgün	-6849
▁öğretmen	-6850
▁hip	-6851
ple	-6852
elendir	-6853
▁olumsuz	-6854
▁LCD	-6855
▁katıldı	-6856
▁Hazır	-6857
▁mür	-6858
▁önüne	-6859
▁defa	-6860
▁ayı	-6861
ole	-6862
▁sayfası	-6863
▁formu	-6864
▁civarında	-6865
Microsoft	-6866
ont	-6867
oma	-6868
yüz	-6869
▁sonucunda	-6870
▁2:	-6871
▁"6	-6872
▁makul	-6873
▁muhtemelen	-6874
▁bilgisi	-6875
▁Ta	-6876
linik	-6877
▁Pop	-6878
ilecektir	-6879
lerken	-6880
▁yaşındaki	-6881
▁Aile	-6882
ella	-6883
00'	-6884
▁aralık	-6885
▁tescil	-6886
▁klimalı	-6887
▁evde	-6888
dava	-6889
7)	-6890
▁6,	-6891
sası	-6892
▁Halk	-6893
▁tıklayınız	-6894
▁isimli	-6895
▁yüklen	-6896
7'	-6897
▁kalk	-6898
▁Ba	-6899
▁kollu	-6900
▁Chrome	-6901
▁Yen	-6902
irler	-6903
▁asker	-6904
Bunun	-6905
▁çor	-6906
iliği	-6907
▁etmeyi	-6908
▁logo	-6909
▁Artık	-6910
Dünya	-6911
▁Num	-6912
▁edici	-6913
otok	-6914
▁meşru	-6915
▁Lab	-6916
▁direkt	-6917
▁(5	-6918
▁hastalığ	-6919
▁ulaştı	-6920
düstri	-6921
istal	-6922
▁Lu	-6923
inç	-6924
▁yargı	-6925
▁Enstitüsü	-6926
işi	-6927
▁hepsi	-6928
üslüm	-6929
üye	-6930
sterdam	-6931
elikle	-6932
LA	-6933
▁acı	-6934
▁çantası	-6935
▁mücadel	-6936
▁kendisine	-6937
▁bol	-6938
ebileceğiniz	-6939
▁sunuc	-6940
▁fabrik	-6941
▁Ardından	-6942
▁Hastan	-6943
tın	-6944
▁pahalı	-6945
▁motoru	-6946
▁çıkart	-6947
▁sayfasında	-6948
▁olabilirsiniz	-6949
eyebilir	-6950
▁diyabet	-6951
▁tarihleri	-6952
▁Teknoloji	-6953
▁yakala	-6954
▁işlenmesi	-6955
▁etmesi	-6956
▁dans	-6957
33	-6958
İY	-6959
öğ	-6960
▁protokol	-6961
▁minimum	-6962
▁düğün	-6963
▁Jon	-6964
ğını	-6965
▁bilgisay	-6966
▁terası	-6967
eygam	-6968
▁işlevsel	-6969
acy	-6970
▁atık	-6971
▁taşınabilir	-6972
▁harca	-6973
▁turistik	-6974
▁di	-6975
▁cihazları	-6976
▁örg	-6977
yım	-6978
ean	-6979
▁bırakın	-6980
ty	-6981
ebileceğ	-6982
▁Dal	-6983
imin	-6984
▁bed	-6985
▁kaynaklanan	-6986
idge	-6987
▁bağlantıları	-6988
▁Romanya	-6989
izce	-6990
▁sahn	-6991
omot	-6992
▁olağanüstü	-6993
▁tüp	-6994
kal	-6995
▁ediliyor	-6996
▁Çevrimiçi	-6997
▁Bölümü	-6998
▁King	-6999
▁okuma	-7000
▁alınır	-7001
▁şaşır	-7002
özel	-7003
yaj	-7004
▁1:	-7005
▁uyan	-7006
▁başkenti	-7007
▁Shop	-7008
▁48	-7009
ımızda	-7010
▁Yeşil	-7011
▁Euro	-7012
▁faydalı	-7013
▁Saint	-7014
top	-7015
▁kombin	-7016
▁sir	-7017
▁sağlanmaktadır	-7018
latı	-7019
cher	-7020
Cloud	-7021
▁dönemde	-7022
satı	-7023
▁ortamda	-7024
aporu	-7025
▁modül	-7026
▁Michael	-7027
▁Bütün	-7028
▁Danış	-7029
▁Hesab	-7030
▁hakkındaki	-7031
▁trafik	-7032
▁belge	-7033
▁Fi	-7034
▁Prot	-7035
ati	-7036
larm	-7037
isco	-7038
▁anonim	-7039
▁çalışmaya	-7040
▁est	-7041
▁örnekleri	-7042
▁çözünürlük	-7043
sit	-7044
▁saha	-7045
▁saniye	-7046
▁kesint	-7047
▁karton	-7048
doğan	-7049
led	-7050
▁tamamlan	-7051
▁pompa	-7052
esk	-7053
siy	-7054
▁terör	-7055
▁kullanımını	-7056
▁EUR	-7057
▁Brezilya	-7058
▁piece	-7059
▁eksiksiz	-7060
▁Müşteriler	-7061
▁Sw	-7062
▁olabilecek	-7063
▁başta	-7064
ify	-7065
sine	-7066
▁Hot	-7067
Oyun	-7068
▁Sok	-7069
melerin	-7070
VC	-7071
▁artı	-7072
▁Harry	-7073
▁masaüstü	-7074
fon	-7075
▁söylem	-7076
▁dondur	-7077
▁bkz	-7078
▁becer	-7079
ysa	-7080
▁açılan	-7081
▁küvet	-7082
▁buhar	-7083
▁BA	-7084
dığına	-7085
Tunes	-7086
minal	-7087
▁büyüme	-7088
▁vir	-7089
▁mülkiyet	-7090
ashington	-7091
▁Hong	-7092
çesi	-7093
▁güvenliğini	-7094
vak	-7095
▁Başka	-7096
ayıcı	-7097
▁orman	-7098
uldu	-7099
field	-7100
▁bahar	-7101
▁tarama	-7102
▁günün	-7103
▁çizgi	-7104
otik	-7105
stem	-7106
▁şikayet	-7107
▁Moskova	-7108
arya	-7109
▁amaçlar	-7110
▁danışmanlık	-7111
▁FL	-7112
duğumuz	-7113
▁Sanayi	-7114
▁Madde	-7115
▁Birçok	-7116
cm	-7117
▁müşterilerin	-7118
▁yastık	-7119
▁na	-7120
▁Sarayı	-7121
yetik	-7122
▁Frank	-7123
▁Cat	-7124
iforn	-7125
▁Irak	-7126
▁İzmir	-7127
▁Ameri	-7128
▁uyku	-7129
▁duruyor	-7130
ledi	-7131
▁Aven	-7132
▁Kn	-7133
▁giyen	-7134
▁Palace	-7135
Man	-7136
▁Log	-7137
▁süredir	-7138
▁Converter	-7139
▁ihtiyaçlarını	-7140
ehri	-7141
gara	-7142
ft	-7143
▁besin	-7144
▁SEO	-7145
lamalar	-7146
▁odaklan	-7147
▁Organ	-7148
▁adresinizi	-7149
mazlık	-7150
▁giderek	-7151
▁görüntüler	-7152
▁parmak	-7153
▁ilgilenen	-7154
▁tema	-7155
ağının	-7156
▁koz	-7157
▁Gıda	-7158
▁dan	-7159
▁İmp	-7160
▁kazanmak	-7161
Bur	-7162
▁"19	-7163
▁verilerini	-7164
▁Hüküm	-7165
▁getirir	-7166
Şirket	-7167
▁mekanik	-7168
▁Kolay	-7169
▁polis	-7170
▁Tal	-7171
▁Full	-7172
vel	-7173
▁Vir	-7174
▁yaşlı	-7175
▁Service	-7176
▁olanlar	-7177
▁ic	-7178
▁Din	-7179
▁Bos	-7180
▁çağır	-7181
▁kaydır	-7182
eygamber	-7183
irv	-7184
▁sağlığı	-7185
▁Hırvatistan	-7186
II	-7187
adık	-7188
▁soy	-7189
Su	-7190
ura	-7191
▁Bulgaristan	-7192
off	-7193
▁South	-7194
▁vs	-7195
▁hayata	-7196
uti	-7197
▁Milletler	-7198
▁yazıcı	-7199
▁klav	-7200
xt	-7201
▁karşılık	-7202
üllü	-7203
ja	-7204
▁konut	-7205
▁hızlandır	-7206
▁mahk	-7207
▁atmos	-7208
ement	-7209
işk	-7210
lâ	-7211
▁İlgili	-7212
▁aydınlatma	-7213
ilerden	-7214
omi	-7215
▁bilgilere	-7216
PC	-7217
▁casino	-7218
▁sahil	-7219
▁"7	-7220
▁kurtarma	-7221
▁Arabistan	-7222
EB	-7223
▁manzarasına	-7224
▁aksesuarları	-7225
▁Cr	-7226
▁keşfedin	-7227
▁1000	-7228
flix	-7229
ukat	-7230
ader	-7231
-20	-7232
▁içme	-7233
medi	-7234
jinal	-7235
▁dolap	-7236
ünüzü	-7237
▁kendisi	-7238
▁Metal	-7239
▁Teknoloj	-7240
uçuk	-7241
acı	-7242
▁evren	-7243
▁Yan	-7244
▁Göster	-7245
▁markası	-7246
▁deng	-7247
yken	-7248
rük	-7249
▁yöntemleri	-7250
▁anlamak	-7251
▁masraf	-7252
leğ	-7253
Rus	-7254
Tom	-7255
uluyor	-7256
hine	-7257
▁Kü	-7258
▁bazen	-7259
raç	-7260
▁hediy	-7261
▁David	-7262
ulma	-7263
▁sembol	-7264
▁hayran	-7265
▁Kartı	-7266
yağı	-7267
lardı	-7268
▁göstermektedir	-7269
▁edip	-7270
aryo	-7271
▁Business	-7272
İlk	-7273
▁Bro	-7274
▁inf	-7275
▁gönderin	-7276
▁uygulamak	-7277
▁(4	-7278
▁Çevrim	-7279
▁Linux	-7280
▁yanındaki	-7281
▁Odigeo	-7282
▁üniversite	-7283
kil	-7284
ular	-7285
▁seni	-7286
itan	-7287
▁Sel	-7288
ûmet	-7289
▁2003	-7290
▁dosyayı	-7291
▁değişken	-7292
▁derecede	-7293
Tesis	-7294
▁etmeniz	-7295
▁üretmek	-7296
▁planı	-7297
ebe	-7298
osiklet	-7299
▁inanılmaz	-7300
▁istih	-7301
▁giys	-7302
▁büf	-7303
Phone	-7304
FT	-7305
▁Airport	-7306
▁Tür	-7307
▁özelliğini	-7308
▁protein	-7309
▁parametr	-7310
Gü	-7311
▁Kes	-7312
▁paylaşım	-7313
▁Üzer	-7314
▁mekt	-7315
▁güzellik	-7316
illiam	-7317
▁Set	-7318
▁halde	-7319
▁şeffaf	-7320
▁hukuki	-7321
▁sonsuz	-7322
▁kapasitesi	-7323
Co	-7324
▁görür	-7325
▁Let	-7326
▁korunması	-7327
▁Federasyonu	-7328
▁İd	-7329
▁Def	-7330
▁filmin	-7331
▁dizüstü	-7332
▁Rock	-7333
aport	-7334
▁Almanca	-7335
EX	-7336
▁sav	-7337
urken	-7338
▁Haritayı	-7339
▁köpr	-7340
▁Los	-7341
▁"20	-7342
▁dava	-7343
▁hissed	-7344
rolik	-7345
▁Özellikle	-7346
ept	-7347
▁sağlama	-7348
▁doz	-7349
ston	-7350
▁Milan	-7351
▁Ori	-7352
▁yapılabilir	-7353
▁resimler	-7354
istr	-7355
▁kullandığınız	-7356
▁Uygu	-7357
MV	-7358
▁düzeltme	-7359
▁Derneği	-7360
▁görüntüleme	-7361
▁Ca	-7362
▁traf	-7363
▁imalat	-7364
▁bölümüne	-7365
▁yedi	-7366
▁Kem	-7367
▁ilg	-7368
doğu	-7369
▁Tedav	-7370
▁bilgiyi	-7371
▁kims	-7372
▁Live	-7373
▁AMD	-7374
▁Vakf	-7375
▁mekaniz	-7376
▁Isı	-7377
örler	-7378
▁Premium	-7379
▁no	-7380
▁verebilir	-7381
iyseniz	-7382
mada	-7383
▁ST	-7384
▁Kong	-7385
▁etkileri	-7386
▁Diz	-7387
▁Fab	-7388
▁Kısa	-7389
▁Yönetmen	-7390
▁Studio	-7391
google	-7392
▁Uygun	-7393
Ür	-7394
▁olursunuz	-7395
▁Restoran	-7396
▁ömür	-7397
▁silikon	-7398
ily	-7399
▁vakit	-7400
▁sayfasına	-7401
▁365	-7402
▁misafirleri	-7403
▁analizi	-7404
▁süreli	-7405
nu	-7406
▁sırt	-7407
▁olmayı	-7408
▁deneyimli	-7409
▁10.	-7410
▁yıllarda	-7411
▁May	-7412
▁zek	-7413
▁psik	-7414
▁con	-7415
ediğini	-7416
ision	-7417
▁Komisyonu	-7418
Tr	-7419
VPN	-7420
▁Dol	-7421
▁çab	-7422
muştu	-7423
▁riski	-7424
nes	-7425
▁mutlaka	-7426
▁Taraf	-7427
▁By	-7428
▁8,	-7429
▁Madrid	-7430
üman	-7431
▁karşılan	-7432
▁İspanyolca	-7433
emize	-7434
▁Güvenliği	-7435
▁satıcı	-7436
▁Metro	-7437
LI	-7438
▁çekinmeyin	-7439
▁parçalar	-7440
DS	-7441
▁yürütü	-7442
laştırma	-7443
onun	-7444
▁şirketler	-7445
▁Han	-7446
▁döviz	-7447
▁İm	-7448
▁Sınıf	-7449
▁fırsatı	-7450
▁gereksinim	-7451
▁kaydol	-7452
▁çim	-7453
balık	-7454
ucusu	-7455
alog	-7456
▁barış	-7457
NT	-7458
▁Gür	-7459
▁100%	-7460
▁Market	-7461
▁Sözleşme	-7462
▁lev	-7463
▁ilişkiler	-7464
▁mesafe	-7465
▁ağı	-7466
▁Çözüm	-7467
▁gerekmez	-7468
▁Wal	-7469
larınızla	-7470
▁kullanırken	-7471
▁kg	-7472
eğine	-7473
▁ettiğini	-7474
▁özelleştirilmiş	-7475
▁koşullarına	-7476
mesinden	-7477
▁bölgesi	-7478
wa	-7479
▁buradan	-7480
OC	-7481
31	-7482
▁projesi	-7483
BC	-7484
lukla	-7485
▁Santa	-7486
ebilmek	-7487
▁içilmeyen	-7488
66	-7489
eksika	-7490
taş	-7491
▁Che	-7492
▁ob	-7493
▁paz	-7494
▁oturuyor	-7495
▁Sonuç	-7496
▁tasarımcı	-7497
▁Çevre	-7498
▁yazdır	-7499
28	-7500
lemektedir	-7501
▁şarap	-7502
eceğim	-7503
ayolu	-7504
▁Brand	-7505
kesi	-7506
che	-7507
▁kararlı	-7508
▁Kanunu	-7509
antaj	-7510
▁Çelik	-7511
▁oyunun	-7512
▁bağlam	-7513
▁Çağ	-7514
▁başlamak	-7515
▁Western	-7516
NET	-7517
▁Mağ	-7518
▁Eden	-7519
verengi	-7520
▁Las	-7521
▁»	-7522
▁ex	-7523
San	-7524
ültü	-7525
▁göğ	-7526
▁öğeleri	-7527
▁şekli	-7528
▁yukarıda	-7529
▁perakende	-7530
▁uygulanır	-7531
opi	-7532
▁konaklamanızda	-7533
▁Başvur	-7534
lerinize	-7535
▁takı	-7536
▁sınırsız	-7537
utin	-7538
larken	-7539
▁Şar	-7540
▁sunum	-7541
▁anlama	-7542
▁bellek	-7543
kah	-7544
layı	-7545
▁edildiği	-7546
▁açılış	-7547
▁kemik	-7548
Dr	-7549
▁Seçenek	-7550
▁kamyon	-7551
ding	-7552
▁tarım	-7553
▁Koşulları	-7554
astik	-7555
▁kaldı	-7556
mark	-7557
fat	-7558
▁belirlen	-7559
▁küçük	-7560
▁sorgu	-7561
leyip	-7562
▁yağmur	-7563
▁animasyon	-7564
▁serisinin	-7565
▁Apartments	-7566
▁İçerik	-7567
▁Amsterdam	-7568
▁iPod	-7569
▁manuel	-7570
▁Player	-7571
▁dönüştürme	-7572
▁Holi	-7573
▁tenis	-7574
ragon	-7575
▁Mevcut	-7576
melik	-7577
▁Ayr	-7578
▁başarıyla	-7579
▁yolculuk	-7580
▁Square	-7581
yer	-7582
▁tesisleri	-7583
▁DH	-7584
▁sağlan	-7585
▁3:	-7586
▁çevrim	-7587
▁hus	-7588
ream	-7589
tory	-7590
▁Şampiyon	-7591
üldü	-7592
emiş	-7593
▁Bluetooth	-7594
▁üretici	-7595
23	-7596
▁ziyaretçiler	-7597
ized	-7598
▁Nelerdir	-7599
▁şampiyon	-7600
▁radyo	-7601
icilerin	-7602
▁Sony	-7603
ibe	-7604
itme	-7605
▁fak	-7606
▁olmalı	-7607
▁aşkın	-7608
ürüz	-7609
▁Suudi	-7610
▁RAM	-7611
▁sinir	-7612
▁Endüstr	-7613
kon	-7614
▁Franc	-7615
▁göç	-7616
osting	-7617
▁desteklen	-7618
▁Uzay	-7619
▁oyuncular	-7620
▁fırça	-7621
▁mühendislik	-7622
▁bulunabilir	-7623
▁Onu	-7624
▁abonelik	-7625
orf	-7626
▁CO	-7627
▁Çevrimdışı	-7628
▁kullanıcılara	-7629
▁Holiday	-7630
▁geçti	-7631
▁anahtarı	-7632
lemeyi	-7633
Hizmet	-7634
▁Smart	-7635
cy	-7636
▁Makine	-7637
▁Kent	-7638
▁Bed	-7639
iyatro	-7640
▁Group	-7641
▁Vista	-7642
▁canlandır	-7643
▁projeler	-7644
emizi	-7645
▁Buz	-7646
▁esn	-7647
ılaştır	-7648
▁rast	-7649
▁reç	-7650
afa	-7651
ony	-7652
cileri	-7653
▁paylaştı	-7654
▁kısım	-7655
ouch	-7656
▁Sin	-7657
omp	-7658
▁Yani	-7659
▁seviyesi	-7660
▁$3	-7661
▁nitelikli	-7662
▁Eğit	-7663
▁verecek	-7664
▁uğr	-7665
▁kazanç	-7666
▁ürünlerimiz	-7667
ndeki	-7668
oe	-7669
▁Yağ	-7670
▁bakan	-7671
▁enj	-7672
ketbol	-7673
zhou	-7674
öv	-7675
isa	-7676
▁değişiklikleri	-7677
▁yuvar	-7678
▁erişilebilir	-7679
▁"8	-7680
dış	-7681
▁musunuz	-7682
▁efekt	-7683
▁kesim	-7684
▁Kitap	-7685
▁sağlanması	-7686
▁lastik	-7687
▁düşünc	-7688
▁kazanan	-7689
ds	-7690
unca	-7691
▁Alıcı	-7692
ptop	-7693
▁Ze	-7694
▁özelliklere	-7695
▁Canlı	-7696
For	-7697
Yön	-7698
▁başkanı	-7699
ılmaktadır	-7700
▁şirketleri	-7701
▁Odası	-7702
▁işbu	-7703
vanya	-7704
▁taşıy	-7705
▁işler	-7706
▁Festival	-7707
▁send	-7708
▁Uzak	-7709
▁Edition	-7710
-8	-7711
▁yararlı	-7712
▁operatör	-7713
▁sütun	-7714
▁Fe	-7715
tic	-7716
▁Taş	-7717
▁gerektiği	-7718
peg	-7719
▁Vic	-7720
▁çıkacak	-7721
▁koltuk	-7722
▁Için	-7723
oston	-7724
apur	-7725
ayn	-7726
board	-7727
▁Washington	-7728
▁döneminde	-7729
▁Mir	-7730
▁Ekle	-7731
▁dahili	-7732
▁konforu	-7733
▁ısıtıcısı	-7734
▁belirlenen	-7735
-10	-7736
▁br	-7737
▁eklendi	-7738
rey	-7739
▁Gönder	-7740
▁iTunes	-7741
?""	-7742
iyata	-7743
Otelde	-7744
▁bundan	-7745
▁Dünyanın	-7746
antin	-7747
ign	-7748
▁Island	-7749
Diğer	-7750
▁yapış	-7751
ulmaz	-7752
layt	-7753
▁destekleyen	-7754
aktif	-7755
▁Başlat	-7756
ICI	-7757
▁DA	-7758
▁sistemini	-7759
▁Çocuklar	-7760
▁Doktor	-7761
ms	-7762
▁gümüş	-7763
▁işlemler	-7764
uman	-7765
cık	-7766
▁Town	-7767
▁Alex	-7768
▁ır	-7769
▁öğrencilerin	-7770
▁Sınır	-7771
▁askı	-7772
Ne	-7773
aker	-7774
▁arz	-7775
▁ant	-7776
▁tekerlek	-7777
▁aşın	-7778
▁işleri	-7779
egas	-7780
ısında	-7781
düğünü	-7782
▁laptop	-7783
Doğ	-7784
halat	-7785
esh	-7786
utucu	-7787
▁kendine	-7788
tılan	-7789
▁Kanun	-7790
▁°	-7791
▁sayede	-7792
▁oranında	-7793
mayacak	-7794
ado	-7795
oparl	-7796
▁kimse	-7797
▁nükleer	-7798
▁buy	-7799
▁Konumu	-7800
▁yapıldı	-7801
orno	-7802
▁getiren	-7803
▁işlemci	-7804
wear	-7805
▁Vakfı	-7806
▁Öl	-7807
ies	-7808
WS	-7809
▁Bang	-7810
▁kitab	-7811
▁jak	-7812
▁edersiniz	-7813
▁Nov	-7814
▁ağız	-7815
▁Müslüm	-7816
▁düşüş	-7817
▁gezeg	-7818
limp	-7819
▁check	-7820
▁teknolojileri	-7821
▁stratejik	-7822
▁EDİN	-7823
▁sitemizi	-7824
GP	-7825
▁Sık	-7826
▁boyu	-7827
▁ilişki	-7828
▁AVI	-7829
çilerin	-7830
▁Bod	-7831
▁olmanız	-7832
▁veritaban	-7833
▁Sayfa	-7834
▁epilasyon	-7835
asse	-7836
▁Comp	-7837
▁haft	-7838
▁sigorta	-7839
▁yapmayı	-7840
▁Demir	-7841
▁tarafında	-7842
olan	-7843
ebilen	-7844
▁flash	-7845
▁Slovak	-7846
▁İçeriğ	-7847
!!	-7848
)'	-7849
▁Banka	-7850
▁Hill	-7851
eve	-7852
▁Pack	-7853
İç	-7854
▁Masası	-7855
▁Back	-7856
▁çoklu	-7857
▁çıkıyor	-7858
▁Nokia	-7859
iğin	-7860
▁yalıtım	-7861
▁insanları	-7862
▁Nik	-7863
▁tank	-7864
▁Mahkem	-7865
▁tarihinden	-7866
▁Lan	-7867
▁İla	-7868
▁geçtiğimiz	-7869
▁hesabınıza	-7870
▁irtibata	-7871
▁ilham	-7872
rimenkul	-7873
▁CEO	-7874
imizle	-7875
▁görevi	-7876
▁ces	-7877
▁restor	-7878
▁Köp	-7879
▁ülkelerde	-7880
▁niyet	-7881
▁sermay	-7882
itasyon	-7883
▁Best	-7884
key	-7885
ote	-7886
Sp	-7887
Par	-7888
▁butonuna	-7889
▁meme	-7890
ülür	-7891
▁Tra	-7892
ısına	-7893
api	-7894
▁dos	-7895
▁zamanlarda	-7896
▁9.	-7897
▁Üretim	-7898
▁verilmektedir	-7899
itap	-7900
▁55	-7901
▁kutusunu	-7902
ikat	-7903
▁Mem	-7904
▁hizmetlerini	-7905
Geç	-7906
cia	-7907
ANYA	-7908
▁şartları	-7909
desi	-7910
▁Hakları	-7911
▁Çeşitli	-7912
iyorlar	-7913
▁gereklilik	-7914
▁çekim	-7915
▁sinema	-7916
As	-7917
▁hizmetini	-7918
▁adresiniz	-7919
isidir	-7920
▁yatırımcı	-7921
▁sizden	-7922
▁akışı	-7923
laz	-7924
▁Central	-7925
▁120	-7926
ışıklık	-7927
49	-7928
▁versiyonu	-7929
▁Games	-7930
▁Kupası	-7931
▁Dağı	-7932
▁seksi	-7933
omen	-7934
able	-7935
Fran	-7936
▁Kendi	-7937
omotiv	-7938
▁lens	-7939
Detaylı	-7940
▁vazgeç	-7941
▁Kırmızı	-7942
change	-7943
ced	-7944
▁2006	-7945
▁Doğum	-7946
▁Malta	-7947
▁ülkeye	-7948
▁Beş	-7949
▁seks	-7950
▁dalga	-7951
67	-7952
▁Akadem	-7953
▁ortamı	-7954
▁Anad	-7955
▁yönetmek	-7956
▁All	-7957
aph	-7958
▁George	-7959
▁mahkem	-7960
▁geldiniz	-7961
▁işi	-7962
isindeki	-7963
▁savunma	-7964
▁MS	-7965
▁alkol	-7966
ülmüş	-7967
▁bitki	-7968
▁sözc	-7969
38	-7970
▁diplo	-7971
ivacy	-7972
▁Alanı	-7973
atch	-7974
▁nakit	-7975
▁William	-7976
ose	-7977
▁Finans	-7978
AZ	-7979
▁kür	-7980
▁idari	-7981
▁reddet	-7982
▁kıyasla	-7983
irinç	-7984
▁sitede	-7985
ave	-7986
▁dışındaki	-7987
enkron	-7988
▁ihtiyaçlarına	-7989
avunma	-7990
▁ez	-7991
nan	-7992
uyoruz	-7993
▁195	-7994
▁etkileşim	-7995
ornoz	-7996
ÜN	-7997
▁caz	-7998
▁Techn	-7999
▁yerden	-8000
▁Bilgileri	-8001
leştirmek	-8002
Çok	-8003
▁10'	-8004
▁tasarrufu	-8005
Örn	-8006
▁hesabınızı	-8007
▁kritik	-8008
ml	-8009
▁konuklarına	-8010
stom	-8011
mun	-8012
▁Mec	-8013
▁Verilerin	-8014
▁Yukarı	-8015
osunu	-8016
▁Duş	-8017
▁Cev	-8018
▁ikamet	-8019
▁Örgütü	-8020
▁Masa	-8021
lorer	-8022
▁Görev	-8023
▁tıp	-8024
▁Amerikalı	-8025
Uz	-8026
selona	-8027
▁çizim	-8028
iyana	-8029
▁edilecek	-8030
▁çar	-8031
▁muay	-8032
▁Kılavuzu	-8033
▁görüntüleri	-8034
ektro	-8035
emey	-8036
▁amac	-8037
▁videolar	-8038
▁aldıktan	-8039
▁Otur	-8040
idi	-8041
▁imkanları	-8042
▁CE	-8043
hol	-8044
oyun	-8045
▁Dublaj	-8046
▁Ob	-8047
föy	-8048
▁Yerel	-8049
▁rahatsız	-8050
ürlüğe	-8051
▁Hedef	-8052
▁gemi	-8053
fig	-8054
ater	-8055
▁ayarlarını	-8056
▁Tav	-8057
nün	-8058
losuz	-8059
▁Blue	-8060
PG	-8061
▁müşterilerine	-8062
▁koyun	-8063
▁arıyor	-8064
▁Meksika	-8065
▁meslek	-8066
▁2005	-8067
Mar	-8068
▁kılı	-8069
▁bot	-8070
iller	-8071
▁gelecekte	-8072
düz	-8073
▁Kural	-8074
▁delik	-8075
▁uygulanabilir	-8076
▁Core	-8077
▁misafirlerin	-8078
▁içindir	-8079
▁Klas	-8080
Bazı	-8081
▁Sul	-8082
▁adıyla	-8083
▁Yıldızlı	-8084
so	-8085
▁karşısında	-8086
UT	-8087
▁Karş	-8088
▁kasası	-8089
▁beklent	-8090
▁albüm	-8091
MI	-8092
▁yakında	-8093
▁bağlantılar	-8094
▁yapay	-8095
iyan	-8096
▁ebeveyn	-8097
▁Bi	-8098
▁Filistin	-8099
▁Olimp	-8100
▁tozu	-8101
▁faaliyetleri	-8102
▁sonuna	-8103
lerinizin	-8104
▁edecektir	-8105
masıyla	-8106
▁Green	-8107
▁Sertif	-8108
tanın	-8109
▁kullanımına	-8110
▁gök	-8111
▁elbis	-8112
leyicisi	-8113
▁seçimi	-8114
▁bilgiye	-8115
▁saklama	-8116
ning	-8117
Mo	-8118
▁Bab	-8119
utique	-8120
iğini	-8121
ology	-8122
▁başar	-8123
▁(2)	-8124
▁Anti	-8125
▁Sorum	-8126
maktan	-8127
▁İkinci	-8128
▁karşılığında	-8129
▁kalitede	-8130
▁Netflix	-8131
▁dez	-8132
▁kağıdı	-8133
▁örgüt	-8134
▁giyinme	-8135
▁siteler	-8136
▁özgü	-8137
▁Proje	-8138
▁iddi	-8139
▁laboratuvar	-8140
▁aralığı	-8141
Kal	-8142
kap	-8143
ardak	-8144
▁başlayın	-8145
iro	-8146
▁Yöntem	-8147
lamış	-8148
▁%100	-8149
▁ömrü	-8150
▁duyarlı	-8151
▁Osman	-8152
press	-8153
▁Mükemmel	-8154
▁silindir	-8155
▁desteklemek	-8156
ute	-8157
kim	-8158
▁imzalan	-8159
Sen	-8160
▁sahipleri	-8161
Amer	-8162
▁kurtul	-8163
▁Çiz	-8164
İngilizce	-8165
▁azaltır	-8166
je	-8167
▁toh	-8168
▁boğ	-8169
▁geçebilirsiniz	-8170
▁taki	-8171
▁makaleyi	-8172
▁donanımlı	-8173
▁Milli	-8174
ping	-8175
▁katlı	-8176
Apple	-8177
▁Uç	-8178
uncu	-8179
▁organik	-8180
▁Ra	-8181
▁Yatırım	-8182
▁Okul	-8183
▁Boston	-8184
Con	-8185
▁Prens	-8186
lick	-8187
▁ağırlık	-8188
▁otobüsler	-8189
Sam	-8190
▁firmamız	-8191
▁uygulayın	-8192
DPR	-8193
▁Üniversit	-8194
▁yangın	-8195
▁sağlayarak	-8196
duktan	-8197
▁kaş	-8198
▁edilecektir	-8199
▁gönderilen	-8200
İLER	-8201
▁listesini	-8202
▁rüzgar	-8203
▁Sky	-8204
▁iyileş	-8205
oster	-8206
▁etkiler	-8207
ansa	-8208
▁arasından	-8209
▁metrek	-8210
▁tarihli	-8211
▁Leg	-8212
▁teor	-8213
▁Sü	-8214
▁başlatmak	-8215
▁Servis	-8216
güne	-8217
▁Guest	-8218
▁önümüzdeki	-8219
▁emek	-8220
usundaki	-8221
bel	-8222
▁fuar	-8223
landırıcı	-8224
▁atmosfer	-8225
▁desteklenen	-8226
diğinden	-8227
▁sayısını	-8228
▁koruması	-8229
▁mat	-8230
▁Ün	-8231
▁sistemine	-8232
▁(19	-8233
liler	-8234
.00	-8235
-7	-8236
▁toplanan	-8237
69	-8238
▁Sak	-8239
▁teknolojik	-8240
▁erişmek	-8241
Alman	-8242
ruk	-8243
ebilirler	-8244
▁mali	-8245
▁Profesyonel	-8246
▁sizlere	-8247
sizin	-8248
▁Ort	-8249
şu	-8250
erry	-8251
▁zararlı	-8252
▁Kum	-8253
▁London	-8254
▁Saf	-8255
▁dünyaya	-8256
ero	-8257
ville	-8258
▁muk	-8259
▁Kurumsal	-8260
kırı	-8261
tek	-8262
abi	-8263
▁başlatın	-8264
▁Mur	-8265
27	-8266
▁maddesi	-8267
▁gerektiren	-8268
▁Gold	-8269
▁turnuv	-8270
HD	-8271
▁otomasyon	-8272
▁ins	-8273
▁planlama	-8274
▁binada	-8275
▁Günlük	-8276
▁Cep	-8277
▁Doğal	-8278
▁Serisi	-8279
sizlik	-8280
▁kristal	-8281
▁Lat	-8282
▁büfe	-8283
▁yakınlarında	-8284
▁Katı	-8285
▁bilinir	-8286
bette	-8287
▁saatleri	-8288
▁Sloven	-8289
▁tavsiy	-8290
▁ücretleri	-8291
▁müşterilerimize	-8292
▁Mek	-8293
▁alana	-8294
ski	-8295
ords	-8296
FR	-8297
▁val	-8298
▁Üret	-8299
▁gören	-8300
▁sitemiz	-8301
▁yönetici	-8302
▁DE	-8303
▁öneriler	-8304
▁Litvanya	-8305
▁ekleme	-8306
▁yazılımını	-8307
imdiye	-8308
edbir	-8309
HS	-8310
▁silmek	-8311
▁poli	-8312
▁fonksiyonu	-8313
▁yeteneği	-8314
▁değerleri	-8315
▁global	-8316
▁Skype	-8317
▁hassasiyet	-8318
▁ord	-8319
▁zorlu	-8320
▁Fakat	-8321
▁lan	-8322
▁işgal	-8323
▁yıldan	-8324
▁Kuvvet	-8325
▁geliştirilmiş	-8326
▁Moda	-8327
▁Explorer	-8328
▁Dom	-8329
▁aktarı	-8330
cağınız	-8331
▁özet	-8332
▁bulacaksınız	-8333
▁yapılandırma	-8334
▁kara	-8335
▁bıçak	-8336
▁mevzuat	-8337
▁geçmek	-8338
▁Auto	-8339
▁Gelişmiş	-8340
star	-8341
▁Sport	-8342
▁BT	-8343
▁Yarış	-8344
ikal	-8345
▁tıklama	-8346
▁Boutique	-8347
▁gezginler	-8348
teyner	-8349
▁yolları	-8350
▁özen	-8351
▁fotoğrafları	-8352
▁birbirine	-8353
▁Media	-8354
▁süren	-8355
▁uygulamaya	-8356
44	-8357
▁katılan	-8358
▁istis	-8359
Müşt	-8360
pegar	-8361
▁Despegar	-8362
▁belgeler	-8363
GS	-8364
imlerine	-8365
▁Elektronik	-8366
▁Pek	-8367
kınma	-8368
▁oluşturan	-8369
▁tesist	-8370
,000	-8371
▁Eng	-8372
▁belgeleri	-8373
▁Yöneticisi	-8374
▁siteniz	-8375
▁gerçekleştirmek	-8376
cular	-8377
▁ocak	-8378
Book	-8379
▁numaralı	-8380
▁soğutma	-8381
Ev	-8382
brek	-8383
▁Place	-8384
▁Oyunu	-8385
▁Hast	-8386
tiğini	-8387
▁Haya	-8388
▁ortağı	-8389
daha	-8390
▁kalem	-8391
Yüksek	-8392
▁seçenekler	-8393
▁Seyahat	-8394
▁uygulanması	-8395
▁Inter	-8396
▁motosiklet	-8397
mesiyle	-8398
▁öneririz	-8399
▁almış	-8400
▁Key	-8401
▁Station	-8402
pal	-8403
▁Ödeme	-8404
▁restoranlar	-8405
▁kendinizi	-8406
tiya	-8407
▁Benim	-8408
▁kazanma	-8409
LARI	-8410
▁Robert	-8411
▁belirtileri	-8412
zhen	-8413
▁ora	-8414
▁prens	-8415
itler	-8416
▁Sonr	-8417
▁bunlarla	-8418
61	-8419
▁(201	-8420
▁yaprak	-8421
▁katılmak	-8422
▁yaratmak	-8423
▁olmaksızın	-8424
▁UN	-8425
▁dahildir	-8426
▁yuv	-8427
furt	-8428
▁emniyet	-8429
artma	-8430
ward	-8431
▁frek	-8432
▁Si	-8433
icinin	-8434
▁pres	-8435
tüd	-8436
▁Eg	-8437
▁tanış	-8438
▁soruşturma	-8439
chester	-8440
▁DC	-8441
▁Cl	-8442
▁hücre	-8443
▁günlerde	-8444
iang	-8445
enf	-8446
▁merkezli	-8447
▁led	-8448
▁View	-8449
Ve	-8450
▁Hayvan	-8451
▁Ant	-8452
▁Rah	-8453
▁takımı	-8454
▁ihtilaf	-8455
▁durumunu	-8456
vey	-8457
▁cerrahi	-8458
latıcı	-8459
RP	-8460
▁gev	-8461
adi	-8462
▁zih	-8463
▁gerçekleşt	-8464
▁Kanal	-8465
HP	-8466
iyeli	-8467
▁bakımından	-8468
ading	-8469
▁borç	-8470
▁kesi	-8471
▁Potter	-8472
▁üyelik	-8473
▁sistemler	-8474
▁kullanışlı	-8475
▁Mari	-8476
▁sürümleri	-8477
▁başrol	-8478
▁Master	-8479
▁kumanda	-8480
emburg	-8481
▁kullanabilirler	-8482
▁Day	-8483
▁Hizmetler	-8484
29	-8485
▁aksiyon	-8486
▁Süper	-8487
iel	-8488
▁gösterilen	-8489
▁Global	-8490
leyecek	-8491
Ücretsiz	-8492
▁anlayış	-8493
▁alıp	-8494
▁peyn	-8495
▁Resmi	-8496
▁karıştırın	-8497
▁kusursuz	-8498
şaat	-8499
▁Savunma	-8500
ento	-8501
lig	-8502
▁Gez	-8503
▁harf	-8504
▁bank	-8505
▁belgesi	-8506
rem	-8507
edim	-8508
▁Mavi	-8509
▁öngörü	-8510
▁kaydetmek	-8511
ool	-8512
ptom	-8513
▁horm	-8514
▁Yapılan	-8515
TML	-8516
UK	-8517
▁Hint	-8518
▁basılı	-8519
dağ	-8520
▁incelen	-8521
▁MPEG	-8522
och	-8523
şi	-8524
▁bilgisayarınıza	-8525
pool	-8526
▁alarm	-8527
▁kitabı	-8528
▁çocukların	-8529
▁Brit	-8530
▁hayatı	-8531
TER	-8532
▁mel	-8533
▁kullanıyoruz	-8534
▁yola	-8535
▁verildi	-8536
37	-8537
hale	-8538
itik	-8539
▁imp	-8540
Uluslararası	-8541
▁filtre	-8542
▁Anton	-8543
▁kaya	-8544
▁Bl	-8545
▁[...	-8546
▁bölgesel	-8547
▁imkanlar	-8548
üya	-8549
▁Anahtar	-8550
▁Oluştur	-8551
SP	-8552
▁almayı	-8553
etro	-8554
ılmak	-8555
▁başlık	-8556
Ürün	-8557
danın	-8558
İstanbul	-8559
▁Bebek	-8560
▁AK	-8561
▁yalnız	-8562
▁özgün	-8563
▁gerç	-8564
▁hazırlanan	-8565
▁ihtim	-8566
bizim	-8567
▁rengi	-8568
▁Etk	-8569
▁gazete	-8570
▁yıllar	-8571
▁Fashion	-8572
Bit	-8573
uvarı	-8574
▁dinlen	-8575
▁değişen	-8576
▁getiriyor	-8577
esince	-8578
▁kuralları	-8579
▁toplamak	-8580
uda	-8581
▁Edin	-8582
oci	-8583
ebilmesi	-8584
kur	-8585
▁rica	-8586
▁liman	-8587
raft	-8588
▁Disney	-8589
▁North	-8590
▁Cez	-8591
öp	-8592
▁NV	-8593
▁değilse	-8594
eketi	-8595
çilik	-8596
▁İşletim	-8597
▁koyu	-8598
-6	-8599
▁görüyor	-8600
eceğinizi	-8601
▁performansını	-8602
▁Tıp	-8603
▁sam	-8604
kahve	-8605
▁riskini	-8606
▁Item	-8607
▁kazana	-8608
▁çekmek	-8609
mekteyiz	-8610
▁Kredi	-8611
▁kanalları	-8612
▁işlevi	-8613
▁diğerleri	-8614
▁İmpar	-8615
ush	-8616
EY	-8617
▁duygu	-8618
▁fiyata	-8619
▁tetik	-8620
▁sahibinin	-8621
usa	-8622
▁ayarlanabilir	-8623
des	-8624
▁kendilerini	-8625
▁korur	-8626
▁oldukları	-8627
▁depart	-8628
▁kendilerine	-8629
Sunduğu	-8630
▁Şikayet	-8631
▁eşlik	-8632
▁kemer	-8633
▁başlıca	-8634
uter	-8635
▁ID	-8636
▁600	-8637
▁Klima	-8638
▁Baz	-8639
▁yöneticisi	-8640
atörü	-8641
custom	-8642
▁aittir	-8643
▁aykırı	-8644
▁yerli	-8645
▁ekranı	-8646
▁yerleşik	-8647
▁İlişk	-8648
▁Wind	-8649
LERİ	-8650
▁güncelleştirme	-8651
▁Gi	-8652
ısının	-8653
▁seçilen	-8654
▁Erdoğan	-8655
And	-8656
▁küt	-8657
▁derhal	-8658
▁Dah	-8659
▁kutusuna	-8660
▁deneme	-8661
üsk	-8662
▁nö	-8663
▁Pil	-8664
▁giren	-8665
▁atöl	-8666
▁hayatta	-8667
▁Barselona	-8668
▁Dört	-8669
▁müt	-8670
▁tesisidir	-8671
▁sayfada	-8672
▁rakam	-8673
▁Tru	-8674
▁APK	-8675
▁ekledi	-8676
39	-8677
epyeni	-8678
▁yakından	-8679
▁van	-8680
▁çözmek	-8681
▁niş	-8682
ekkep	-8683
▁yükle	-8684
▁3'	-8685
▁Fazla	-8686
oug	-8687
▁sebebiyle	-8688
ben	-8689
ution	-8690
addesi	-8691
▁sorunlar	-8692
ımızın	-8693
▁kullanıyorsanız	-8694
OK	-8695
▁Reg	-8696
▁arayüzü	-8697
▁hammad	-8698
▁viz	-8699
▁verilm	-8700
IV	-8701
▁mir	-8702
tüdyo	-8703
TÜ	-8704
has	-8705
olden	-8706
▁etkileyici	-8707
hai	-8708
▁bilmek	-8709
▁Sof	-8710
▁Birleşmiş	-8711
elsef	-8712
▁villa	-8713
▁Exchange	-8714
▁Depo	-8715
▁verimlilik	-8716
▁bornoz	-8717
▁sürü	-8718
▁Detay	-8719
Yap	-8720
▁Fas	-8721
▁kısmında	-8722
▁38	-8723
▁müşterinin	-8724
Res	-8725
▁sürecinde	-8726
▁Ziyaret	-8727
▁Dead	-8728
say	-8729
Hay	-8730
iral	-8731
▁far	-8732
▁keşfetmek	-8733
▁Düşük	-8734
▁şerit	-8735
▁altyapı	-8736
▁vizyona	-8737
▁4.0	-8738
▁İçinde	-8739
▁kahraman	-8740
▁coğraf	-8741
▁kriter	-8742
▁gidilir	-8743
▁tedbir	-8744
▁tehlikeli	-8745
▁Edge	-8746
▁kozmetik	-8747
cretli	-8748
▁tören	-8749
▁evi	-8750
▁gözlük	-8751
▁ünit	-8752
41	-8753
▁Estonya	-8754
leki	-8755
Ah	-8756
▁tuta	-8757
DB	-8758
weet	-8759
▁Emirlikleri	-8760
▁sorularınız	-8761
▁University	-8762
▁Network	-8763
▁Time	-8764
CC	-8765
▁kolaylıkla	-8766
▁Ekip	-8767
▁Bol	-8768
çay	-8769
▁Engel	-8770
▁çerçeve	-8771
toria	-8772
▁birleş	-8773
▁Mikro	-8774
▁köpük	-8775
▁yaka	-8776
dukları	-8777
ope	-8778
düm	-8779
▁belgel	-8780
▁yaşama	-8781
▁Sant	-8782
laşması	-8783
▁sonbahar	-8784
▁hareketli	-8785
▁Prag	-8786
diğim	-8787
▁iCloud	-8788
▁transferi	-8789
tih	-8790
▁gürültü	-8791
▁avantajları	-8792
▁yapacağ	-8793
▁gitti	-8794
▁öncelikle	-8795
ılacaktır	-8796
▁Çar	-8797
▁Rezervasyon	-8798
▁fotoğraflar	-8799
▁izn	-8800
▁macera	-8801
▁Soğ	-8802
tesi	-8803
▁akım	-8804
▁Yum	-8805
▁aralığ	-8806
▁yaşan	-8807
▁artırır	-8808
▁Tapın	-8809
▁bütç	-8810
▁Medya	-8811
▁ödemeli	-8812
▁Dönüştür	-8813
▁bağımlı	-8814
▁etmekten	-8815
▁bölün	-8816
▁Lüksemburg	-8817
▁veritabanı	-8818
▁lif	-8819
▁başarısız	-8820
▁hizmetinden	-8821
▁yaşanan	-8822
▁Yakındaki	-8823
eten	-8824
▁dile	-8825
▁Meg	-8826
▁Angeles	-8827
▁Milano	-8828
▁Yür	-8829
▁Herk	-8830
▁tapın	-8831
▁çekirdek	-8832
▁esnasında	-8833
▁geçersiz	-8834
▁oksi	-8835
▁kov	-8836
▁altern	-8837
▁kullanmayı	-8838
▁store	-8839
▁sağladığı	-8840
TF	-8841
▁trend	-8842
▁efsan	-8843
500	-8844
▁fikri	-8845
▁makam	-8846
▁Drive	-8847
iew	-8848
▁piyas	-8849
▁üstünde	-8850
abol	-8851
▁yeterlidir	-8852
ırsanız	-8853
MB	-8854
▁Ligi	-8855
istler	-8856
▁ederim	-8857
araj	-8858
madı	-8859
▁terk	-8860
▁sağlanır	-8861
KK	-8862
▁Kilisesi	-8863
▁dünyadaki	-8864
▁cild	-8865
▁yapılmıştır	-8866
emizin	-8867
müştür	-8868
▁izlen	-8869
▁kulüp	-8870
▁"6.	-8871
▁peş	-8872
▁titr	-8873
▁herkesin	-8874
▁aşı	-8875
▁iken	-8876
▁büyüleyici	-8877
▁süresince	-8878
▁beden	-8879
▁harici	-8880
▁ikisi	-8881
▁tabidir	-8882
ürüzsüz	-8883
▁Inf	-8884
TD	-8885
▁halkı	-8886
▁çekiyor	-8887
ikâyet	-8888
▁Flash	-8889
▁getirdi	-8890
▁Lev	-8891
ammed	-8892
▁Verileri	-8893
esih	-8894
İD	-8895
house	-8896
▁direnç	-8897
▁yolda	-8898
▁yapmış	-8899
Çevr	-8900
▁levha	-8901
▁tahtası	-8902
▁kurulmuştur	-8903
▁uzmanlaşmış	-8904
▁yukarıdaki	-8905
▁direnci	-8906
▁sızdır	-8907
cağım	-8908
▁36	-8909
▁Müdürü	-8910
▁işçi	-8911
▁Piya	-8912
customized	-8913
▁optik	-8914
▁gerekebilir	-8915
idd	-8916
Şimdi	-8917
▁WMV	-8918
▁lek	-8919
▁fav	-8920
▁Fre	-8921
çılık	-8922
▁hesabınız	-8923
▁Anadolu	-8924
▁dokunmatik	-8925
ture	-8926
bour	-8927
▁geleceğ	-8928
oksi	-8929
▁fl	-8930
8'	-8931
dat	-8932
▁Partisi	-8933
memiz	-8934
Pr	-8935
▁haz	-8936
▁Access	-8937
▁Viyana	-8938
▁jakuz	-8939
ous	-8940
obel	-8941
ikler	-8942
▁kurulmuş	-8943
▁Komitesi	-8944
ayda	-8945
▁odasında	-8946
▁gördüğ	-8947
▁menfa	-8948
dun	-8949
▁kauçuk	-8950
▁Reh	-8951
▁torba	-8952
▁içeriyor	-8953
Yerel	-8954
▁Opt	-8955
▁verimliliği	-8956
▁gezin	-8957
▁çeken	-8958
▁kutusunda	-8959
▁Orijinal	-8960
▁Noel	-8961
inda	-8962
efox	-8963
▁pen	-8964
/4	-8965
▁bağır	-8966
▁listesinde	-8967
▁kulübü	-8968
▁Gök	-8969
back	-8970
fe	-8971
▁Buda	-8972
▁yaptığınız	-8973
no	-8974
▁yazılımlar	-8975
▁parola	-8976
Har	-8977
medik	-8978
▁lezzetli	-8979
▁bardak	-8980
win	-8981
▁kısmını	-8982
▁yeterince	-8983
ereum	-8984
▁Il	-8985
▁şehrine	-8986
▁Demok	-8987
▁Paket	-8988
uro	-8989
▁Satıcı	-8990
▁Kurtar	-8991
ature	-8992
▁döşeme	-8993
▁yaşıyor	-8994
uşu	-8995
▁işlemini	-8996
ülten	-8997
▁MB	-8998
▁iman	-8999
ax	-9000
▁Water	-9001
▁TS	-9002
▁İşlemci	-9003
Sit	-9004
▁Lib	-9005
▁Venedik	-9006
last	-9007
▁hükümet	-9008
imal	-9009
▁nihai	-9010
▁dolayısıyla	-9011
Sür	-9012
uyan	-9013
▁Denetim	-9014
▁Endüstriyel	-9015
▁irtibat	-9016
▁müşterileri	-9017
▁Bayan	-9018
▁alanlar	-9019
''	-9020
Oda	-9021
▁mant	-9022
▁gerekirse	-9023
▁Ultra	-9024
▁avukat	-9025
▁Series	-9026
mede	-9027
▁döng	-9028
larınızda	-9029
aklar	-9030
26	-9031
amb	-9032
▁Letonya	-9033
arlı	-9034
tron	-9035
▁"9	-9036
KV	-9037
▁Çamaşır	-9038
▁Way	-9039
▁Sorun	-9040
▁Link	-9041
▁Vo	-9042
▁birinc	-9043
▁öngör	-9044
▁forma	-9045
▁sahte	-9046
▁nadir	-9047
▁Mağaz	-9048
inizdeki	-9049
▁Olimpiyat	-9050
▁talebi	-9051
yanın	-9052
aciğer	-9053
DM	-9054
Öğ	-9055
oper	-9056
▁Başlangıç	-9057
▁aya	-9058
▁sunucusu	-9059
▁Platform	-9060
▁fırsatları	-9061
duğunda	-9062
▁istedik	-9063
71	-9064
tları	-9065
▁açıklaması	-9066
endi	-9067
▁sent	-9068
▁etmem	-9069
▁kısıtlama	-9070
▁gücünü	-9071
▁seviye	-9072
▁Cast	-9073
ices	-9074
▁Singapur	-9075
▁teknolojiler	-9076
▁Giy	-9077
▁bölümünü	-9078
▁Dönüş	-9079
▁oyunc	-9080
▁Nerede	-9081
▁kanepe	-9082
▁işletmeler	-9083
▁Çoğu	-9084
▁Ki	-9085
▁with	-9086
▁kurulumu	-9087
ury	-9088
,""	-9089
▁Araba	-9090
▁geliştirilmesi	-9091
▁Sekret	-9092
▁çevresel	-9093
▁ilç	-9094
▁Kaldır	-9095
cs	-9096
▁semptom	-9097
▁biber	-9098
▁monte	-9099
▁ayarlamak	-9100
▁fren	-9101
ikola	-9102
Mac	-9103
▁Pazarlama	-9104
▁Residence	-9105
▁Mobile	-9106
▁alaşım	-9107
▁oluşmaktadır	-9108
▁sos	-9109
▁ısıt	-9110
▁Old	-9111
▁Bildir	-9112
▁denem	-9113
▁Slovenya	-9114
▁Performan	-9115
▁Tatil	-9116
▁yelpazede	-9117
▁Rapor	-9118
aksiyon	-9119
▁hoparl	-9120
▁üreticiler	-9121
▁senaryo	-9122
▁Değiştir	-9123
▁ortasında	-9124
indek	-9125
▁kullanmanız	-9126
▁keyifli	-9127
▁Cheap	-9128
▁herkese	-9129
▁th	-9130
rup	-9131
▁birlik	-9132
▁dışarıda	-9133
NG	-9134
▁işareti	-9135
abeth	-9136
▁rö	-9137
▁Fer	-9138
▁unutulmaz	-9139
akfast	-9140
▁Vitam	-9141
▁Post	-9142
▁kare	-9143
▁Arkadaş	-9144
duc	-9145
▁Dar	-9146
▁Rich	-9147
liyoruz	-9148
▁arkasında	-9149
▁noktaları	-9150
▁OL	-9151
age	-9152
▁kiralık	-9153
▁maddeler	-9154
▁söylen	-9155
▁içermektedir	-9156
▁hatt	-9157
▁silme	-9158
▁klinik	-9159
▁portföy	-9160
▁saatler	-9161
▁Sezon	-9162
▁Kel	-9163
▁Sayı	-9164
8)	-9165
uluğu	-9166
▁yakalan	-9167
▁zinciri	-9168
▁makyaj	-9169
▁ith	-9170
▁Fort	-9171
▁kontr	-9172
▁bonus	-9173
ASI	-9174
▁sekiz	-9175
▁tartışma	-9176
ART	-9177
▁turizm	-9178
▁İmparator	-9179
▁izlem	-9180
▁girecek	-9181
▁Boyut	-9182
▁ran	-9183
ladıktan	-9184
▁İÇ	-9185
▁Değişik	-9186
▁Oyn	-9187
▁sayfaları	-9188
▁inc	-9189
▁desen	-9190
▁Slovakya	-9191
azz	-9192
▁şifre	-9193
angzhou	-9194
ördün	-9195
▁durumlar	-9196
▁yılına	-9197
▁Güvenli	-9198
▁Jul	-9199
burgh	-9200
▁projeleri	-9201
▁benims	-9202
▁cinsiyet	-9203
GE	-9204
ownload	-9205
▁büyüy	-9206
▁senkron	-9207
▁kalacak	-9208
▁Plastik	-9209
▁Bize	-9210
▁anne	-9211
▁kaynaklı	-9212
▁sesli	-9213
▁öncü	-9214
▁konuşan	-9215
▁Nes	-9216
▁vası	-9217
77	-9218
▁Fal	-9219
▁sesi	-9220
▁Fon	-9221
▁eşleş	-9222
Ger	-9223
▁üreticileri	-9224
34	-9225
izasyonu	-9226
▁şişe	-9227
▁endüstri	-9228
▁Tanı	-9229
▁satı	-9230
▁İncel	-9231
gaz	-9232
▁alak	-9233
▁Rep	-9234
▁Real	-9235
▁etkinliği	-9236
▁Kud	-9237
▁System	-9238
▁Silah	-9239
▁III	-9240
▁numaran	-9241
▁Aydın	-9242
içe	-9243
Çocuk	-9244
ğında	-9245
biy	-9246
▁cen	-9247
▁Taşıma	-9248
▁paneli	-9249
iyiz	-9250
▁Avenue	-9251
▁kadınların	-9252
gele	-9253
▁gerçekleşen	-9254
▁Wil	-9255
▁ayarı	-9256
▁sağlayacaktır	-9257
▁rej	-9258
▁müdür	-9259
▁yardımıyla	-9260
▁Bek	-9261
▁çağdaş	-9262
iplin	-9263
eciler	-9264
▁haklarını	-9265
date	-9266
▁vol	-9267
▁yedekleme	-9268
▁ayarlayın	-9269
İnsan	-9270
müyor	-9271
dığınızı	-9272
uf	-9273
▁Cry	-9274
▁Pin	-9275
▁Andre	-9276
▁Tickets	-9277
isti	-9278
▁Tokyo	-9279
▁sitenizi	-9280
▁eksikliği	-9281
AF	-9282
stat	-9283
▁olacağı	-9284
alle	-9285
▁ağz	-9286
▁topu	-9287
meyecek	-9288
▁National	-9289
▁kıy	-9290
▁misafirlerimize	-9291
▁kuy	-9292
▁hükûmet	-9293
amını	-9294
▁Alternatif	-9295
olis	-9296
▁açıdan	-9297
▁karanlık	-9298
▁bakıyor	-9299
▁Mün	-9300
larıdır	-9301
▁simgesine	-9302
rov	-9303
▁Coun	-9304
▁yiye	-9305
▁Wid	-9306
witch	-9307
▁Yalnızca	-9308
▁sevdiğiniz	-9309
mamış	-9310
▁Şif	-9311
▁kaybol	-9312
▁Oyunlar	-9313
▁Donald	-9314
▁tutan	-9315
▁koymak	-9316
CP	-9317
▁Yine	-9318
▁mp	-9319
Böl	-9320
▁Sistemleri	-9321
▁açıklanan	-9322
▁içerebilir	-9323
▁denir	-9324
▁mineral	-9325
▁Martin	-9326
odge	-9327
▁değildi	-9328
uşma	-9329
Qu	-9330
▁HTML	-9331
▁filminin	-9332
▁inanıyor	-9333
▁kafa	-9334
▁Balık	-9335
▁Cuma	-9336
▁ışığı	-9337
▁büyüt	-9338
001:	-9339
▁bunlara	-9340
▁ism	-9341
▁saniy	-9342
▁Belirli	-9343
▁fiyatREZERVE	-9344
▁hayır	-9345
▁görüntülen	-9346
▁Hareket	-9347
36	-9348
▁öncesinde	-9349
Ama	-9350
▁sıralama	-9351
▁istihdam	-9352
▁yalan	-9353
▁füz	-9354
▁Işık	-9355
işimi	-9356
▁Jac	-9357
▁yılının	-9358
▁PVC	-9359
▁2020'	-9360
mediğini	-9361
▁sorular	-9362
▁eşi	-9363
▁kahverengi	-9364
acık	-9365
▁©	-9366
▁vermeye	-9367
▁temizliği	-9368
▁tazmin	-9369
▁Kongre	-9370
▁noktada	-9371
▁tüketimi	-9372
▁yürürlük	-9373
urity	-9374
▁Adası	-9375
▁Denizi	-9376
▁Mim	-9377
▁Teş	-9378
▁rulo	-9379
▁SE	-9380
▁tırman	-9381
the	-9382
▁dairesi	-9383
▁Snap	-9384
▁organize	-9385
▁lojistik	-9386
▁mün	-9387
▁suyun	-9388
Bar	-9389
▁beb	-9390
▁Küresel	-9391
▁etmez	-9392
nit	-9393
başı	-9394
▁ikili	-9395
▁Hall	-9396
tabilir	-9397
▁ailen	-9398
▁va	-9399
▁aşamasında	-9400
▁merkezleri	-9401
▁Style	-9402
ador	-9403
▁tedarikçiler	-9404
▁boyama	-9405
▁öy	-9406
▁ifşa	-9407
▁aldığınız	-9408
▁beyin	-9409
▁amaçla	-9410
▁inter	-9411
▁Cumhuriyet	-9412
▁antik	-9413
▁firması	-9414
▁Konum	-9415
▁banyoları	-9416
arsayılan	-9417
▁pasaport	-9418
▁34	-9419
▁toplar	-9420
▁yılları	-9421
▁kırık	-9422
▁Konaklama	-9423
▁Kurulum	-9424
RM	-9425
▁çalışıyoruz	-9426
eco	-9427
▁doğan	-9428
lusu	-9429
▁koşulu	-9430
▁olduğunca	-9431
▁yerdir	-9432
yr	-9433
▁SSS	-9434
▁sorunun	-9435
▁boşluk	-9436
IDIA	-9437
▁dür	-9438
▁mimarisi	-9439
▁Futbol	-9440
cast	-9441
ığ	-9442
Kay	-9443
gular	-9444
▁Uzman	-9445
▁sorumluluğ	-9446
▁pencere	-9447
▁SMS	-9448
yat	-9449
▁ız	-9450
▁birliği	-9451
▁özelliklerine	-9452
▁dolarlık	-9453
▁Basın	-9454
▁kapsayan	-9455
ihir	-9456
▁Köpr	-9457
▁açtı	-9458
▁etkinlikler	-9459
▁yönünde	-9460
▁Komut	-9461
▁kablosu	-9462
▁steroid	-9463
▁sitenin	-9464
▁Ekonomik	-9465
▁açar	-9466
lerdeki	-9467
ike	-9468
La	-9469
avar	-9470
tikten	-9471
▁tey	-9472
▁seramik	-9473
▁gelişmeler	-9474
alıyor	-9475
▁vitamin	-9476
▁sahne	-9477
▁imzala	-9478
▁omuz	-9479
▁yaşaya	-9480
abileceğiniz	-9481
.)"	-9482
▁Tercih	-9483
▁seviyede	-9484
▁tavan	-9485
▁(0	-9486
▁entegrasyon	-9487
ekte	-9488
▁üreten	-9489
▁seçtiğiniz	-9490
▁ayarlar	-9491
▁destekli	-9492
▁kursları	-9493
▁açan	-9494
steri	-9495
ildiğinde	-9496
▁dolaş	-9497
▁konularda	-9498
▁Kadınlar	-9499
▁estetik	-9500
mates	-9501
▁mesajı	-9502
ULLAN	-9503
atıcı	-9504
Yak	-9505
dıklarını	-9506
▁Cum	-9507
55	-9508
▁Kazan	-9509
▁kıyaf	-9510
üğü	-9511
▁vermeden	-9512
▁duyg	-9513
▁Mesaj	-9514
atar	-9515
▁ismi	-9516
▁2021'	-9517
▁bacak	-9518
otokopi	-9519
▁Önemli	-9520
mb	-9521
▁ceza	-9522
esign	-9523
▁pişirme	-9524
▁sağlayın	-9525
▁Büyükel	-9526
▁kuruldu	-9527
▁tutarlı	-9528
▁Ten	-9529
▁Div	-9530
estore	-9531
▁Kalesi	-9532
▁yarım	-9533
▁taşımak	-9534
▁tüketici	-9535
▁Hel	-9536
▁IM	-9537
▁bileti	-9538
▁iyileştirmek	-9539
-30	-9540
▁End	-9541
▁olmuş	-9542
▁Karşılaştır	-9543
▁sitemizde	-9544
ikolata	-9545
▁aza	-9546
▁tutuk	-9547
▁aralarında	-9548
▁listeden	-9549
tren	-9550
▁sitesinden	-9551
▁Mall	-9552
▁gruplar	-9553
▁opsiyon	-9554
▁bileşenleri	-9555
▁9,	-9556
▁gram	-9557
▁dalg	-9558
▁Vil	-9559
Re	-9560
▁Hon	-9561
▁yürürlüğe	-9562
▁Forum	-9563
ınd	-9564
▁bom	-9565
▁Fiz	-9566
▁birisi	-9567
Force	-9568
▁kabil	-9569
▁arasındadır	-9570
Aşağıdaki	-9571
Mod	-9572
▁mg	-9573
▁yürüyor	-9574
▁beton	-9575
▁ekrana	-9576
Ey	-9577
▁belki	-9578
▁Eliz	-9579
▁Pap	-9580
▁dönemi	-9581
▁tipine	-9582
▁sep	-9583
▁sürecini	-9584
▁sene	-9585
▁yüzlerce	-9586
▁"200	-9587
▁girdi	-9588
▁yerleşim	-9589
▁sevkiyat	-9590
▁Sanal	-9591
▁Peter	-9592
▁toplumsal	-9593
▁Kablosuz	-9594
phane	-9595
larımızdan	-9596
▁ekibimiz	-9597
▁patent	-9598
▁Örnek	-9599
▁Christ	-9600
▁hidrolik	-9601
▁istikrarlı	-9602
leks	-9603
Lİ	-9604
niz	-9605
▁kelimeler	-9606
▁çalışırken	-9607
▁Na	-9608
▁Ayrıntı	-9609
▁Hy	-9610
▁belirtildi	-9611
▁Belg	-9612
▁bilgilerinizin	-9613
▁Kans	-9614
▁Başbakanı	-9615
▁kentinde	-9616
▁Meh	-9617
▁bahset	-9618
▁şeyin	-9619
▁personeli	-9620
▁bük	-9621
▁faydaları	-9622
sındaki	-9623
▁sağlayıcısı	-9624
▁akr	-9625
▁Standard	-9626
▁görebilir	-9627
▁pirinç	-9628
▁3.0	-9629
ünel	-9630
▁yuvarlak	-9631
▁aksine	-9632
▁Nin	-9633
ixel	-9634
▁Data	-9635
EST	-9636
ondo	-9637
▁tutma	-9638
▁ihraç	-9639
▁Edilen	-9640
irse	-9641
▁etmiştir	-9642
ördüncü	-9643
▁bozukluk	-9644
▁dersleri	-9645
hu	-9646
▁Müslüman	-9647
adır	-9648
▁renkler	-9649
▁Gender	-9650
▁koordin	-9651
▁müdahale	-9652
▁Firefox	-9653
▁birkaçı	-9654
▁Open	-9655
▁vermiş	-9656
▁som	-9657
▁algorit	-9658
▁Dağ	-9659
Mon	-9660
▁güne	-9661
aze	-9662
esidir	-9663
IŞ	-9664
CA	-9665
▁oluşum	-9666
▁Ke	-9667
ative	-9668
▁üzeri	-9669
iPhone	-9670
▁hazırlık	-9671
şek	-9672
▁Genellikle	-9673
▁Ürünler	-9674
▁800	-9675
▁(200	-9676
▁iyidir	-9677
▁ipuçları	-9678
▁şapka	-9679
▁Tüket	-9680
gon	-9681
▁hij	-9682
▁görünümü	-9683
ady	-9684
▁Güm	-9685
etrik	-9686
▁ilişkilendir	-9687
unç	-9688
denin	-9689
▁içeri	-9690
▁dün	-9691
▁istiyoruz	-9692
nav	-9693
▁almıştır	-9694
▁Sürüm	-9695
▁deneyimini	-9696
▁öğrencileri	-9697
▁köt	-9698
▁ayrıntıları	-9699
▁Tesiste	-9700
▁Elec	-9701
Çalış	-9702
▁İleri	-9703
▁Gam	-9704
ozyon	-9705
▁Aracı	-9706
▁Hor	-9707
▁yepyeni	-9708
ATO	-9709
▁yerinden	-9710
▁beslenme	-9711
▁ödemek	-9712
▁ithalat	-9713
▁dikiş	-9714
▁kriz	-9715
▁onur	-9716
▁kısal	-9717
▁verileriniz	-9718
▁çey	-9719
▁yarışma	-9720
veren	-9721
bas	-9722
indedir	-9723
▁kaldırın	-9724
▁gönüllü	-9725
▁vize	-9726
▁Nap	-9727
▁Oku	-9728
luğunu	-9729
ALYA	-9730
▁han	-9731
cası	-9732
imer	-9733
eyim	-9734
indekiler	-9735
▁bulunmakta	-9736
itif	-9737
▁stat	-9738
▁çatışma	-9739
lerindeki	-9740
▁Seb	-9741
▁paylaşın	-9742
▁BİL	-9743
▁raporu	-9744
▁tamamı	-9745
▁DS	-9746
▁kaybetti	-9747
▁kedi	-9748
▁tutul	-9749
▁Katedr	-9750
▁halı	-9751
▁frekans	-9752
▁kitl	-9753
▁lob	-9754
▁öyle	-9755
fk	-9756
ülük	-9757
▁kişiyi	-9758
▁sektörü	-9759
tions	-9760
▁fiber	-9761
▁sk	-9762
main	-9763
▁hır	-9764
elli	-9765
yasyon	-9766
▁tanımlama	-9767
▁ırk	-9768
▁dantel	-9769
▁optimiz	-9770
▁yaşamak	-9771
its	-9772
ilme	-9773
▁Peki	-9774
▁kred	-9775
▁değişikliği	-9776
stein	-9777
▁Basit	-9778
▁Room	-9779
▁ihtiyaçları	-9780
othing	-9781
terior	-9782
▁keskin	-9783
▁adresinde	-9784
ıştırma	-9785
▁tepki	-9786
bre	-9787
▁amaçlarla	-9788
▁musun	-9789
alandır	-9790
▁Konuk	-9791
▁ilişkileri	-9792
▁Endon	-9793
▁af	-9794
▁okuyucu	-9795
asy	-9796
▁Bodrum	-9797
rosu	-9798
▁duyarız	-9799
▁Bulut	-9800
ming	-9801
▁Yok	-9802
▁ÇevrimdışıUS	-9803
▁ES	-9804
Örneğin	-9805
▁çök	-9806
rent	-9807
▁tasarlanan	-9808
▁konteyner	-9809
▁Stratej	-9810
▁Parça	-9811
abiliriz	-9812
▁Servisi	-9813
▁gösterim	-9814
▁maliyetli	-9815
▁tamamlamak	-9816
leyic	-9817
▁Vegas	-9818
▁evcil	-9819
▁hükm	-9820
▁döküm	-9821
▁ülkelerin	-9822
▁2022'	-9823
▁Parti	-9824
▁yazma	-9825
▁€	-9826
2:	-9827
▁eti	-9828
▁bağlantısını	-9829
▁Ermenistan	-9830
▁Pic	-9831
▁ayrıc	-9832
▁Aqu	-9833
▁pürüzsüz	-9834
ations	-9835
▁değiştirin	-9836
▁yönerg	-9837
▁değerini	-9838
▁kendisini	-9839
▁kup	-9840
▁rız	-9841
▁2004	-9842
5)	-9843
▁Ajansı	-9844
▁Phen	-9845
▁ederseniz	-9846
Bugün	-9847
▁kütüphan	-9848
▁açıklandı	-9849
▁buldu	-9850
▁Hua	-9851
▁krem	-9852
kır	-9853
▁bırakmak	-9854
▁fragman	-9855
▁sunulacak	-9856
▁dekore	-9857
▁konaklayan	-9858
▁Hu	-9859
▁KULLAN	-9860
▁Eyal	-9861
yester	-9862
▁Baskı	-9863
▁yurtdış	-9864
Le	-9865
▁Tayland	-9866
▁tiyatro	-9867
▁havada	-9868
▁lamba	-9869
alel	-9870
▁Kişilik	-9871
▁işte	-9872
▁Hey	-9873
▁kapan	-9874
Samsung	-9875
ülat	-9876
▁Rabb	-9877
▁Sultan	-9878
duat	-9879
▁fatura	-9880
EP	-9881
▁Outer	-9882
▁Kuru	-9883
mes	-9884
OVID	-9885
▁33	-9886
▁Yolu	-9887
▁''	-9888
▁alması	-9889
▁75	-9890
Prof	-9891
çinin	-9892
▁Sayf	-9893
diğine	-9894
▁Kazak	-9895
▁Hastanesi	-9896
etiyle	-9897
▁Temsil	-9898
▁zeytinyağı	-9899
▁Açıklama	-9900
▁gelecekteki	-9901
▁püsk	-9902
tacak	-9903
▁çoğunlukla	-9904
muyor	-9905
sw	-9906
▁umut	-9907
Kullanıcı	-9908
▁göreceksiniz	-9909
▁Lake	-9910
manet	-9911
▁Biy	-9912
▁hang	-9913
▁kolye	-9914
▁takvim	-9915
▁insanlara	-9916
▁piksel	-9917
Pal	-9918
etnam	-9919
▁10,	-9920
▁niteliğ	-9921
▁gitar	-9922
▁Festivali	-9923
▁adapt	-9924
çısı	-9925
▁elmas	-9926
▁Karşı	-9927
▁sonuçlarını	-9928
▁görüntülenir	-9929
▁belirleyin	-9930
▁UV	-9931
cağına	-9932
▁Nehri	-9933
▁ülkeleri	-9934
▁Katar	-9935
▁Kullanıcılar	-9936
▁dayanan	-9937
▁idrar	-9938
▁liste	-9939
Çin	-9940
Uygulama	-9941
▁Mühendisliği	-9942
▁Share	-9943
▁pilot	-9944
▁Fo	-9945
▁GHz	-9946
▁HTC	-9947
▁demok	-9948
iyordu	-9949
▁sınıfı	-9950
▁Bet	-9951
▁şeye	-9952
▁kurma	-9953
▁Yakınında	-9954
▁İtalyanca	-9955
obi	-9956
1:	-9957
ladığınız	-9958
▁uygulamanın	-9959
omuz	-9960
▁bahsed	-9961
▁yayınladı	-9962
beri	-9963
▁kullandığı	-9964
▁çalıştırın	-9965
kaya	-9966
▁günden	-9967
Rusya	-9968
Net	-9969
adde	-9970
▁tabak	-9971
▁Malzem	-9972
itor	-9973
▁videoyu	-9974
▁enjeksiyon	-9975
Yanıt	-9976
oramik	-9977
▁kost	-9978
lywood	-9979
▁örgü	-9980
GA	-9981
▁otellerini	-9982
▁Yabancı	-9983
üksel	-9984
▁gezi	-9985
▁oranda	-9986
ross	-9987
▁eğilim	-9988
▁ağrısı	-9989
▁demektir	-9990
▁müh	-9991
▁Katılım	-9992
▁vererek	-9993
▁gelmektedir	-9994
öyl	-9995
mediği	-9996
▁Ethereum	-9997
laff	-9998
▁Caddesi	-9999
▁kalabalık	-10000
▁iğ	-10001
▁hizmetlerin	-10002
Büyük	-10003
▁Tut	-10004
öğretim	-10005
▁Last	-10006
alandırma	-10007
larımızda	-10008
▁uçuşları	-10009
▁geçirmek	-10010
▁şirketlerin	-10011
chain	-10012
▁ekranda	-10013
▁İnşaat	-10014
yanus	-10015
▁uzunluğu	-10016
▁köken	-10017
▁kıv	-10018
ML	-10019
ask	-10020
▁termal	-10021
New	-10022
▁saatlik	-10023
▁gösterdi	-10024
▁Ağır	-10025
▁Projesi	-10026
uxe	-10027
▁Mez	-10028
▁öğesini	-10029
▁inceleme	-10030
▁bilir	-10031
▁mektup	-10032
tis	-10033
▁1'	-10034
try	-10035
▁çıkarabilirler	-10036
▁özgürlük	-10037
privacy	-10038
▁yolunu	-10039
kay	-10040
encer	-10041
▁Muhammed	-10042
▁dayanarak	-10043
▁Hack	-10044
▁haftalık	-10045
▁tipik	-10046
▁görevleri	-10047
▁ib	-10048
▁Geliştirme	-10049
anik	-10050
▁ayda	-10051
▁kızlar	-10052
▁festival	-10053
▁Spe	-10054
▁batı	-10055
▁tamamını	-10056
▁bazlı	-10057
abilmek	-10058
▁Yıldız	-10059
▁Yapı	-10060
9)	-10061
▁monitör	-10062
Sadece	-10063
▁Elizabeth	-10064
▁arkadaşı	-10065
▁11.	-10066
▁başlayacak	-10067
▁Olan	-10068
gs	-10069
▁istey	-10070
▁müşterilere	-10071
liğinizi	-10072
unge	-10073
tinental	-10074
ral	-10075
▁NAS	-10076
▁sü	-10077
▁kuruluşu	-10078
lüğünü	-10079
▁Başarı	-10080
▁konsan	-10081
▁plaja	-10082
▁emisyon	-10083
vo	-10084
▁slayt	-10085
▁üretiminde	-10086
Yönet	-10087
▁bağlayın	-10088
siyum	-10089
▁dolara	-10090
▁Aşağıda	-10091
▁Outerwear	-10092
▁boyutlu	-10093
▁çevresindeki	-10094
▁Normal	-10095
RK	-10096
less	-10097
▁Paylaş	-10098
Güven	-10099
▁menfaat	-10100
▁muhafaza	-10101
▁listesine	-10102
ticaret	-10103
▁Manchester	-10104
▁içeriğini	-10105
▁seçimler	-10106
BS	-10107
▁insanın	-10108
▁Sabit	-10109
▁terc	-10110
▁üyeler	-10111
▁damar	-10112
lendirici	-10113
▁kolaylık	-10114
▁Charles	-10115
unk	-10116
▁plaka	-10117
▁sever	-10118
▁farklılık	-10119
▁ailesi	-10120
▁ürünlerini	-10121
▁günah	-10122
▁verilere	-10123
lie	-10124
▁fin	-10125
▁dizisi	-10126
elenmiş	-10127
iğe	-10128
-201	-10129
▁oynatan	-10130
▁Olarak	-10131
▁düğmesi	-10132
asız	-10133
▁Kudüs	-10134
EA	-10135
▁Ann	-10136
▁aşk	-10137
bistan	-10138
▁Yedek	-10139
▁Security	-10140
▁Breakfast	-10141
▁Daire	-10142
adın	-10143
endirme	-10144
▁tırnak	-10145
esto	-10146
liğinden	-10147
▁Lou	-10148
▁uzaklığında	-10149
▁Conn	-10150
▁döner	-10151
gresi	-10152
▁hormon	-10153
▁kaplı	-10154
▁bilgisayara	-10155
▁Öğrenciler	-10156
IFA	-10157
▁dalış	-10158
▁aletleri	-10159
▁High	-10160
▁Duvar	-10161
▁Korun	-10162
▁65	-10163
▁Mu	-10164
▁harita	-10165
▁bi	-10166
▁Bot	-10167
lası	-10168
▁Johnson	-10169
▁reng	-10170
▁Birkaç	-10171
▁Zelanda	-10172
ifi	-10173
▁tekstil	-10174
▁Class	-10175
ağına	-10176
▁girişi	-10177
▁bilmiyor	-10178
▁Bölge	-10179
▁çalıştı	-10180
▁kompakt	-10181
▁sayfasını	-10182
Str	-10183
sis	-10184
▁Abd	-10185
▁hakim	-10186
ullah	-10187
▁Kaç	-10188
aster	-10189
▁sevimli	-10190
▁basketbol	-10191
Kap	-10192
▁yorgun	-10193
▁havluları	-10194
Am	-10195
▁karışım	-10196
▁konusundaki	-10197
▁hakkınızda	-10198
▁standartları	-10199
▁Ren	-10200
▁planda	-10201
TI	-10202
ımızdan	-10203
▁Music	-10204
▁Rusça	-10205
91	-10206
fare	-10207
▁tablos	-10208
▁karşılıklı	-10209
▁alanını	-10210
▁7/	-10211
▁Spr	-10212
ezgah	-10213
▁bekliyoruz	-10214
▁kılavuzu	-10215
▁dosyalar	-10216
▁göğüs	-10217
▁post	-10218
▁implant	-10219
▁bildirdi	-10220
▁Mahkemesi	-10221
▁CS	-10222
▁bölgeler	-10223
▁East	-10224
▁Zor	-10225
▁Kuruluş	-10226
ery	-10227
asi	-10228
▁Denet	-10229
Video	-10230
laffuz	-10231
Veri	-10232
olek	-10233
usuz	-10234
ison	-10235
.1.	-10236
▁soya	-10237
play	-10238
▁$4	-10239
▁bedava	-10240
cağınızı	-10241
▁görünen	-10242
▁köprü	-10243
▁sn	-10244
▁onunla	-10245
▁idi	-10246
▁meyv	-10247
▁çizg	-10248
İki	-10249
▁Marka	-10250
ürün	-10251
▁Sunucu	-10252
▁ihla	-10253
▁adımlar	-10254
▁fi	-10255
▁başlıyor	-10256
▁Yeniden	-10257
Com	-10258
▁Çince	-10259
▁topluluğ	-10260
▁önerilir	-10261
▁çalışmalarını	-10262
uble	-10263
▁37	-10264
▁çubuk	-10265
▁kapağı	-10266
▁paketleme	-10267
TL	-10268
itörü	-10269
▁lit	-10270
▁Saray	-10271
▁uyumludur	-10272
▁gayrimenkul	-10273
▁Yardımcı	-10274
▁DHL	-10275
▁GDPR	-10276
▁denge	-10277
▁tüketim	-10278
▁4:	-10279
sten	-10280
rojen	-10281
gia	-10282
▁NVIDIA	-10283
▁Kamera	-10284
▁Mutfak	-10285
afer	-10286
▁Yükleme	-10287
▁biliyorum	-10288
tıktan	-10289
▁GeForce	-10290
▁ölü	-10291
▁standardı	-10292
▁olmamak	-10293
▁amaçları	-10294
▁gerilim	-10295
▁Kutsal	-10296
▁.	-10297
▁seçkin	-10298
▁Şekil	-10299
▁00	-10300
▁Walk	-10301
fab	-10302
▁şef	-10303
ağını	-10304
▁oynama	-10305
▁Fuarı	-10306
▁por	-10307
▁gibidir	-10308
▁denk	-10309
▁GPS	-10310
▁varlığı	-10311
xx	-10312
ugh	-10313
▁makalede	-10314
▁kodunu	-10315
▁yönetic	-10316
▁talimatları	-10317
İndir	-10318
elem	-10319
Ban	-10320
▁bulunması	-10321
TE	-10322
riott	-10323
▁cin	-10324
▁belirten	-10325
▁borsa	-10326
▁sön	-10327
jantin	-10328
ıcının	-10329
▁kaydede	-10330
Şu	-10331
hotel	-10332
▁Turizm	-10333
▁komisyon	-10334
▁çeş	-10335
irme	-10336
brah	-10337
▁uğra	-10338
▁2017'	-10339
▁şunu	-10340
▁0.	-10341
UZ	-10342
▁sıklıkla	-10343
çası	-10344
cilerin	-10345
dığım	-10346
▁mevsim	-10347
▁Micro	-10348
▁mesafedeki	-10349
▁nav	-10350
▁misin	-10351
ovasyon	-10352
▁bölümde	-10353
TH	-10354
demi	-10355
Br	-10356
mit	-10357
Yukarı	-10358
▁olunur	-10359
▁Komp	-10360
▁idealdir	-10361
ESİ	-10362
▁ayarlama	-10363
▁Hid	-10364
▁sandaly	-10365
▁olmaktadır	-10366
▁Times	-10367
▁Düğ	-10368
▁13.	-10369
▁mürekkep	-10370
Tem	-10371
▁Mich	-10372
▁4'	-10373
ihirb	-10374
pport	-10375
ces	-10376
town	-10377
masız	-10378
▁taşıyıcı	-10379
▁Premi	-10380
▁oyuncusu	-10381
Film	-10382
cks	-10383
▁sigort	-10384
▁«	-10385
▁Ekonomi	-10386
▁Nobel	-10387
▁Ayarları	-10388
▁ulaştır	-10389
▁klavye	-10390
atürk	-10391
▁sıcaklığı	-10392
▁Federal	-10393
▁bornozlar	-10394
▁Ast	-10395
ength	-10396
▁pomp	-10397
▁(3)	-10398
▁olduğunuzu	-10399
▁Ag	-10400
▁Casa	-10401
▁satışı	-10402
▁konularında	-10403
▁Light	-10404
▁daireler	-10405
▁doğu	-10406
eğinde	-10407
▁sevk	-10408
amin	-10409
bridge	-10410
Sağ	-10411
▁dikey	-10412
▁edebil	-10413
▁LG	-10414
▁olabileceğini	-10415
▁--	-10416
larımızla	-10417
▁etkileyen	-10418
arkı	-10419
▁Yükseklik	-10420
pi	-10421
▁nüfus	-10422
▁Ga	-10423
ocket	-10424
▁içermez	-10425
▁mor	-10426
▁yolunda	-10427
▁MOV	-10428
▁tutuyor	-10429
renses	-10430
▁Head	-10431
▁Maria	-10432
▁rüya	-10433
▁verecektir	-10434
▁zirv	-10435
▁Yaşam	-10436
ats	-10437
Yıl	-10438
onsor	-10439
▁pembe	-10440
▁anlık	-10441
▁mate	-10442
▁ışın	-10443
▁sığ	-10444
▁vücudun	-10445
▁alanındaki	-10446
▁kullandı	-10447
▁çalıştırmak	-10448
lini	-10449
▁sekmesinde	-10450
▁yararlanabilir	-10451
▁Frankfurt	-10452
▁kapsa	-10453
▁Bud	-10454
▁Hen	-10455
adışı	-10456
▁IS	-10457
▁terminal	-10458
▁günümüz	-10459
▁yolculuğ	-10460
layabiliriz	-10461
▁Döv	-10462
▁(10	-10463
▁öldü	-10464
▁Oyunun	-10465
▁Adaları	-10466
▁Öğrenci	-10467
▁şaşırtıcı	-10468
▁olmaması	-10469
▁flört	-10470
▁İşletme	-10471
▁sürüyor	-10472
BO	-10473
▁kişilere	-10474
▁Marina	-10475
▁taşıyor	-10476
umb	-10477
▁uymak	-10478
▁Kod	-10479
▁Life	-10480
▁tamir	-10481
esiniz	-10482
▁Afgan	-10483
ape	-10484
ional	-10485
▁Golden	-10486
incan	-10487
▁ediyorum	-10488
▁aramak	-10489
▁bakır	-10490
▁korku	-10491
zon	-10492
▁tedarikçisi	-10493
▁farkında	-10494
▁Şartları	-10495
▁arayan	-10496
ramı	-10497
▁çevrimdışı	-10498
▁ortaklık	-10499
▁tümü	-10500
▁Sand	-10501
▁@	-10502
▁aktarma	-10503
▁Yapılır	-10504
▁adının	-10505
▁iad	-10506
çılar	-10507
ücretsiz	-10508
▁alındı	-10509
▁Belediye	-10510
▁Yerler	-10511
▁GTX	-10512
▁1.5	-10513
▁metni	-10514
dana	-10515
▁Bisiklet	-10516
▁adınızı	-10517
▁Yay	-10518
unus	-10519
▁180	-10520
▁Philip	-10521
ciğer	-10522
▁kontrollü	-10523
ürken	-10524
▁sözleşmenin	-10525
▁avantajı	-10526
▁edilmesini	-10527
▁Cy	-10528
Yanıtlanma	-10529
▁Miami	-10530
▁burun	-10531
▁hisse	-10532
▁aşağıdakileri	-10533
▁kızı	-10534
▁mesajları	-10535
▁Sid	-10536
amızda	-10537
▁Duy	-10538
▁verilmesi	-10539
▁defter	-10540
▁720	-10541
▁Pixel	-10542
▁resm	-10543
▁başlaya	-10544
▁detayları	-10545
▁yanıtYanıtlanma	-10546
▁graf	-10547
▁Cop	-10548
lamanıza	-10549
▁grupları	-10550
▁onarım	-10551
dürülebilir	-10552
▁gösterg	-10553
ict	-10554
ome	-10555
▁havlular	-10556
▁vah	-10557
▁İzlanda	-10558
▁listelenen	-10559
▁şifren	-10560
▁eve	-10561
▁ikin	-10562
▁Chan	-10563
▁Galler	-10564
Et	-10565
sor	-10566
▁Kâ	-10567
▁Endonezya	-10568
▁dışa	-10569
▁Ruh	-10570
▁evet	-10571
▁Spot	-10572
▁müzeler	-10573
▁Marriott	-10574
outube	-10575
▁Ri	-10576
▁bölgedeki	-10577
.››	-10578
malarını	-10579
▁Resepsiyon	-10580
▁Sözleşmesi	-10581
liğiyle	-10582
▁rezerv	-10583
FC	-10584
▁iltih	-10585
▁planlıyor	-10586
▁Oscar	-10587
ND	-10588
duğunuzda	-10589
pon	-10590
▁ordu	-10591
▁Hız	-10592
▁yöneticiler	-10593
▁Profil	-10594
▁çeviri	-10595
▁4.8	-10596
▁standard	-10597
78	-10598
▁Depolama	-10599
onomik	-10600
anızın	-10601
▁mahkeme	-10602
▁Toplam	-10603
▁Vik	-10604
▁Danışman	-10605
ront	-10606
▁tahıl	-10607
▁alınarak	-10608
▁yazarı	-10609
▁değişir	-10610
peria	-10611
▁ertel	-10612
wei	-10613
▁ekonomi	-10614
▁ülkeden	-10615
▁premium	-10616
▁PP	-10617
▁kâr	-10618
▁şehrinden	-10619
▁bilinç	-10620
mut	-10621
▁tüy	-10622
▁bugüne	-10623
▁Vietnam	-10624
▁üs	-10625
▁Ya	-10626
İTALYA	-10627
▁iyisi	-10628
romu	-10629
▁Katedrali	-10630
▁girmek	-10631
▁hapis	-10632
▁Tarım	-10633
dl	-10634
▁faiz	-10635
▁güvence	-10636
amazsınız	-10637
▁olanı	-10638
uğla	-10639
▁anlamda	-10640
▁Union	-10641
▁banyoda	-10642
▁seçerek	-10643
▁Phone	-10644
▁hekim	-10645
▁gülüm	-10646
▁tohum	-10647
▁manyetik	-10648
50'	-10649
▁Kütü	-10650
▁pist	-10651
▁aktiviteleri	-10652
▁Edinburgh	-10653
▁Kaydet	-10654
▁"–	-10655
▁devrim	-10656
▁gri	-10657
▁gol	-10658
▁akıl	-10659
▁Gece	-10660
▁Kullanımı	-10661
RA	-10662
▁sıkıntı	-10663
▁Okulu	-10664
▁görme	-10665
şun	-10666
▁silm	-10667
▁ekmek	-10668
iğinde	-10669
▁ızgara	-10670
▁içe	-10671
iaomi	-10672
▁duruma	-10673
▁tanınan	-10674
▁hazırlan	-10675
3:	-10676
mik	-10677
▁kot	-10678
▁Warfare	-10679
untain	-10680
▁kendiniz	-10681
▁kadrosunda	-10682
▁geril	-10683
▁süresini	-10684
▁öğrencilere	-10685
yol	-10686
▁FLV	-10687
▁gül	-10688
▁makinesini	-10689
▁uzmanlık	-10690
▁Özg	-10691
▁stres	-10692
sörü	-10693
▁Tedarik	-10694
ğday	-10695
▁restore	-10696
▁yayınlan	-10697
▁Boğ	-10698
▁bizden	-10699
Gör	-10700
▁gelişen	-10701
▁Francisco	-10702
▁açabilir	-10703
▁Ec	-10704
▁öğrenim	-10705
▁Gül	-10706
tığınız	-10707
▁Get	-10708
▁durumuna	-10709
Bizim	-10710
▁kanalı	-10711
▁maddeleri	-10712
▁aylar	-10713
ansız	-10714
▁2018'	-10715
▁gümrük	-10716
▁jakuzi	-10717
bası	-10718
▁istenen	-10719
▁gösterebilir	-10720
bekü	-10721
▁çıkmak	-10722
Gu	-10723
▁getirin	-10724
▁slot	-10725
▁devreye	-10726
▁yönde	-10727
▁aktarım	-10728
▁tesiste	-10729
UB	-10730
▁us	-10731
▁BMW	-10732
▁porno	-10733
tian	-10734
▁iyice	-10735
▁dilim	-10736
lemesine	-10737
▁190	-10738
▁Ir	-10739
▁Ass	-10740
▁tanınmış	-10741
bran	-10742
▁görüşmeler	-10743
▁Grafik	-10744
akları	-10745
▁Technology	-10746
▁Sov	-10747
▁elektro	-10748
▁hostel	-10749
ota	-10750
""."	-10751
▁dağılım	-10752
lockchain	-10753
mam	-10754
▁Jos	-10755
▁Ask	-10756
▁tuvaletler	-10757
▁titreş	-10758
▁Camp	-10759
▁filmleri	-10760
▁hoparlör	-10761
▁Başvuru	-10762
▁Length	-10763
▁Filip	-10764
▁elinde	-10765
Ter	-10766
▁restoranda	-10767
▁konuşuyor	-10768
▁Sem	-10769
▁damla	-10770
▁görülür	-10771
▁şekeri	-10772
▁okumak	-10773
▁kapatın	-10774
pen	-10775
arlık	-10776
▁Big	-10777
▁oteldeki	-10778
▁çalışanları	-10779
▁ürünlerinin	-10780
▁strateji	-10781
rown	-10782
▁Stan	-10783
▁sebze	-10784
▁pozitif	-10785
▁tavuk	-10786
▁Asansör	-10787
ato	-10788
ecekler	-10789
▁Just	-10790
▁Atina	-10791
▁süreçleri	-10792
▁Jan	-10793
sinde	-10794
▁yerlere	-10795
47	-10796
graph	-10797
▁8.1	-10798
▁serin	-10799
▁askıya	-10800
▁randev	-10801
▁Durum	-10802
▁vaka	-10803
kok	-10804
▁felsef	-10805
ÜK	-10806
▁edenler	-10807
▁Chic	-10808
▁bekleyin	-10809
oga	-10810
▁2016'	-10811
▁Kuvvetleri	-10812
▁gelişimi	-10813
▁Jackson	-10814
▁mesleki	-10815
Mal	-10816
▁Village	-10817
unum	-10818
▁Üye	-10819
▁başlığı	-10820
aton	-10821
▁tereya	-10822
name	-10823
▁mült	-10824
▁teyit	-10825
ander	-10826
▁Kulesi	-10827
Rezervasyon	-10828
1]	-10829
▁Hard	-10830
ols	-10831
▁açıktır	-10832
Port	-10833
▁modeller	-10834
atın	-10835
▁testleri	-10836
▁İçilmeyen	-10837
▁çapraz	-10838
▁böbrek	-10839
▁paralel	-10840
▁konsept	-10841
▁resimleri	-10842
▁AWS	-10843
▁Belediy	-10844
ikasyon	-10845
▁mevduat	-10846
lari	-10847
ges	-10848
▁klip	-10849
▁SAT	-10850
▁açıldı	-10851
▁Batman	-10852
▁verdiğiniz	-10853
▁aksi	-10854
▁endüstrisi	-10855
▁Yarı	-10856
▁millet	-10857
▁Güçlü	-10858
▁elma	-10859
jder	-10860
▁onayı	-10861
için	-10862
▁Disk	-10863
overy	-10864
birliği	-10865
▁istiyorsunuz	-10866
▁limon	-10867
▁onayındaki	-10868
▁Dek	-10869
▁işitme	-10870
▁yardımı	-10871
▁ödemeler	-10872
▁sayfanın	-10873
▁algılama	-10874
atma	-10875
▁Sırbistan	-10876
▁merdiven	-10877
▁telefonları	-10878
▁gördük	-10879
sever	-10880
▁panoramik	-10881
▁Sey	-10882
▁kulaklık	-10883
▁harekete	-10884
▁karaciğer	-10885
▁Dam	-10886
▁öğeler	-10887
▁belirgin	-10888
ırlar	-10889
▁işley	-10890
)*	-10891
▁İhtiya	-10892
▁tanık	-10893
▁görülmesi	-10894
▁Metin	-10895
SD	-10896
▁karışımı	-10897
▁...	-10898
▁bulur	-10899
▁Pazartesi	-10900
Mak	-10901
Fa	-10902
▁Münih	-10903
▁ödün	-10904
▁yatay	-10905
▁konser	-10906
▁PRO	-10907
▁işle	-10908
Açıklama	-10909
abolik	-10910
▁Amaç	-10911
▁Ders	-10912
▁kombinasyon	-10913
Az	-10914
iba	-10915
iteli	-10916
▁başlamadan	-10917
lerimizden	-10918
yl	-10919
▁Floransa	-10920
▁tanıma	-10921
▁Osmanlı	-10922
▁sunarak	-10923
▁gelmesi	-10924
▁önerilen	-10925
▁İÇİN	-10926
▁Yönetmel	-10927
ebileceği	-10928
Tel	-10929
85	-10930
Fir	-10931
işe	-10932
▁gelişme	-10933
▁kurucu	-10934
▁örneğidir	-10935
▁Ops	-10936
▁lay	-10937
▁SharePoint	-10938
▁Git	-10939
▁korum	-10940
▁Suite	-10941
▁şifreleme	-10942
▁gerekiyorsa	-10943
▁performanslı	-10944
▁Tık	-10945
▁bilgileriniz	-10946
▁ltd	-10947
▁içecekler	-10948
▁Limited	-10949
▁maliyetleri	-10950
▁programlama	-10951
▁şimdiye	-10952
▁Hiçbir	-10953
▁çeşitleri	-10954
▁bilgisayarda	-10955
▁numune	-10956
▁dizin	-10957
▁disiplin	-10958
▁öge	-10959
▁istediği	-10960
▁noktasına	-10961
hid	-10962
▁arı	-10963
ersek	-10964
▁1080	-10965
▁Turk	-10966
▁tesisin	-10967
▁Boya	-10968
bert	-10969
▁Zar	-10970
-15	-10971
▁yaşın	-10972
▁çocukları	-10973
▁olabil	-10974
▁VM	-10975
yazı	-10976
▁şiddetli	-10977
89	-10978
▁sandalye	-10979
▁Kurs	-10980
▁aktör	-10981
▁şeyleri	-10982
▁SM	-10983
▁Öner	-10984
▁Aren	-10985
▁büyüklüğ	-10986
▁DNS	-10987
▁Mont	-10988
▁Yurt	-10989
▁etmenizi	-10990
▁hareketi	-10991
▁Geleneksel	-10992
▁azından	-10993
Allah	-10994
▁kullandığınızda	-10995
▁odalı	-10996
▁Victoria	-10997
▁eşyaları	-10998
lamen	-10999
▁Maked	-11000
zar	-11001
▁12.	-11002
▁engellemek	-11003
▁kalmaz	-11004
anabilir	-11005
▁Boz	-11006
▁önlemleri	-11007
▁yönetilen	-11008
▁CA	-11009
▁ütüsü	-11010
▁farkınd	-11011
▁salonunda	-11012
▁çalışmasını	-11013
▁hatları	-11014
▁olanakların	-11015
▁Tanr	-11016
▁depr	-11017
▁gerekç	-11018
▁Transfer	-11019
▁ekstr	-11020
▁gemisi	-11021
▁hazırlanmış	-11022
▁tüc	-11023
▁adlandırılan	-11024
cıları	-11025
▁öv	-11026
▁yetkin	-11027
▁Binance	-11028
lamıştır	-11029
▁Vad	-11030
▁faaliyetlerini	-11031
▁formül	-11032
▁lezzet	-11033
▁Soft	-11034
▁Değerlendirme	-11035
▁kaynaklar	-11036
▁geçmişi	-11037
▁bildirildi	-11038
▁Başkanlığı	-11039
▁Kategor	-11040
▁haftada	-11041
▁tatmin	-11042
iforniya	-11043
▁gövde	-11044
▁kek	-11045
▁Rade	-11046
▁(%	-11047
▁arıyorsanız	-11048
▁parçasıdır	-11049
▁ödülü	-11050
▁teşhis	-11051
▁cihazlarda	-11052
▁işlenmesine	-11053
ifer	-11054
▁bulaş	-11055
▁kırsal	-11056
ıldığını	-11057
dekli	-11058
▁Mate	-11059
Değ	-11060
▁istif	-11061
▁alet	-11062
▁tahmini	-11063
▁sıralan	-11064
LİK	-11065
▁fant	-11066
▁Dig	-11067
30'	-11068
▁mutfağı	-11069
At	-11070
tığında	-11071
ardrop	-11072
▁kilis	-11073
▁Ambalaj	-11074
aw	-11075
▁okun	-11076
▁Clothing	-11077
▁yur	-11078
Kat	-11079
▁Kaf	-11080
▁İster	-11081
▁metr	-11082
▁enerjisi	-11083
▁alakalı	-11084
▁üretken	-11085
▁Interior	-11086
▁sınıflandır	-11087
CI	-11088
ân	-11089
▁BI	-11090
hl	-11091
inta	-11092
terek	-11093
▁alırken	-11094
▁yağlı	-11095
AA	-11096
Se	-11097
▁Kapalı	-11098
▁yaptıkları	-11099
erge	-11100
▁Cle	-11101
▁gidiyor	-11102
Bas	-11103
▁Emanet	-11104
▁takviy	-11105
▁Malezya	-11106
iper	-11107
86	-11108
▁babası	-11109
▁ayna	-11110
▁Active	-11111
▁muayene	-11112
▁kolaylaştırır	-11113
şamba	-11114
▁yönetmelik	-11115
▁Bakım	-11116
▁pel	-11117
eft	-11118
rix	-11119
Un	-11120
mür	-11121
▁Yahudi	-11122
▁BİR	-11123
▁Long	-11124
cal	-11125
▁Ticari	-11126
▁VER	-11127
▁Iş	-11128
eydi	-11129
▁Kalı	-11130
▁"15	-11131
▁Que	-11132
▁dahi	-11133
▁listelenmiştir	-11134
sch	-11135
şembe	-11136
▁Ödülleri	-11137
serv	-11138
cınız	-11139
▁gelinlik	-11140
▁Fri	-11141
▁müşterilerimiz	-11142
taya	-11143
zaman	-11144
▁ultra	-11145
▁gerektiğinde	-11146
▁eksen	-11147
▁bülten	-11148
ilebilen	-11149
▁sekmesini	-11150
▁kira	-11151
iyatrosu	-11152
▁atom	-11153
▁ajans	-11154
▁Dikkat	-11155
▁kade	-11156
portaj	-11157
▁cihazın	-11158
▁gelmiştir	-11159
ahmet	-11160
▁kimliği	-11161
▁Kış	-11162
▁Senin	-11163
▁hazırlanıyor	-11164
dıkça	-11165
▁Kamp	-11166
▁1.0	-11167
▁aylarında	-11168
▁Körf	-11169
▁sertifikası	-11170
▁Yahud	-11171
oza	-11172
▁hakkınız	-11173
esifik	-11174
▁kapsar	-11175
▁Visual	-11176
▁garantisi	-11177
▁varıştan	-11178
stal	-11179
▁başlama	-11180
▁menüsü	-11181
▁oyuncuları	-11182
▁büyüyen	-11183
▁proses	-11184
Herhangi	-11185
▁Otopark	-11186
▁uzmanları	-11187
/1	-11188
▁yöntemler	-11189
▁Brüksel	-11190
SI	-11191
▁verilmiştir	-11192
▁kesintisiz	-11193
▁jener	-11194
ebileceğini	-11195
ebiliriz	-11196
▁Bob	-11197
▁abone	-11198
▁videosu	-11199
▁7'	-11200
abileceği	-11201
▁konuştu	-11202
▁örtü	-11203
▁suya	-11204
inder	-11205
▁şekillendir	-11206
istrib	-11207
onto	-11208
▁Aktar	-11209
▁uğraş	-11210
▁dini	-11211
▁Rem	-11212
CE	-11213
▁bölgenin	-11214
grama	-11215
▁sitenizin	-11216
▁Kurumu	-11217
▁COVID	-11218
▁Sayın	-11219
▁isteyenler	-11220
▁hijyen	-11221
▁kılıf	-11222
▁"[	-11223
▁oynayan	-11224
tab	-11225
▁mask	-11226
▁karışık	-11227
▁şartlar	-11228
▁kanı	-11229
▁Atatürk	-11230
peşte	-11231
▁Epilasyon	-11232
▁kurtarmak	-11233
ernet	-11234
▁dolandırıcı	-11235
▁programlar	-11236
▁up	-11237
▁seçeneklerini	-11238
▁Bana	-11239
▁mıs	-11240
▁yararlanın	-11241
ilde	-11242
▁fos	-11243
▁Rod	-11244
▁boşalt	-11245
yth	-11246
▁Gizli	-11247
▁stüdyo	-11248
Be	-11249
▁Ur	-11250
▁Eğitimi	-11251
/0	-11252
▁Kos	-11253
Yar	-11254
rağı	-11255
ırda	-11256
▁Clos	-11257
▁Boş	-11258
▁sistemin	-11259
▁tasarı	-11260
▁ilaçlar	-11261
▁dönüştürün	-11262
▁yürütülen	-11263
değer	-11264
▁bekle	-11265
▁barındırma	-11266
▁göstergesi	-11267
host	-11268
▁gülüms	-11269
▁kont	-11270
▁teb	-11271
▁Ürünleri	-11272
cesi	-11273
▁State	-11274
▁batarya	-11275
▁sistemlerinin	-11276
▁Kralı	-11277
▁uzmanı	-11278
▁yapması	-11279
▁birincil	-11280
▁Xperia	-11281
▁Lis	-11282
▁matematik	-11283
▁~	-11284
▁farkı	-11285
▁Takım	-11286
▁hitap	-11287
▁may	-11288
▁çubuğu	-11289
gisayar	-11290
▁Machine	-11291
Aynı	-11292
▁kanat	-11293
▁Kür	-11294
▁storeUS	-11295
▁kaydedin	-11296
▁sez	-11297
▁uygulamalarını	-11298
▁dayanıklılık	-11299
▁Us	-11300
▁2002	-11301
▁4.7	-11302
▁gözet	-11303
▁"7.	-11304
▁Fant	-11305
kanları	-11306
▁çocuğun	-11307
▁Radeon	-11308
▁etkinlikleri	-11309
▁Üzerine	-11310
▁Ölç	-11311
▁yansıt	-11312
mate	-11313
orat	-11314
▁harc	-11315
▁Birden	-11316
▁mec	-11317
▁Kabul	-11318
lamanızı	-11319
▁ml	-11320
dorf	-11321
▁gereç	-11322
unlar	-11323
▁Land	-11324
ebelik	-11325
▁menüsünde	-11326
amızı	-11327
▁paylaşılan	-11328
▁seviyeye	-11329
▁hükümleri	-11330
▁Gazet	-11331
▁Ctr	-11332
▁Kızıl	-11333
▁kadro	-11334
▁bakmak	-11335
uval	-11336
▁sörf	-11337
▁Alın	-11338
Bul	-11339
▁Kuş	-11340
▁ekranın	-11341
▁başlıklı	-11342
▁merkezindeki	-11343
▁yı	-11344
miyorum	-11345
▁uzmandır	-11346
Bak	-11347
▁Lor	-11348
lish	-11349
▁com	-11350
▁aracın	-11351
matör	-11352
▁kostüm	-11353
▁Coin	-11354
▁edine	-11355
▁[...]"	-11356
▁filmler	-11357
▁onlarla	-11358
▁ultr	-11359
▁oluşturabilir	-11360
▁baba	-11361
▁bask	-11362
▁Pakistan	-11363
▁token	-11364
▁vade	-11365
Kam	-11366
▁2019'	-11367
lacaktır	-11368
▁bedel	-11369
▁forum	-11370
▁det	-11371
▁Fit	-11372
▁dokunu	-11373
▁yorumları	-11374
▁download	-11375
▁ettiğinizde	-11376
▁kuruluşları	-11377
▁hükümeti	-11378
▁uygulamasında	-11379
▁Mov	-11380
▁redded	-11381
light	-11382
ikatür	-11383
▁filmde	-11384
▁atıf	-11385
▁fare	-11386
▁Dayan	-11387
▁sorumludur	-11388
▁gidiş	-11389
▁yayımlanan	-11390
inn	-11391
▁malzemesi	-11392
osa	-11393
▁Cilt	-11394
edral	-11395
isansı	-11396
izleme	-11397
orks	-11398
▁Barcel	-11399
▁alırsınız	-11400
odyum	-11401
▁doktora	-11402
▁etkinleştirmek	-11403
▁Istanbul	-11404
▁kuruluşlar	-11405
▁dosyalarınızı	-11406
▁belirlem	-11407
Çerez	-11408
culuk	-11409
nü	-11410
üzelt	-11411
▁yelpazesi	-11412
yazılı	-11413
▁Kahvaltı	-11414
▁patates	-11415
▁makaleler	-11416
▁nedenleri	-11417
▁olmaktan	-11418
Th	-11419
▁yoktu	-11420
▁desteğ	-11421
aca	-11422
▁bölgeye	-11423
▁peynir	-11424
CH	-11425
▁konukları	-11426
▁asıl	-11427
ükr	-11428
feransı	-11429
▁Lodge	-11430
eyerek	-11431
▁5'	-11432
ball	-11433
▁350	-11434
▁imkânı	-11435
▁Gid	-11436
▁vida	-11437
▁tezgah	-11438
▁Opera	-11439
diklerini	-11440
▁Resim	-11441
▁söylemek	-11442
cer	-11443
orex	-11444
tiğinde	-11445
ovid	-11446
▁gereksinimler	-11447
oT	-11448
pat	-11449
▁gönderi	-11450
▁programını	-11451
gio	-11452
▁feder	-11453
▁günümüzde	-11454
▁kre	-11455
▁birbirinden	-11456
▁Müdürlüğü	-11457
Giz	-11458
▁Takv	-11459
larınızdan	-11460
▁deneyimler	-11461
▁Tapınağı	-11462
▁Arapça	-11463
▁sonlandır	-11464
fir	-11465
▁hücreleri	-11466
▁olmayabilir	-11467
▁But	-11468
▁gezegen	-11469
▁haberler	-11470
▁Bağım	-11471
▁Marvel	-11472
ives	-11473
▁tutk	-11474
▁seg	-11475
▁çevrili	-11476
▁Belirt	-11477
▁Lux	-11478
▁Mesih	-11479
▁sermaye	-11480
▁Çalışan	-11481
▁Puanı	-11482
ücretli	-11483
▁NATO	-11484
▁oynatmak	-11485
opa	-11486
iko	-11487
▁sabır	-11488
▁Person	-11489
▁ortamında	-11490
del	-11491
▁tarzda	-11492
▁ekipmanlar	-11493
act	-11494
▁edilemez	-11495
▁portal	-11496
aroom	-11497
▁olmanın	-11498
ebileceğinden	-11499
▁bulmaca	-11500
talar	-11501
ilemez	-11502
▁siteyi	-11503
ektrik	-11504
▁sıkıştır	-11505
▁PowerPoint	-11506
▁Uzaktan	-11507
▁reaksiyon	-11508
▁Company	-11509
▁otomotiv	-11510
▁Arjantin	-11511
▁Rev	-11512
▁bağlantıyı	-11513
spres	-11514
▁Elektrikli	-11515
▁sitesindeki	-11516
SM	-11517
▁seviyesinde	-11518
▁uzunluğ	-11519
ync	-11520
▁taksi	-11521
anır	-11522
▁fas	-11523
▁Sir	-11524
▁Yüksel	-11525
▁aydınlat	-11526
▁zamandan	-11527
▁kurucusu	-11528
81	-11529
cistan	-11530
▁mesafesi	-11531
▁topladığımız	-11532
eysel	-11533
▁dürüst	-11534
esterol	-11535
▁düzeyinde	-11536
ildiğini	-11537
▁nereden	-11538
▁Sağlığı	-11539
Do	-11540
biyat	-11541
kab	-11542
tep	-11543
inia	-11544
▁Imp	-11545
▁çerezlerin	-11546
▁kafe	-11547
▁ağacı	-11548
gul	-11549
▁kısmen	-11550
▁indirip	-11551
▁bulabilir	-11552
▁bünyesindeki	-11553
▁konuları	-11554
▁becerileri	-11555
▁atmanız	-11556
▁görüntüsü	-11557
▁hazırlamak	-11558
▁kopyasını	-11559
▁39	-11560
ights	-11561
▁Rak	-11562
▁olmayacak	-11563
▁getaroom	-11564
▁eğil	-11565
▁mısır	-11566
▁olduklarını	-11567
▁seyir	-11568
▁Üniversite	-11569
▁yerleştirin	-11570
▁FIFA	-11571
▁getirilmesi	-11572
▁vasıtası	-11573
▁karşılama	-11574
Mer	-11575
▁belirler	-11576
▁telefonlar	-11577
Öz	-11578
▁ağırlıklı	-11579
▁Tro	-11580
▁lik	-11581
▁domates	-11582
▁adamı	-11583
▁yorumlar	-11584
▁Final	-11585
▁mekanı	-11586
▁yiyebilirler	-11587
▁2.5	-11588
▁196	-11589
▁kapasiteli	-11590
bie	-11591
▁tv	-11592
▁UPS	-11593
▁Bill	-11594
▁yöneticileri	-11595
▁değerlendirmek	-11596
▁fön	-11597
▁genişliği	-11598
▁favori	-11599
isp	-11600
ilerinden	-11601
ipper	-11602
▁Tahmini	-11603
▁konular	-11604
▁kadının	-11605
▁Court	-11606
▁mantar	-11607
▁WAV	-11608
▁işlemlerini	-11609
▁sertifikalı	-11610
▁Diy	-11611
layer	-11612
▁gördü	-11613
▁satım	-11614
Android	-11615
▁Send	-11616
▁oynayın	-11617
Şehir	-11618
▁Motel	-11619
▁heykel	-11620
▁istemci	-11621
▁adil	-11622
▁gereği	-11623
Tur	-11624
▁Blo	-11625
▁döndü	-11626
▁kadrosu	-11627
▁markalar	-11628
ekom	-11629
▁Sokak	-11630
▁(20	-11631
ünüze	-11632
▁zorundadır	-11633
▁1999	-11634
inasyon	-11635
▁Çamaşırhane	-11636
▁sızıntı	-11637
▁Beni	-11638
▁yapabileceğiniz	-11639
Dünyanın	-11640
ubu	-11641
▁sordu	-11642
ouse	-11643
▁vermez	-11644
priz	-11645
▁palet	-11646
ated	-11647
siye	-11648
▁dokuma	-11649
EV	-11650
Düz	-11651
▁Antonio	-11652
urch	-11653
▁rehberlik	-11654
▁biçimi	-11655
▁Dak	-11656
▁satılık	-11657
diy	-11658
▁şov	-11659
Drive	-11660
▁büro	-11661
▁geldiği	-11662
▁Kalkınma	-11663
▁hammadde	-11664
▁sınırları	-11665
cıların	-11666
▁Smith	-11667
▁layık	-11668
▁fiyatlı	-11669
chen	-11670
▁Peters	-11671
zi	-11672
▁çekirdeğ	-11673
▁tuttuğ	-11674
▁peygamber	-11675
▁çalışın	-11676
▁kutsal	-11677
▁hedefi	-11678
▁1,5	-11679
▁gidermek	-11680
▁miktarını	-11681
sızlı	-11682
▁olmasıdır	-11683
gılan	-11684
▁Wild	-11685
▁fiyatlarla	-11686
▁gösteri	-11687
▁Women	-11688
▁bölgesinin	-11689
▁Ras	-11690
▁Barış	-11691
▁verilerinin	-11692
▁ayık	-11693
AX	-11694
▁türünü	-11695
▁Kurtarma	-11696
▁toplan	-11697
▁danışma	-11698
▁alışkan	-11699
▁yükseltme	-11700
▁göçmen	-11701
46	-11702
▁Porto	-11703
▁haberdar	-11704
gir	-11705
▁duran	-11706
▁Eb	-11707
▁sektörde	-11708
osistem	-11709
▁Abu	-11710
ido	-11711
▁Miss	-11712
▁kişileri	-11713
yaf	-11714
▁Anne	-11715
▁seviyorum	-11716
▁yumuş	-11717
▁yüksektir	-11718
▁dizayn	-11719
▁SSL	-11720
ody	-11721
ayip	-11722
▁düzenlenecek	-11723
ws	-11724
▁Otobüs	-11725
▁saklanır	-11726
AŞ	-11727
▁Mountain	-11728
▁nefret	-11729
,.	-11730
htt	-11731
▁oksijen	-11732
▁Klasik	-11733
Almanya	-11734
42	-11735
onlar	-11736
▁Gereksin	-11737
umuzu	-11738
▁sektörünün	-11739
▁endişelen	-11740
▁Direct	-11741
▁tesisinde	-11742
▁ihtilaflı	-11743
▁izliyor	-11744
onav	-11745
▁istedi	-11746
▁yoludur	-11747
idini	-11748
atit	-11749
asebe	-11750
▁rekor	-11751
▁sokakta	-11752
▁güncellemesi	-11753
▁ayrıcalık	-11754
ıma	-11755
▁kaza	-11756
▁Isıtma	-11757
▁fen	-11758
▁evrensel	-11759
BD	-11760
▁inanı	-11761
▁kullanıldığı	-11762
▁Bundan	-11763
▁Must	-11764
▁Orada	-11765
▁Pub	-11766
ıcısı	-11767
▁fragmanı	-11768
anz	-11769
▁Fed	-11770
▁Hub	-11771
▁Filmin	-11772
▁beklem	-11773
▁yüzünden	-11774
yesi	-11775
▁hiz	-11776
▁bakter	-11777
▁endişe	-11778
ways	-11779
arth	-11780
▁Şirketi	-11781
▁çam	-11782
▁dilde	-11783
mı	-11784
USD	-11785
urma	-11786
▁sürecinin	-11787
anıza	-11788
Ko	-11789
Ser	-11790
▁çikolata	-11791
▁anıt	-11792
Car	-11793
▁rolü	-11794
▁Les	-11795
▁mukav	-11796
▁Politikalar	-11797
gatif	-11798
▁şe	-11799
▁seviyeleri	-11800
▁geçerek	-11801
▁Phot	-11802
▁siteye	-11803
▁qu	-11804
▁Dec	-11805
▁Gelecek	-11806
▁mom	-11807
▁ferah	-11808
▁yenileme	-11809
▁Corpor	-11810
omas	-11811
▁sebeplerden	-11812
IST	-11813
▁besleme	-11814
▁stabil	-11815
▁Kazakistan	-11816
▁değilseniz	-11817
▁modunda	-11818
▁sad	-11819
▁Kraliyet	-11820
zo	-11821
▁oynar	-11822
▁yama	-11823
▁meg	-11824
▁casus	-11825
▁Mehmet	-11826
ştık	-11827
üzyon	-11828
▁düzenlemeler	-11829
▁soruları	-11830
ipe	-11831
▁Tour	-11832
▁diler	-11833
▁başa	-11834
▁komutu	-11835
▁Birinci	-11836
▁hastalıkları	-11837
▁darbe	-11838
▁Ron	-11839
▁ec	-11840
▁sağladı	-11841
Bağ	-11842
▁edilmelidir	-11843
▁Wall	-11844
dön	-11845
▁Kamu	-11846
İl	-11847
▁antren	-11848
IY	-11849
▁Fayda	-11850
▁isteği	-11851
▁Sav	-11852
▁etmenin	-11853
als	-11854
navut	-11855
▁tahta	-11856
▁Mul	-11857
kyüz	-11858
▁Hayat	-11859
rade	-11860
▁Şikâyet	-11861
▁hayvanlar	-11862
▁app	-11863
▁reklamlar	-11864
layabilirler	-11865
▁özelliğine	-11866
▁baktı	-11867
▁geleceği	-11868
▁yemekler	-11869
▁suçlu	-11870
urum	-11871
oku	-11872
▁Gölü	-11873
ünüzde	-11874
▁Pac	-11875
▁ayrıl	-11876
▁ithal	-11877
▁günleri	-11878
rones	-11879
...."	-11880
▁ayrım	-11881
DV	-11882
▁basıncı	-11883
▁1)	-11884
▁sitemize	-11885
▁Verilerinizi	-11886
lace	-11887
▁koşuluyla	-11888
atre	-11889
▁Şeyler	-11890
▁bakar	-11891
▁paydaş	-11892
▁teşkil	-11893
▁satmak	-11894
Bununla	-11895
▁Alanya	-11896
▁bakınız	-11897
dex	-11898
▁Sınav	-11899
▁çıkma	-11900
pers	-11901
yant	-11902
çlar	-11903
▁Services	-11904
▁sağlamaya	-11905
▁boyutları	-11906
kullan	-11907
▁kullanılmasını	-11908
▁güvende	-11909
600	-11910
▁yürüm	-11911
▁suretiyle	-11912
▁hesabına	-11913
Pop	-11914
ags	-11915
▁hacmi	-11916
▁çak	-11917
▁giyiyor	-11918
▁2)	-11919
▁tanıyan	-11920
▁Ru	-11921
▁ötesinde	-11922
43	-11923
▁eldiven	-11924
layısıyla	-11925
▁salın	-11926
▁makineler	-11927
▁Kav	-11928
▁çıkarma	-11929
▁Kaliforniya	-11930
ındır	-11931
▁deneyime	-11932
▁rezervasyonu	-11933
▁sand	-11934
▁Bilimleri	-11935
evre	-11936
▁hamam	-11937
▁AG	-11938
Te	-11939
▁dahilinde	-11940
▁düşündüğ	-11941
▁standartlarına	-11942
▁İzle	-11943
Sur	-11944
▁Sektör	-11945
▁ekler	-11946
▁olmaları	-11947
▁1990	-11948
mağ	-11949
ardo	-11950
▁başk	-11951
▁kasab	-11952
▁korozyon	-11953
mine	-11954
▁satan	-11955
▁koku	-11956
▁bitkisel	-11957
mega	-11958
▁Arnavut	-11959
▁tanımlamak	-11960
▁kutlu	-11961
▁komik	-11962
▁Tayvan	-11963
▁aboneliğ	-11964
ıplak	-11965
▁olamaz	-11966
▁Ente	-11967
▁mide	-11968
▁İzleme	-11969
▁özellikli	-11970
bun	-11971
▁yoğ	-11972
▁Tiyatrosu	-11973
▁talepleri	-11974
▁adlandırılır	-11975
▁Law	-11976
▁kirala	-11977
▁çalışanların	-11978
▁sergi	-11979
▁dengel	-11980
▁sitemizin	-11981
▁Yağı	-11982
▁toplanması	-11983
Tİ	-11984
▁42	-11985
manlar	-11986
▁modülü	-11987
▁Legend	-11988
4:	-11989
▁Colle	-11990
▁Collec	-11991
▁plak	-11992
ilerle	-11993
Ac	-11994
oshop	-11995
▁oluşturulması	-11996
▁almanız	-11997
▁umu	-11998
▁dolgu	-11999
▁adları	-12000
▁sözleşmeler	-12001
▁isimleri	-12002
▁belirtmek	-12003
▁sub	-12004
▁bağlant	-12005
▁pul	-12006
▁sensörü	-12007
▁piyasada	-12008
▁denetimi	-12009
▁Malzeme	-12010
▁Protokol	-12011
ovo	-12012
▁Güncelleme	-12013
leyiciler	-12014
▁memnuniyeti	-12015
▁tarafı	-12016
▁defteri	-12017
exe	-12018
▁yetersiz	-12019
▁iseniz	-12020
▁MKV	-12021
▁temsilciler	-12022
▁bilgisayarlar	-12023
Hayır	-12024
▁Direktörü	-12025
▁periy	-12026
wire	-12027
▁gerçekleşti	-12028
lığından	-12029
▁renkleri	-12030
▁Performans	-12031
▁Prime	-12032
▁karın	-12033
▁yüzeyi	-12034
▁hizmetlerinin	-12035
▁belirlenir	-12036
▁attı	-12037
▁Uygulaması	-12038
-12	-12039
oksit	-12040
▁husus	-12041
▁"·	-12042
▁geldiğini	-12043
▁görüntülü	-12044
▁edeceğiz	-12045
▁turist	-12046
▁sıç	-12047
▁yoğunluk	-12048
eller	-12049
▁bütçe	-12050
▁tekne	-12051
▁ihlali	-12052
▁veriyoruz	-12053
▁içinden	-12054
▁puanı	-12055
▁istisna	-12056
Dep	-12057
▁karşımıza	-12058
▁zamanlar	-12059
▁oluşturulmuş	-12060
▁$5	-12061
Hes	-12062
▁Dragon	-12063
▁sayısız	-12064
aşa	-12065
▁kesici	-12066
▁limit	-12067
ting	-12068
▁Cafe	-12069
IG	-12070
▁yanına	-12071
orton	-12072
▁müdahal	-12073
▁misafirlerimiz	-12074
▁uyumluluk	-12075
Birçok	-12076
erto	-12077
imde	-12078
▁çıkışı	-12079
▁gömlekli	-12080
▁teklifi	-12081
▁konumunu	-12082
▁amp	-12083
▁bölgelerde	-12084
ego	-12085
▁yıllardır	-12086
▁dışına	-12087
cuk	-12088
ımsak	-12089
▁esneklik	-12090
▁Alma	-12091
▁Portekizce	-12092
▁mikrofon	-12093
▁Yang	-12094
▁Por	-12095
▁Seçenekleri	-12096
▁telefonunuz	-12097
Star	-12098
▁işt	-12099
▁oturan	-12100
▁sağladığınız	-12101
▁hâlâ	-12102
▁tasarımlar	-12103
▁Kişi	-12104
▁projenin	-12105
bine	-12106
▁Şarj	-12107
▁dokuz	-12108
gement	-12109
örleri	-12110
▁kaydıyla	-12111
▁tarihlerinde	-12112
▁Yo	-12113
▁rastgele	-12114
▁İçindekiler	-12115
atr	-12116
▁kalmadan	-12117
▁gösterilir	-12118
▁●	-12119
▁ağırlığı	-12120
▁Şek	-12121
▁kumarhan	-12122
▁dünyayı	-12123
▁Wood	-12124
▁kimin	-12125
▁değiştirebilir	-12126
dian	-12127
▁Lee	-12128
▁Je	-12129
▁Sea	-12130
▁yaptırım	-12131
▁Onay	-12132
şe	-12133
aga	-12134
ağından	-12135
ales	-12136
▁anlayışı	-12137
ceği	-12138
grad	-12139
▁Başbakan	-12140
▁bunlardan	-12141
▁iştir	-12142
▁koltuğ	-12143
tij	-12144
▁Studi	-12145
▁şehirde	-12146
▁Hayır	-12147
▁BİLG	-12148
▁siyaset	-12149
▁dördüncü	-12150
lemeleri	-12151
▁Thrones	-12152
▁spam	-12153
Ok	-12154
▁gelip	-12155
▁he	-12156
▁Çıkış	-12157
▁tac	-12158
dığımızı	-12159
▁engeller	-12160
▁Geçmiş	-12161
latin	-12162
▁varsay	-12163
başkan	-12164
olid	-12165
▁samimi	-12166
▁Ord	-12167
▁Çay	-12168
▁düzeyi	-12169
▁İşbirliği	-12170
▁Risk	-12171
▁hizmetine	-12172
▁Ona	-12173
▁Hikay	-12174
▁Haw	-12175
▁Korunması	-12176
CR	-12177
▁ticareti	-12178
▁Arch	-12179
▁Konu	-12180
▁aktarmak	-12181
▁ekleyerek	-12182
zen	-12183
▁varan	-12184
ents	-12185
kes	-12186
-9	-12187
▁hikaye	-12188
▁hastanın	-12189
▁Bilgilerinizi	-12190
brahim	-12191
▁etmesini	-12192
Burada	-12193
▁sunacak	-12194
eyse	-12195
bed	-12196
MT	-12197
sc	-12198
▁nehir	-12199
▁doları	-12200
▁Hamburg	-12201
▁Ala	-12202
▁dey	-12203
▁Ja	-12204
CS	-12205
ilelik	-12206
▁misyon	-12207
▁dükkanı	-12208
▁Rum	-12209
▁Holding	-12210
eyecek	-12211
▁Müc	-12212
▁kalıntı	-12213
▁oyuncuların	-12214
▁izi	-12215
▁android	-12216
▁çarpıcı	-12217
10.	-12218
İst	-12219
▁Alp	-12220
▁kabar	-12221
avantaj	-12222
▁yapmadan	-12223
▁simgesini	-12224
ılmalıdır	-12225
Kı	-12226
!""	-12227
▁hosting	-12228
▁Tower	-12229
▁etkisini	-12230
▁Shen	-12231
▁Davut	-12232
▁Hastalık	-12233
▁konuşmak	-12234
kas	-12235
▁Ail	-12236
▁şansı	-12237
Kim	-12238
▁sebeple	-12239
agat	-12240
▁Bür	-12241
oke	-12242
▁American	-12243
room	-12244
▁Gmail	-12245
▁programına	-12246
Ana	-12247
▁yara	-12248
▁bağışıklık	-12249
▁kullanmadan	-12250
▁tabanı	-12251
▁pencerede	-12252
▁Şeh	-12253
▁Öğret	-12254
▁bağlayıcı	-12255
World	-12256
Trip	-12257
▁Fire	-12258
▁ondan	-12259
▁Gerekli	-12260
izz	-12261
iyorsa	-12262
▁sağlıyoruz	-12263
▁eleman	-12264
▁logosu	-12265
▁Sertifik	-12266
▁düştü	-12267
inen	-12268
▁Üyesi	-12269
▁Frag	-12270
▁metrekare	-12271
▁Dışarı	-12272
▁şub	-12273
▁"18	-12274
ZEL	-12275
ilerde	-12276
▁Tw	-12277
▁tünel	-12278
▁tüzel	-12279
▁şeyden	-12280
▁Adalet	-12281
▁ayakkabıları	-12282
▁duruş	-12283
idir	-12284
▁fan	-12285
odik	-12286
▁Verit	-12287
▁Sürücü	-12288
▁Doğrudan	-12289
▁yetkisiz	-12290
dınız	-12291
▁ömürlü	-12292
ISO	-12293
▁Gec	-12294
▁coğrafi	-12295
UD	-12296
vent	-12297
▁tazminat	-12298
▁şirketinin	-12299
▁"12	-12300
▁tez	-12301
▁arabir	-12302
▁1/2	-12303
erçev	-12304
Kan	-12305
▁Xiaomi	-12306
▁İle	-12307
▁daima	-12308
ınındaki	-12309
▁güz	-12310
mayacaktır	-12311
▁Afganistan	-12312
emektedir	-12313
No	-12314
▁molek	-12315
ÜM	-12316
Per	-12317
▁röportaj	-12318
▁negatif	-12319
▁kabin	-12320
▁Şartlar	-12321
▁konsantr	-12322
lanacaktır	-12323
cuz	-12324
▁bildirimde	-12325
▁televizyonu	-12326
Lütfen	-12327
▁ıslak	-12328
dıma	-12329
▁emir	-12330
▁evr	-12331
▁Ker	-12332
ection	-12333
▁kullanıcıya	-12334
▁Nev	-12335
▁genetik	-12336
ING	-12337
▁detaylar	-12338
mus	-12339
▁Rol	-12340
▁kurut	-12341
ijer	-12342
Ro	-12343
resyon	-12344
bourne	-12345
▁Doları	-12346
▁tarihine	-12347
▁içecekle	-12348
yüksek	-12349
▁Mühendislik	-12350
▁zeka	-12351
▁Slot	-12352
▁alınabilir	-12353
▁yaptığımız	-12354
▁dişli	-12355
▁nesne	-12356
memesi	-12357
▁olasılığı	-12358
fil	-12359
amamen	-12360
▁haberleri	-12361
Program	-12362
▁karyo	-12363
▁Pir	-12364
▁koşullardır	-12365
▁erişebilirsiniz	-12366
▁düşünüyorum	-12367
▁planlanan	-12368
▁eğitmen	-12369
▁FM	-12370
ague	-12371
▁United	-12372
▁planları	-12373
ific	-12374
▁Ster	-12375
▁ortakları	-12376
▁Köy	-12377
▁enstr	-12378
Sı	-12379
ılgın	-12380
iğine	-12381
ELER	-12382
▁Love	-12383
▁Design	-12384
ivi	-12385
▁Masaüstü	-12386
▁11,	-12387
iter	-12388
▁Karar	-12389
▁hızını	-12390
▁mekanda	-12391
▁bulan	-12392
▁Eğlen	-12393
▁çorba	-12394
ected	-12395
▁kop	-12396
▁geliştirmeye	-12397
alth	-12398
▁arkadaşları	-12399
▁aley	-12400
▁etmeden	-12401
reen	-12402
dirme	-12403
▁çocuğu	-12404
▁Gürcistan	-12405
EFA	-12406
▁oyunda	-12407
unty	-12408
Kab	-12409
▁çalışanı	-12410
▁bürosu	-12411
▁görünt	-12412
▁19.	-12413
▁püskürt	-12414
▁onaylı	-12415
▁arzu	-12416
▁kilometr	-12417
att	-12418
▁saatte	-12419
ANSA	-12420
▁Barcelona	-12421
▁sisteminde	-12422
▁Musa	-12423
▁Görülecek	-12424
Yemek	-12425
▁çalar	-12426
manları	-12427
▁suda	-12428
▁kayıtları	-12429
▁Lum	-12430
▁dönüştürücü	-12431
EŞ	-12432
ebilmektedir	-12433
▁düzenleyici	-12434
▁olanaklarını	-12435
▁kapsamı	-12436
▁Cevap	-12437
▁Kimlik	-12438
▁giderme	-12439
▁merkezinin	-12440
▁kronik	-12441
itir	-12442
▁Cos	-12443
▁gelebilir	-12444
pack	-12445
▁bulunu	-12446
▁95	-12447
ladık	-12448
▁gerçekçi	-12449
▁Makedonya	-12450
▁şem	-12451
▁arkadaşlar	-12452
▁hi	-12453
▁ederler	-12454
long	-12455
racle	-12456
▁sınırı	-12457
FA	-12458
▁Castle	-12459
▁duşlu	-12460
▁zehir	-12461
üpür	-12462
▁100'	-12463
▁dövme	-12464
▁Etiket	-12465
▁dezenf	-12466
▁sunuluyor	-12467
▁yazık	-12468
İngiltere	-12469
▁yapıldığı	-12470
▁Buzdolabı	-12471
▁Som	-12472
▁yir	-12473
▁kullanabiliriz	-12474
▁Ağı	-12475
▁vasıtasıyla	-12476
elerinizi	-12477
▁Update	-12478
▁mermer	-12479
▁üstüne	-12480
akal	-12481
▁VR	-12482
▁hizmete	-12483
▁katal	-12484
isson	-12485
▁çekirdekli	-12486
▁olmakla	-12487
ifornia	-12488
▁Tarayıcı	-12489
▁yetenekli	-12490
ıyorum	-12491
▁oluşturduğu	-12492
▁Jones	-12493
▁Köprüsü	-12494
300	-12495
▁Corporation	-12496
▁Köpek	-12497
▁Erkekler	-12498
▁Budapeşte	-12499
▁geldiğinde	-12500
▁sınırlandır	-12501
▁uygulamaların	-12502
uto	-12503
türü	-12504
▁videolarını	-12505
mann	-12506
▁Mail	-12507
▁sayılır	-12508
▁Fam	-12509
▁Bahçe	-12510
▁Kötü	-12511
istribüt	-12512
▁futbolcu	-12513
▁patlama	-12514
▁Tep	-12515
▁İlişkiler	-12516
▁Yasal	-12517
ırp	-12518
mec	-12519
▁1.6	-12520
▁2001	-12521
▁Cerrah	-12522
itiz	-12523
800	-12524
▁gidip	-12525
▁naz	-12526
oksidan	-12527
▁CNC	-12528
▁gözalt	-12529
▁kolaylaştırmak	-12530
die	-12531
▁from	-12532
▁güneşlenme	-12533
▁kullanılacak	-12534
▁Putin	-12535
▁yasaktır	-12536
▁NFT	-12537
▁Herkes	-12538
▁güncellemeleri	-12539
oni	-12540
aft	-12541
▁fikr	-12542
▁Adres	-12543
▁temizlemek	-12544
▁mult	-12545
under	-12546
▁profili	-12547
▁veranda	-12548
▁birç	-12549
▁kısmına	-12550
izma	-12551
▁komşu	-12552
ezgisel	-12553
▁kaydetti	-12554
▁Rot	-12555
▁Japonca	-12556
mıza	-12557
▁halen	-12558
▁Sidney	-12559
▁bron	-12560
▁süreleri	-12561
▁oluşuyor	-12562
Gerçek	-12563
▁uzanan	-12564
▁Aslında	-12565
▁geliştiriciler	-12566
▁beceri	-12567
urn	-12568
▁SAP	-12569
▁bildirin	-12570
▁kullanılıyor	-12571
▁LTD	-12572
▁döngü	-12573
ather	-12574
▁sözcük	-12575
▁kurulması	-12576
▁Ty	-12577
▁Hollywood	-12578
iğinin	-12579
GG	-12580
▁olmasa	-12581
▁gelmiş	-12582
▁grafikler	-12583
▁Psik	-12584
RC	-12585
▁eklenen	-12586
79	-12587
▁44	-12588
Güney	-12589
▁buyur	-12590
▁hoşlandığı	-12591
▁Kripto	-12592
▁dolaylı	-12593
▁Chicago	-12594
▁Laborat	-12595
▁insanlarla	-12596
▁gizliliğ	-12597
▁ilerlem	-12598
▁12,	-12599
▁White	-12600
▁Kraliçe	-12601
▁tesisten	-12602
▁buğday	-12603
▁senkronize	-12604
RS	-12605
▁Dial	-12606
▁görevl	-12607
▁Belediyesi	-12608
not	-12609
▁Süt	-12610
▁dilediğiniz	-12611
▁dayanmaktadır	-12612
▁Garanti	-12613
▁kıyafet	-12614
▁görüntüs	-12615
▁değişimi	-12616
▁durağı	-12617
▁hakiki	-12618
▁basarak	-12619
mbH	-12620
▁ker	-12621
▁bekleme	-12622
▁ge	-12623
prise	-12624
▁boyutunu	-12625
▁cüm	-12626
▁pişirin	-12627
▁Ram	-12628
▁ulus	-12629
acağınızı	-12630
▁EK	-12631
▁bırakma	-12632
▁Ceza	-12633
▁gönderim	-12634
▁ödüllü	-12635
▁bide	-12636
daj	-12637
UP	-12638
ynam	-12639
▁ın	-12640
▁muhal	-12641
▁edilmez	-12642
▁duyuyoruz	-12643
▁Pass	-12644
▁Jong	-12645
▁Şah	-12646
yük	-12647
▁4.5	-12648
▁7/24	-12649
▁fizik	-12650
▁yaşadığı	-12651
▁yıla	-12652
▁yataklar	-12653
▁İL	-12654
LIK	-12655
essional	-12656
▁vermeyi	-12657
▁Varsayılan	-12658
nesi	-12659
▁Teklif	-12660
▁Richard	-12661
▁şekillerde	-12662
holm	-12663
▁önlemler	-12664
▁je	-12665
▁Ever	-12666
▁düzenlediği	-12667
▁Leon	-12668
▁içeriğin	-12669
▁bilmeniz	-12670
ther	-12671
▁atış	-12672
▁obj	-12673
▁olurdu	-12674
▁gününde	-12675
▁Ede	-12676
▁VIP	-12677
▁ayırt	-12678
▁akışını	-12679
hasır	-12680
▁Bes	-12681
▁uzakta	-12682
▁Bosna	-12683
acağınız	-12684
▁kurdu	-12685
▁doy	-12686
▁3.5	-12687
▁İt	-12688
Merkez	-12689
▁kelimeleri	-12690
▁Sahip	-12691
▁Hun	-12692
▁tedavisinde	-12693
9.99	-12694
▁paketleri	-12695
ülüyor	-12696
▁Ran	-12697
▁Vak	-12698
▁düzeni	-12699
iğeri	-12700
▁becerilerini	-12701
ezik	-12702
▁faz	-12703
▁finansman	-12704
▁spesifik	-12705
raw	-12706
Gir	-12707
▁dünyasında	-12708
AMA	-12709
bür	-12710
▁uyuş	-12711
▁İçeriği	-12712
▁700	-12713
üyoruz	-12714
itt	-12715
▁sınırlama	-12716
▁miras	-12717
▁ha	-12718
yd	-12719
▁sürpriz	-12720
PDF	-12721
▁silahlı	-12722
▁uzunluk	-12723
▁stan	-12724
▁fol	-12725
FS	-12726
▁seviyesini	-12727
fort	-12728
zbol	-12729
pcs	-12730
chi	-12731
▁milyondan	-12732
▁Pekin	-12733
ografik	-12734
▁olacaksınız	-12735
İnternet	-12736
▁IV	-12737
▁yapıyoruz	-12738
▁endüstrisinde	-12739
▁istemiyorsanız	-12740
▁Bangkok	-12741
▁çoğalt	-12742
▁tedarikçi	-12743
▁OK	-12744
▁GÜ	-12745
▁kazı	-12746
▁değişebilir	-12747
tainment	-12748
▁elbette	-12749
▁tabii	-12750
uvars	-12751
▁ettiler	-12752
▁ilişkisi	-12753
üsünü	-12754
▁kolu	-12755
▁ekosistem	-12756
▁zamana	-12757
▁soğan	-12758
hof	-12759
cın	-12760
▁ziyaretçi	-12761
hanghai	-12762
▁oturur	-12763
cam	-12764
okul	-12765
vanter	-12766
**	-12767
dyumu	-12768
▁Tanım	-12769
TT	-12770
▁Ölüm	-12771
▁ped	-12772
▁özü	-12773
▁Akademisi	-12774
fo	-12775
tığımız	-12776
▁yaratan	-12777
▁kalsiyum	-12778
▁Side	-12779
▁Salonu	-12780
▁Kiev	-12781
▁acent	-12782
▁kapsamda	-12783
▁oğul	-12784
▁alınmış	-12785
▁işlevleri	-12786
ito	-12787
▁kalkış	-12788
▁görüşme	-12789
poli	-12790
▁GmbH	-12791
▁Sarı	-12792
Off	-12793
tiğinizde	-12794
▁kutuları	-12795
▁"199	-12796
▁kabartma	-12797
▁iyileştirme	-12798
▁apart	-12799
▁Bilimler	-12800
▁teknikleri	-12801
▁barbekü	-12802
▁ediyorsanız	-12803
▁görülebilir	-12804
essen	-12805
tivirüs	-12806
▁Posta	-12807
▁gönderilir	-12808
İz	-12809
edikal	-12810
ersin	-12811
▁gönderme	-12812
▁Petersburg	-12813
▁Paketi	-12814
Click	-12815
▁Disc	-12816
▁Tablo	-12817
Amerik	-12818
CRE	-12819
FRANSA	-12820
▁Dream	-12821
▁kimya	-12822
▁İşbu	-12823
▁Oturum	-12824
▁20.	-12825
▁tarihten	-12826
▁İŞ	-12827
koç	-12828
▁Hz	-12829
▁tanrı	-12830
▁cumhur	-12831
▁çalıştığı	-12832
ifik	-12833
lıkta	-12834
▁Toronto	-12835
▁geriye	-12836
▁sof	-12837
▁ilişkilerine	-12838
▁güvenilirlik	-12839
▁Mos	-12840
▁çalışanlar	-12841
▁kombinasyonu	-12842
▁Width	-12843
▁Diya	-12844
emezsiniz	-12845
▁Toplum	-12846
enmiş	-12847
▁Oli	-12848
▁paragraf	-12849
▁kortu	-12850
vention	-12851
▁RABbin	-12852
▁yaptığını	-12853
▁çözünürlüklü	-12854
▁önleme	-12855
▁kapasite	-12856
▁sahiplerinin	-12857
▁nihayet	-12858
▁elle	-12859
▁mukavem	-12860
▁ekimi	-12861
renin	-12862
astır	-12863
▁hort	-12864
▁Pazarı	-12865
hem	-12866
▁ilerleme	-12867
▁görünümünü	-12868
AH	-12869
▁(7	-12870
▁Team	-12871
▁tanıttı	-12872
▁türüne	-12873
▁arttırmak	-12874
▁gala	-12875
Eski	-12876
▁Jet	-12877
▁Oğ	-12878
▁edemez	-12879
▁â	-12880
▁karikatür	-12881
▁uygunluk	-12882
▁4.8/5	-12883
▁durak	-12884
▁verilerine	-12885
itanyum	-12886
▁düzeye	-12887
▁rota	-12888
96	-12889
artment	-12890
eceğine	-12891
-200	-12892
▁pazarı	-12893
masıdır	-12894
▁hesaplama	-12895
▁College	-12896
▁shirt	-12897
▁biliyoruz	-12898
▁etiketi	-12899
▁mum	-12900
/3	-12901
Kuzey	-12902
▁Huawei	-12903
▁paylaşımı	-12904
jet	-12905
▁Sher	-12906
▁sekmesine	-12907
▁WMA	-12908
ouston	-12909
▁yapacağız	-12910
craft	-12911
▁usta	-12912
▁Hesabı	-12913
kâr	-12914
uth	-12915
▁Speed	-12916
▁raporlama	-12917
▁çalışmaktadır	-12918
layacağız	-12919
▁yararlanmak	-12920
80'	-12921
▁adımda	-12922
▁sponsor	-12923
▁It	-12924
▁5:	-12925
▁muhtemel	-12926
YS	-12927
▁fincan	-12928
iyorsunuz	-12929
ely	-12930
boy	-12931
eview	-12932
▁Sub	-12933
▁Color	-12934
▁hesapları	-12935
▁XL	-12936
▁araştırmalar	-12937
▁alındığında	-12938
ırh	-12939
▁47	-12940
Yazı	-12941
evher	-12942
▁adımı	-12943
▁kör	-12944
▁seviyesine	-12945
▁kurallar	-12946
▁Biç	-12947
▁destekliyor	-12948
öylelikle	-12949
▁41	-12950
▁milli	-12951
▁Yaşlı	-12952
esten	-12953
▁kullanılma	-12954
▁kullanırız	-12955
âr	-12956
▁söyley	-12957
Özellikler	-12958
▁lobide	-12959
▁koşullarını	-12960
▁cezası	-12961
antik	-12962
▁Onları	-12963
▁Lig	-12964
▁vakum	-12965
▁almadan	-12966
▁imk	-12967
erisi	-12968
▁Premier	-12969
▁Bru	-12970
▁santral	-12971
▁15.	-12972
▁sırasıyla	-12973
▁Fuar	-12974
pas	-12975
▁Hotwire	-12976
▁Avantaj	-12977
PE	-12978
▁turu	-12979
▁aktivite	-12980
▁Run	-12981
De	-12982
Kadın	-12983
Af	-12984
▁menüsünden	-12985
Sonuç	-12986
izza	-12987
▁derecesi	-12988
▁başlamıştır	-12989
▁₺	-12990
alma	-12991
▁pap	-12992
▁EV	-12993
▁mail	-12994
▁gündüz	-12995
▁aracını	-12996
▁çalışmalarına	-12997
▁kitle	-12998
▁How	-12999
ağında	-13000
▁denize	-13001
▁kütüphane	-13002
▁Haberler	-13003
▁geçiniz	-13004
▁Kulak	-13005
▁sektörün	-13006
▁politikaları	-13007
lib	-13008
▁bağlamak	-13009
▁sunma	-13010
▁Tedavi	-13011
▁Konferansı	-13012
lando	-13013
▁Case	-13014
▁Shar	-13015
▁çadır	-13016
itch	-13017
▁kavuş	-13018
▁Gay	-13019
▁olmayacaktır	-13020
▁Sürdürülebilir	-13021
▁önleyici	-13022
▁güncellen	-13023
▁yollarını	-13024
▁yapımcı	-13025
▁kamerası	-13026
▁yaptıktan	-13027
kili	-13028
▁Abon	-13029
▁bağırsak	-13030
▁Keş	-13031
rian	-13032
▁çalıştığını	-13033
▁dökül	-13034
▁ameliyatı	-13035
▁Bahç	-13036
▁Show	-13037
▁Thomas	-13038
▁Aziz	-13039
/10	-13040
▁Yazar	-13041
▁Turnuv	-13042
▁med	-13043
▁duya	-13044
▁Bursa	-13045
▁İndirme	-13046
▁ekranında	-13047
Orta	-13048
akar	-13049
▁değilim	-13050
▁rok	-13051
▁Gerçekten	-13052
▁müşteriye	-13053
malık	-13054
▁Yasası	-13055
▁Kodu	-13056
TO	-13057
▁kana	-13058
▁Takip	-13059
▁ekspres	-13060
▁olgun	-13061
▁hatası	-13062
▁Sana	-13063
▁Radyo	-13064
▁Space	-13065
▁8'	-13066
▁Amel	-13067
▁mens	-13068
▁aydınlık	-13069
lent	-13070
▁Mai	-13071
▁binanın	-13072
▁kurumları	-13073
TripAdvisor	-13074
▁hizmetlerimiz	-13075
▁sıradan	-13076
▁Ath	-13077
▁çıkardı	-13078
▁fotoğrafı	-13079
▁alacaksınız	-13080
ally	-13081
▁saygın	-13082
▁uluslar	-13083
▁(6	-13084
▁tost	-13085
▁Johan	-13086
▁ölçekli	-13087
▁Perşembe	-13088
Siz	-13089
▁fı	-13090
iroid	-13091
▁belirtildiği	-13092
▁Çarşamba	-13093
▁Ateş	-13094
tüm	-13095
▁bilgisayarı	-13096
amıza	-13097
▁Led	-13098
▁Ret	-13099
elgesi	-13100
▁Feature	-13101
MET	-13102
▁önemi	-13103
▁saklıdır	-13104
▁kütl	-13105
Tal	-13106
übe	-13107
lonu	-13108
bus	-13109
▁arıza	-13110
▁karlı	-13111
▁ATM	-13112
▁adamın	-13113
▁hissi	-13114
Söz	-13115
imlerde	-13116
▁egemen	-13117
▁Misafirlerimize	-13118
▁ötürü	-13119
▁optimum	-13120
MAN	-13121
memek	-13122
▁Alanlar	-13123
▁düşünün	-13124
▁fr	-13125
▁Entertainment	-13126
Yüz	-13127
▁inanç	-13128
abo	-13129
▁Bulun	-13130
▁Alüminyum	-13131
▁liderlik	-13132
▁oluşturulur	-13133
▁etmenize	-13134
▁raporlar	-13135
▁derecelendir	-13136
▁kurban	-13137
▁tahsil	-13138
▁Süresi	-13139
oterapi	-13140
İsrail	-13141
▁kısayol	-13142
▁gelince	-13143
▁Otomobil	-13144
▁tutucu	-13145
▁yin	-13146
▁darb	-13147
▁sığın	-13148
▁Kutusu	-13149
mart	-13150
▁Lüb	-13151
▁ödey	-13152
▁öngörülen	-13153
▁saray	-13154
df	-13155
▁Popüler	-13156
ılıp	-13157
▁Modu	-13158
▁110	-13159
nat	-13160
▁Ford	-13161
jin	-13162
▁Bahçesi	-13163
▁Qual	-13164
▁korumaya	-13165
▁Direc	-13166
▁temelinde	-13167
Don	-13168
▁bilinmeyen	-13169
▁göndererek	-13170
evet	-13171
amalı	-13172
oph	-13173
▁Dosyaları	-13174
▁Good	-13175
▁düşünüyorsanız	-13176
Tok	-13177
▁bölümleri	-13178
ikleri	-13179
hay	-13180
▁->	-13181
timate	-13182
▁Telaffuz	-13183
uluş	-13184
▁2015'	-13185
▁gardrop	-13186
▁Tasarımı	-13187
▁inceleyin	-13188
▁Onların	-13189
▁Yönetici	-13190
▁bilen	-13191
▁Meclisi	-13192
▁karşılaştı	-13193
▁kardeşi	-13194
▁gazeteci	-13195
well	-13196
▁Kurt	-13197
▁eklenti	-13198
▁tarafta	-13199
▁Luc	-13200
▁unu	-13201
▁kalıyor	-13202
Öğren	-13203
▁News	-13204
akteri	-13205
▁temsilcisi	-13206
▁grubunda	-13207
▁"11	-13208
ükreş	-13209
▁ekipmanı	-13210
▁14,	-13211
▁2013'	-13212
▁koleksiyonu	-13213
▁Boru	-13214
▁partner	-13215
figür	-13216
▁Adult	-13217
▁tesise	-13218
▁düğüm	-13219
▁çekti	-13220
uşturucu	-13221
▁Ayakkabı	-13222
ible	-13223
▁münhasır	-13224
▁Latin	-13225
▁hukuku	-13226
▁taşır	-13227
▁CPU	-13228
▁sebebi	-13229
▁Teknolojisi	-13230
Ağ	-13231
▁Peygamber	-13232
▁erişimine	-13233
▁sesleri	-13234
▁seçildi	-13235
alın	-13236
▁sürdü	-13237
▁belirlenmesi	-13238
inko	-13239
▁Büy	-13240
▁Gelen	-13241
▁hafıza	-13242
▁voltaj	-13243
▁Karayip	-13244
▁teşekkürler	-13245
▁onaylan	-13246
▁Kiralama	-13247
▁PL	-13248
dede	-13249
▁dediler	-13250
▁içerikleri	-13251
cean	-13252
DR	-13253
▁çevreye	-13254
▁Ege	-13255
Tam	-13256
▁Arena	-13257
▁yardıma	-13258
ilidi	-13259
▁Ofis	-13260
▁ailesinin	-13261
▁Pres	-13262
▁Cu	-13263
Erkek	-13264
mektesiniz	-13265
▁oranları	-13266
ello	-13267
aps	-13268
arn	-13269
igasyon	-13270
▁bununla	-13271
▁kullanımının	-13272
▁sine	-13273
▁sayısının	-13274
▁Kâğıt	-13275
▁Küçük	-13276
▁(4)	-13277
▁Nav	-13278
▁Photoshop	-13279
▁öncelikli	-13280
▁ayakta	-13281
▁iplik	-13282
▁isteğ	-13283
ranmış	-13284
▁Cumartesi	-13285
▁Buradan	-13286
SQL	-13287
▁çekt	-13288
uri	-13289
▁alerj	-13290
▁çalışacak	-13291
lator	-13292
▁bilinc	-13293
▁engelli	-13294
▁sezonu	-13295
▁Çerezler	-13296
▁AAC	-13297
▁Koç	-13298
▁kaldırır	-13299
▁başvurun	-13300
▁kendileri	-13301
▁Lav	-13302
▁tarihini	-13303
▁County	-13304
ters	-13305
▁parçacık	-13306
▁hataları	-13307
▁Gate	-13308
▁oluşturuyor	-13309
çiliği	-13310
▁Bad	-13311
▁Rul	-13312
▁akred	-13313
▁kolesterol	-13314
▁çöp	-13315
▁takibi	-13316
wn	-13317
▁dağıtımı	-13318
▁değerler	-13319
▁çabuk	-13320
▁pal	-13321
▁gerçekleştirdi	-13322
▁Cot	-13323
▁Pocket	-13324
LEŞ	-13325
düksiyon	-13326
▁taraflı	-13327
▁ünitesi	-13328
:5	-13329
▁giysiler	-13330
AG	-13331
▁duyuyor	-13332
▁belirtir	-13333
Den	-13334
işti	-13335
▁Aktif	-13336
hin	-13337
▁imha	-13338
2.1	-13339
▁imalatı	-13340
▁hedefleri	-13341
▁Baba	-13342
▁arazi	-13343
▁Havuz	-13344
Devamı	-13345
▁federal	-13346
otek	-13347
▁Vide	-13348
▁CM	-13349
▁segment	-13350
▁ülkelere	-13351
memektedir	-13352
umuzun	-13353
UV	-13354
xford	-13355
arları	-13356
▁konukların	-13357
▁Check	-13358
▁seminer	-13359
▁reklamları	-13360
▁ettikleri	-13361
▁Clar	-13362
▁baskılı	-13363
▁açabilen	-13364
teyl	-13365
▁derg	-13366
▁atmak	-13367
▁türlerini	-13368
▁Management	-13369
▁tepk	-13370
▁doğrulamak	-13371
▁bırakırsanız	-13372
xus	-13373
▁Rio	-13374
▁haklı	-13375
▁Yaklaşık	-13376
▁tarayıcınızın	-13377
▁türüdür	-13378
itz	-13379
Site	-13380
▁hızlıca	-13381
▁uygulamanız	-13382
▁Kulübü	-13383
▁cihazınızda	-13384
ıf	-13385
▁Shopify	-13386
ister	-13387
▁Seni	-13388
▁üyeliğ	-13389
▁ikna	-13390
▁Point	-13391
▁Lar	-13392
irmen	-13393
▁kullanmaktadır	-13394
▁genelde	-13395
▁"==	-13396
▁doğur	-13397
▁programının	-13398
Mobil	-13399
▁sebz	-13400
▁kabuk	-13401
▁Şab	-13402
Facebook	-13403
▁Dublin	-13404
▁Hüc	-13405
▁Kalp	-13406
▁meşgul	-13407
▁kaçırmayın	-13408
▁doğdu	-13409
▁Binası	-13410
▁simgesi	-13411
▁menüsünü	-13412
000'	-13413
▁yurtdışında	-13414
eva	-13415
▁Deluxe	-13416
▁Palm	-13417
▁siber	-13418
▁geleni	-13419
▁yakalamak	-13420
▁Yönetmeliği	-13421
▁sanay	-13422
▁hizmetin	-13423
lut	-13424
▁Ulaşım	-13425
▁Yenilik	-13426
geldiniz	-13427
İyi	-13428
▁güçleri	-13429
▁beklet	-13430
▁bildirimler	-13431
▁Spider	-13432
▁Mali	-13433
gari	-13434
▁Yazılımlar	-13435
Tab	-13436
▁elveriş	-13437
▁iletken	-13438
▁Closure	-13439
▁teknolojisini	-13440
sait	-13441
▁taşımacılığı	-13442
▁Salı	-13443
MANYA	-13444
▁baharat	-13445
▁"16	-13446
gro	-13447
strasse	-13448
lines	-13449
▁Koşullar	-13450
ekim	-13451
▁tük	-13452
▁paketini	-13453
kanlar	-13454
▁faktörler	-13455
▁şifrenizi	-13456
▁Jim	-13457
▁Vitamini	-13458
▁Merc	-13459
▁açılmış	-13460
▁sorunlarını	-13461
Buna	-13462
anma	-13463
▁bölgelerinde	-13464
▁Collection	-13465
▁Tri	-13466
▁gömülü	-13467
▁içerikler	-13468
▁apk	-13469
▁Stadyumu	-13470
▁CC	-13471
▁Düzelt	-13472
▁gergin	-13473
▁yeryüz	-13474
▁dolum	-13475
▁kumlu	-13476
▁cihazların	-13477
87	-13478
▁Hakem	-13479
▁ülkedeki	-13480
▁avrupa	-13481
▁elimizden	-13482
▁Ark	-13483
▁Hold	-13484
▁görmüş	-13485
▁evlilik	-13486
▁hepsini	-13487
▁kapatmak	-13488
▁malzemelerin	-13489
▁dikkatlice	-13490
Adım	-13491
unch	-13492
Shen	-13493
▁anı	-13494
▁örnekler	-13495
uss	-13496
▁Daniel	-13497
▁bastır	-13498
▁arasına	-13499
▁Florida	-13500
▁usul	-13501
▁Lam	-13502
▁Enterprise	-13503
▁yapmalı	-13504
▁şok	-13505
ampton	-13506
OG	-13507
▁protesto	-13508
▁onlardan	-13509
▁okyanus	-13510
▁parkı	-13511
▁düzeltmek	-13512
acağım	-13513
▁Çerçev	-13514
tikçe	-13515
▁amiral	-13516
Üst	-13517
▁rep	-13518
▁uygulamasının	-13519
eceğimiz	-13520
▁kültürü	-13521
▁solunum	-13522
▁tap	-13523
▁66	-13524
▁katıla	-13525
▁fesh	-13526
▁Princ	-13527
▁bekleyen	-13528
▁yönlendirme	-13529
ideki	-13530
▁Maden	-13531
ihazırda	-13532
▁Convention	-13533
▁Battle	-13534
▁kullanacak	-13535
▁Cenevre	-13536
▁sayfayı	-13537
▁toplumun	-13538
▁edilmesine	-13539
İH	-13540
▁kıyısında	-13541
▁olanaklarının	-13542
▁StoreUS	-13543
▁gösterdiği	-13544
▁Pom	-13545
▁şartı	-13546
▁cihazda	-13547
bank	-13548
▁gereçleri	-13549
▁Devam	-13550
▁Listesi	-13551
▁Kh	-13552
▁RF	-13553
▁PayPal	-13554
▁oynaya	-13555
▁yürütül	-13556
unuzla	-13557
▁ileti	-13558
▁Kapı	-13559
▁mesel	-13560
▁kullandığımız	-13561
cedes	-13562
latmak	-13563
▁düşünce	-13564
5.00	-13565
▁arız	-13566
limi	-13567
▁imkansız	-13568
▁128	-13569
enizde	-13570
▁pik	-13571
ric	-13572
▁entegrasyonu	-13573
▁Ermeni	-13574
onavirüs	-13575
▁Apk	-13576
ao	-13577
▁sitenize	-13578
▁Joe	-13579
▁adalet	-13580
▁GÖ	-13581
▁Chat	-13582
▁yatırma	-13583
mod	-13584
▁akciğer	-13585
leyebiliriz	-13586
▁akl	-13587
▁Piyasa	-13588
▁çıkması	-13589
ürük	-13590
▁haritası	-13591
▁Ray	-13592
eyt	-13593
▁Satı	-13594
▁salg	-13595
▁korkunç	-13596
▁ihtiyaçlarınıza	-13597
▁aşamada	-13598
▁2.4	-13599
▁Jean	-13600
▁Karak	-13601
▁Evi	-13602
▁karakteri	-13603
▁ülkemizde	-13604
▁fasul	-13605
▁Fik	-13606
▁mühür	-13607
▁Aygıt	-13608
▁kaydedilir	-13609
▁Chiang	-13610
▁Studios	-13611
▁aşağıdakiler	-13612
eleriyle	-13613
▁arttı	-13614
▁Doc	-13615
▁zım	-13616
20'	-13617
rie	-13618
▁adamları	-13619
▁eşliğinde	-13620
▁arayabilir	-13621
▁Ünlü	-13622
▁başardı	-13623
▁Temizleme	-13624
▁market	-13625
Bilgisayar	-13626
cül	-13627
▁Stok	-13628
▁doğruluğ	-13629
▁gerçekleşir	-13630
▁nereye	-13631
▁sağa	-13632
▁dudak	-13633
▁Evcil	-13634
abilmektedir	-13635
dunuz	-13636
▁programın	-13637
▁Deney	-13638
▁tereyağı	-13639
▁müşterilerinin	-13640
▁Fac	-13641
▁Yüzme	-13642
▁yakalama	-13643
▁KV	-13644
▁gönderir	-13645
▁etkilenen	-13646
demy	-13647
sia	-13648
▁prestij	-13649
.000'	-13650
▁kurşun	-13651
▁kazanır	-13652
▁yıldızı	-13653
▁durdurmak	-13654
▁Kadar	-13655
▁Sohbet	-13656
even	-13657
▁düğme	-13658
apiksel	-13659
▁tescilli	-13660
▁gerekecektir	-13661
likasyon	-13662
vador	-13663
▁Şüph	-13664
Bah	-13665
olojisi	-13666
▁160	-13667
▁Telif	-13668
▁edildiğini	-13669
osp	-13670
▁Sus	-13671
▁Atlan	-13672
▁yetki	-13673
▁2014'	-13674
▁Görüş	-13675
▁"8.	-13676
▁alanının	-13677
▁star	-13678
▁Bunların	-13679
▁korsan	-13680
▁hesaba	-13681
▁yüzük	-13682
▁katılın	-13683
▁Ahmet	-13684
▁hayv	-13685
▁katta	-13686
▁deprem	-13687
▁maddi	-13688
opter	-13689
▁River	-13690
▁uzantısı	-13691
Sta	-13692
▁fe	-13693
Konuk	-13694
ones	-13695
▁işlemc	-13696
▁olaylar	-13697
Önc	-13698
▁editör	-13699
▁plana	-13700
▁bildirimi	-13701
diğin	-13702
▁çorap	-13703
▁Şirketin	-13704
ibr	-13705
▁85	-13706
▁yitir	-13707
▁Yazılımı	-13708
▁ikti	-13709
Müşteriler	-13710
▁İmkanları	-13711
ets	-13712
▁dosyan	-13713
▁Project	-13714
▁kullanılmak	-13715
▁Liber	-13716
▁tasarımları	-13717
otal	-13718
tılı	-13719
▁Fat	-13720
▁fırsatlar	-13721
▁dekoratif	-13722
▁toplamda	-13723
▁Acil	-13724
tuğu	-13725
▁yağlar	-13726
▁adresleri	-13727
▁Medi	-13728
▁platformları	-13729
▁esk	-13730
▁General	-13731
▁astr	-13732
▁açıl	-13733
▁lans	-13734
oes	-13735
vin	-13736
▁çırp	-13737
▁başkent	-13738
▁lokasyon	-13739
▁istedikleri	-13740
▁Sekreteri	-13741
▁Sami	-13742
▁İlaç	-13743
▁beta	-13744
ocuğ	-13745
▁düzel	-13746
▁Ücret	-13747
▁Dat	-13748
▁belirtilm	-13749
▁Uygulamalar	-13750
Amerika	-13751
▁muz	-13752
▁riskleri	-13753
Doğru	-13754
▁işlemenin	-13755
Me	-13756
▁bulunurken	-13757
▁Filmi	-13758
▁tutulması	-13759
▁Nit	-13760
▁dolaşım	-13761
▁arabası	-13762
▁Shan	-13763
pace	-13764
▁Louis	-13765
dom	-13766
▁Via	-13767
▁zem	-13768
▁bira	-13769
▁keşif	-13770
lanmasına	-13771
▁DO	-13772
▁Pier	-13773
ünüzün	-13774
▁nazik	-13775
▁tecrübesi	-13776
▁işlenmesini	-13777
▁merakla	-13778
▁İy	-13779
odcast	-13780
▁yasalara	-13781
▁seçenektir	-13782
ett	-13783
tılar	-13784
▁Houston	-13785
▁yükseldi	-13786
sinin	-13787
▁tuttuğumuz	-13788
▁ye	-13789
▁tipiyle	-13790
Dış	-13791
▁ediyorsunuz	-13792
▁önler	-13793
▁sevdiği	-13794
▁bankacılık	-13795
▁ülkelerden	-13796
▁verebilirsiniz	-13797
▁dub	-13798
▁Harika	-13799
▁kaybed	-13800
▁kılan	-13801
▁geçirdi	-13802
gat	-13803
▁Derg	-13804
▁72	-13805
indir	-13806
97	-13807
▁Cro	-13808
▁görüldü	-13809
▁oyununu	-13810
▁toplayan	-13811
▁mutfağının	-13812
Pan	-13813
▁düzenle	-13814
▁alanlarına	-13815
▁Ang	-13816
▁ilanı	-13817
▁raporları	-13818
▁sundu	-13819
▁biçimlendir	-13820
haba	-13821
form	-13822
▁Hakkı	-13823
▁işin	-13824
mara	-13825
lanarak	-13826
BI	-13827
▁yönel	-13828
▁yetkilendir	-13829
▁Ips	-13830
▁girerek	-13831
site	-13832
▁işg	-13833
▁gözaltına	-13834
▁olabileceği	-13835
▁tadına	-13836
▁süreçte	-13837
sayı	-13838
▁yasadışı	-13839
İST	-13840
▁ısın	-13841
▁eşleştir	-13842
ume	-13843
▁Steam	-13844
▁imkanların	-13845
büs	-13846
▁Sci	-13847
imilar	-13848
▁popülerliğe	-13849
▁adında	-13850
▁Fiyatı	-13851
▁döngüsü	-13852
60'	-13853
▁yönetmenliğini	-13854
aklı	-13855
▁NBA	-13856
▁Solid	-13857
▁simülasyon	-13858
▁Alb	-13859
▁Digital	-13860
▁noktaya	-13861
▁cesaret	-13862
▁self	-13863
▁daireleri	-13864
▁odalarının	-13865
▁haric	-13866
▁İstediğiniz	-13867
berry	-13868
▁metn	-13869
▁etiketler	-13870
inat	-13871
▁Önerilen	-13872
▁İbrahim	-13873
▁Şarkı	-13874
▁yükler	-13875
▁kapsamındaki	-13876
ezyum	-13877
▁tahrik	-13878
ozmetik	-13879
▁prensip	-13880
▁firmalar	-13881
ulum	-13882
watch	-13883
▁ediniz	-13884
▁kilidini	-13885
▁sunabilir	-13886
▁Mustafa	-13887
▁çip	-13888
▁olmasının	-13889
masın	-13890
▁Youtube	-13891
Tak	-13892
▁ph	-13893
▁ufak	-13894
▁BTC	-13895
▁düzenleyen	-13896
▁iadesi	-13897
eph	-13898
ente	-13899
▁Elb	-13900
▁ray	-13901
▁Yazıcı	-13902
▁geçiyor	-13903
▁Şeyh	-13904
▁üretimini	-13905
▁biyolojik	-13906
▁ödüllendir	-13907
▁Main	-13908
▁artar	-13909
▁sıkıştırma	-13910
ender	-13911
▁Kablo	-13912
▁sahibiz	-13913
▁isteriz	-13914
▁grubunun	-13915
▁çalışmayı	-13916
▁duyulan	-13917
Düzen	-13918
▁rahatsızlık	-13919
▁geride	-13920
ista	-13921
▁giysi	-13922
▁uçuşlar	-13923
KA	-13924
Seç	-13925
▁140	-13926
▁etmekte	-13927
.(	-13928
▁makinası	-13929
▁edebilecek	-13930
▁Mill	-13931
▁meta	-13932
▁iyon	-13933
MC	-13934
▁egz	-13935
▁Uydu	-13936
2015	-13937
▁Cav	-13938
▁Nice	-13939
▁yataklı	-13940
▁California	-13941
html	-13942
▁anlamlı	-13943
▁tarihte	-13944
odu	-13945
▁Scott	-13946
▁Önce	-13947
race	-13948
▁şekillendirme	-13949
▁(199	-13950
▁Fram	-13951
▁başvurusu	-13952
stan	-13953
ekleri	-13954
eğer	-13955
▁yapışkan	-13956
▁Sum	-13957
▁girer	-13958
▁sözleşmesi	-13959
▁AN	-13960
▁Pra	-13961
▁gündem	-13962
▁Fabrika	-13963
asyum	-13964
▁muaf	-13965
▁dua	-13966
▁Görsel	-13967
▁yakınındaki	-13968
ombi	-13969
ss	-13970
Ltd	-13971
resel	-13972
▁BU	-13973
▁[+	-13974
▁ekim	-13975
▁kategorileri	-13976
▁randevu	-13977
▁Au	-13978
▁SW	-13979
▁görünüş	-13980
▁Limanı	-13981
INI	-13982
▁Nijer	-13983
▁tarayıcısı	-13984
▁Uygulamaları	-13985
▁Dük	-13986
▁adan	-13987
▁takın	-13988
▁Kolomb	-13989
▁etmeyin	-13990
▁Card	-13991
▁soğut	-13992
▁Çub	-13993
▁Dynam	-13994
▁Bedava	-13995
▁Tuvalet	-13996
▁Kütüphan	-13997
▁Toplu	-13998
link	-13999
iff	-14000
lej	-14001
▁bölgeleri	-14002
▁oyuna	-14003
▁14.	-14004
▁sisteme	-14005
Modern	-14006
▁Emp	-14007
ityum	-14008
bağ	-14009
▁hali	-14010
▁EL	-14011
▁DNA	-14012
▁başlarında	-14013
▁Spotify	-14014
▁Sürekli	-14015
rick	-14016
▁Hosting	-14017
ALAR	-14018
▁oluşturmaya	-14019
▁kodları	-14020
▁üyelerinin	-14021
▁evinde	-14022
İNİZ	-14023
▁cihazınıza	-14024
▁Dolayısıyla	-14025
▁seçilmiş	-14026
▁yirmi	-14027
▁demiryolu	-14028
adet	-14029
alo	-14030
▁Ref	-14031
▁sün	-14032
▁Türkmenistan	-14033
▁kenti	-14034
▁America	-14035
▁tutarak	-14036
▁İndirim	-14037
▁Shenzhen	-14038
▁Ofisi	-14039
▁Playa	-14040
▁Doktora	-14041
Pay	-14042
Mes	-14043
.››"	-14044
▁nez	-14045
▁Analiz	-14046
▁yüksekliği	-14047
cies	-14048
▁ayrılır	-14049
▁sunuldu	-14050
▁Misafirlere	-14051
ibrit	-14052
▁terap	-14053
▁fonksiyonel	-14054
▁ODM	-14055
▁operasyonel	-14056
raj	-14057
ahat	-14058
▁kurumlar	-14059
▁TH	-14060
▁süpür	-14061
▁Operasyon	-14062
lament	-14063
essenger	-14064
▁elastik	-14065
sem	-14066
▁bayrak	-14067
iyah	-14068
elaket	-14069
lidir	-14070
▁Dönüşüm	-14071
▁hayati	-14072
▁Eylem	-14073
▁sözlü	-14074
▁zamandır	-14075
eribot	-14076
▁depozit	-14077
▁kolaylığı	-14078
▁Ahşap	-14079
mıyorum	-14080
▁Araçları	-14081
▁Ortalama	-14082
▁elbiseler	-14083
RT	-14084
Oto	-14085
▁Len	-14086
▁sitelerini	-14087
▁tay	-14088
▁Hemen	-14089
▁gazetec	-14090
cul	-14091
▁kullanılmıştır	-14092
▁refah	-14093
ladığını	-14094
▁bilgilerinin	-14095
▁tanesi	-14096
▁Lübnan	-14097
▁hil	-14098
▁Sonraki	-14099
▁açıklamaya	-14100
▁sürücüsü	-14101
▁Rac	-14102
▁Etkinlik	-14103
▁Kapsam	-14104
LU	-14105
▁sevilen	-14106
▁ettiğimiz	-14107
▁Kürt	-14108
imlerinin	-14109
rad	-14110
inity	-14111
▁harcama	-14112
▁uygulanmaktadır	-14113
▁ALICI	-14114
▁Theft	-14115
tric	-14116
▁düşen	-14117
▁Göl	-14118
cierge	-14119
ılarak	-14120
▁Rahat	-14121
▁sürükleyin	-14122
▁işleminin	-14123
▁budur	-14124
:1	-14125
▁yapmanın	-14126
tiçi	-14127
▁yollar	-14128
▁()	-14129
▁Paslanmaz	-14130
▁parlaklık	-14131
luğun	-14132
▁klasörü	-14133
▁duyduğu	-14134
Ver	-14135
▁Öğretim	-14136
▁you	-14137
▁kere	-14138
72	-14139
çiliğ	-14140
arım	-14141
▁vergisi	-14142
▁Televizyon	-14143
izli	-14144
▁devamı	-14145
▁seçme	-14146
▁Nord	-14147
anse	-14148
aven	-14149
▁450	-14150
▁polyester	-14151
▁sitelerinden	-14152
▁AT	-14153
▁gelmek	-14154
▁araz	-14155
Ses	-14156
▁sarımsak	-14157
Plus	-14158
cor	-14159
▁Connect	-14160
▁etiketleri	-14161
▁gölg	-14162
▁belirlenmiş	-14163
Tic	-14164
▁Box	-14165
▁işçiler	-14166
▁Bükreş	-14167
▁taktik	-14168
▁isn	-14169
▁çiğ	-14170
▁halkın	-14171
▁kategori	-14172
▁dersler	-14173
gız	-14174
otip	-14175
▁kalmayı	-14176
▁varlığını	-14177
▁Fotoğraflar	-14178
▁kullanıcısı	-14179
oul	-14180
▁artışı	-14181
▁pompası	-14182
▁kesmek	-14183
▁İskoç	-14184
▁başlayarak	-14185
▁kullanılamaz	-14186
▁Vücut	-14187
▁gökyüz	-14188
▁Körfezi	-14189
▁tüketiciler	-14190
▁Yetişkin	-14191
Yönetmen	-14192
▁markaları	-14193
▁bilgilendirme	-14194
iverpool	-14195
YUN	-14196
Hol	-14197
▁oyunudur	-14198
▁Puan	-14199
ispeten	-14200
▁dövüş	-14201
imp	-14202
Tan	-14203
▁Kargo	-14204
▁Bonus	-14205
▁insanı	-14206
▁üretir	-14207
tefik	-14208
▁sürümüne	-14209
▁Rue	-14210
▁Hist	-14211
suzluk	-14212
durma	-14213
▁$0	-14214
▁karab	-14215
▁noktasında	-14216
düğünde	-14217
İşte	-14218
ümcek	-14219
ihirli	-14220
▁halkının	-14221
▁Touch	-14222
ui	-14223
▁giyin	-14224
ıra	-14225
▁IoT	-14226
▁alev	-14227
▁impar	-14228
▁iletim	-14229
▁Sıfır	-14230
▁gecikme	-14231
▁(8	-14232
▁açısı	-14233
etri	-14234
maris	-14235
▁zafer	-14236
▁Yüzük	-14237
▁Ultimate	-14238
▁Kayak	-14239
▁sevgi	-14240
▁tanımlanan	-14241
▁fiş	-14242
lata	-14243
▁biriyle	-14244
kiş	-14245
▁League	-14246
▁temsilcileri	-14247
▁Uçak	-14248
▁ağac	-14249
▁kılar	-14250
▁buluştur	-14251
▁Moz	-14252
vc	-14253
▁46	-14254
▁görülmeli	-14255
▁fık	-14256
▁Hata	-14257
▁araçtır	-14258
▁16.	-14259
Çoğu	-14260
▁binası	-14261
Kah	-14262
▁Yapılacak	-14263
▁getirdiği	-14264
▁Yapım	-14265
▁inanıyoruz	-14266
▁TO	-14267
▁uçağı	-14268
▁mesajlar	-14269
▁geliştirici	-14270
lemez	-14271
ango	-14272
▁sağlamayı	-14273
▁günler	-14274
▁sorumluluğu	-14275
eyecektir	-14276
▁tarihinin	-14277
EZ	-14278
▁sayısına	-14279
SC	-14280
▁sözü	-14281
▁grubun	-14282
uzun	-14283
▁ilke	-14284
▁adınız	-14285
▁yönettiği	-14286
▁bilgisayarınızı	-14287
war	-14288
▁Chi	-14289
▁Antik	-14290
▁Müşter	-14291
ografi	-14292
Men	-14293
▁Anaya	-14294
▁Arşiv	-14295
▁seans	-14296
▁Araçlar	-14297
▁sezgisel	-14298
▁distribüt	-14299
ids	-14300
▁yüzyılda	-14301
▁car	-14302
▁Deri	-14303
dayken	-14304
ötesi	-14305
▁eklenir	-14306
▁Vla	-14307
▁işlenmesinin	-14308
leği	-14309
▁uygulamada	-14310
▁Leh	-14311
▁hizmetinizde	-14312
yın	-14313
menizin	-14314
▁bileşenler	-14315
▁kırp	-14316
▁jeneratör	-14317
▁my	-14318
▁tekniği	-14319
ebi	-14320
▁Yılın	-14321
lerimizde	-14322
▁karşılayan	-14323
▁Wr	-14324
▁Gem	-14325
▁Sağlayıcı	-14326
▁ziyaretçileri	-14327
Devamını	-14328
▁sayfaya	-14329
?"""	-14330
sünüz	-14331
▁Hukuku	-14332
▁tutarı	-14333
uni	-14334
▁Nat	-14335
memize	-14336
▁01	-14337
▁birer	-14338
▁Toz	-14339
▁zul	-14340
▁testler	-14341
▁Terminal	-14342
lemeler	-14343
▁Ele	-14344
▁basınçlı	-14345
▁mesajlaşma	-14346
ürü	-14347
76	-14348
▁ordusu	-14349
Rek	-14350
▁sabun	-14351
▁resmen	-14352
▁incelemek	-14353
▁kolon	-14354
ety	-14355
▁bitmiş	-14356
▁kararlar	-14357
▁düşt	-14358
▁gözlüğü	-14359
▁vermesi	-14360
▁fotokopi	-14361
lang	-14362
▁hizmetlerine	-14363
▁izler	-14364
▁çubuğunda	-14365
▁Nan	-14366
▁best	-14367
▁Panel	-14368
▁bedeli	-14369
Kend	-14370
▁vinç	-14371
▁Tıbbi	-14372
▁bini	-14373
▁gelişmeleri	-14374
▁Gelin	-14375
ekili	-14376
▁amaçlayan	-14377
▁sitelerinin	-14378
Kom	-14379
okal	-14380
▁aşınma	-14381
gör	-14382
▁arıyorsunuz	-14383
sky	-14384
Görün	-14385
▁bireyler	-14386
▁ilgisini	-14387
▁Dark	-14388
▁Orlando	-14389
▁konuklarını	-14390
▁Ash	-14391
▁işveren	-14392
▁Raporu	-14393
▁yanından	-14394
▁kayış	-14395
▁İlave	-14396
▁Kimya	-14397
▁edilerek	-14398
▁haklarına	-14399
▁geçirme	-14400
▁́	-14401
▁43	-14402
▁kızıl	-14403
▁element	-14404
▁istediğinizi	-14405
tendo	-14406
ebiliyor	-14407
▁restoranı	-14408
▁Kampanya	-14409
▁jel	-14410
seldorf	-14411
▁denemek	-14412
▁madencilik	-14413
cle	-14414
▁verirken	-14415
▁TAR	-14416
forma	-14417
▁Çoklu	-14418
▁Görünüm	-14419
erin	-14420
ough	-14421
evin	-14422
▁şunlar	-14423
▁verilmiş	-14424
▁mobilyalar	-14425
▁Sizi	-14426
oman	-14427
çocuk	-14428
▁bro	-14429
▁Efend	-14430
▁sürecek	-14431
▁iyileşme	-14432
ALMANYA	-14433
▁taşımaktadır	-14434
tün	-14435
▁hastalar	-14436
▁önder	-14437
▁tesisini	-14438
mana	-14439
▁kül	-14440
Uzun	-14441
tımı	-14442
▁süreyle	-14443
▁Professional	-14444
▁yazmak	-14445
▁hazırlanması	-14446
▁şebek	-14447
▁mutlak	-14448
▁odadan	-14449
ember	-14450
▁Polis	-14451
▁130	-14452
imilarity	-14453
avul	-14454
▁Iz	-14455
delik	-14456
▁etken	-14457
▁burs	-14458
▁yaklaşımı	-14459
isli	-14460
▁katılma	-14461
▁Anth	-14462
ELTS	-14463
▁tuşlarına	-14464
▁3)	-14465
▁etnik	-14466
▁kulüb	-14467
▁Ucuz	-14468
▁programa	-14469
jo	-14470
▁teps	-14471
▁dünyasının	-14472
▁koşu	-14473
tures	-14474
▁Church	-14475
▁alternate	-14476
▁ücretlidir	-14477
▁formatları	-14478
▁penceresinde	-14479
IKA	-14480
▁farklıdır	-14481
▁Fair	-14482
▁öldürül	-14483
▁Fark	-14484
▁yasaları	-14485
▁Hin	-14486
▁Soy	-14487
▁Renkli	-14488
ebilirim	-14489
▁konumunda	-14490
▁Corn	-14491
isinda	-14492
400	-14493
51	-14494
▁EX	-14495
▁düzenleyebilir	-14496
azza	-14497
▁lokanta	-14498
▁gereksiz	-14499
▁49	-14500
▁komple	-14501
▁Iç	-14502
▁sac	-14503
Cam	-14504
▁Ner	-14505
evcut	-14506
▁butik	-14507
▁sitenizde	-14508
ırt	-14509
▁Derec	-14510
Tarih	-14511
▁yarın	-14512
▁info	-14513
▁albümü	-14514
▁hastalıklar	-14515
▁satılan	-14516
▁artırma	-14517
▁Messenger	-14518
▁Moon	-14519
dolab	-14520
unc	-14521
Similarity	-14522
▁toplantısında	-14523
▁Ky	-14524
▁Jane	-14525
▁romantik	-14526
taları	-14527
▁emlak	-14528
▁kaydeder	-14529
▁Rail	-14530
▁18.	-14531
▁MacBook	-14532
ves	-14533
çuk	-14534
▁gözetim	-14535
▁Evren	-14536
▁ederse	-14537
▁Cur	-14538
▁Fen	-14539
▁sentetik	-14540
cinsel	-14541
▁Luxury	-14542
▁beğ	-14543
emeyen	-14544
▁Tablet	-14545
▁sigortası	-14546
▁SH	-14547
▁önemlisi	-14548
▁Mars	-14549
▁Anlaş	-14550
▁Hattı	-14551
ilebilecek	-14552
▁açığa	-14553
▁fermu	-14554
▁görevini	-14555
▁Ani	-14556
▁saçlı	-14557
▁Faydaları	-14558
▁anlaşması	-14559
▁2012'	-14560
▁barında	-14561
▁aldığımız	-14562
PM	-14563
▁Norton	-14564
▁formatı	-14565
▁doldurun	-14566
▁istediğini	-14567
▁anlamı	-14568
▁dosyasına	-14569
▁17.	-14570
▁katmanlı	-14571
ilmeye	-14572
▁duygusal	-14573
▁kuvars	-14574
▁şarkıcı	-14575
▁hizmetlerimizi	-14576
▁Hoş	-14577
▁ziya	-14578
▁AI	-14579
Ph	-14580
▁Jr	-14581
▁Cer	-14582
▁feragat	-14583
yağ	-14584
▁hamur	-14585
abilmesi	-14586
▁isteyebilir	-14587
▁fonksiyonları	-14588
▁tekerlekli	-14589
gers	-14590
▁koydu	-14591
▁Düzenle	-14592
tas	-14593
▁Belir	-14594
▁yürüyüşle	-14595
▁durumun	-14596
▁dezavantaj	-14597
:30	-14598
▁kapatma	-14599
▁yüzyılın	-14600
▁gerçekleşecek	-14601
▁hack	-14602
▁listede	-14603
▁sürücüler	-14604
EE	-14605
▁verimliliğini	-14606
▁zorunludur	-14607
ülin	-14608
▁"17	-14609
▁iskel	-14610
▁Airlines	-14611
▁yazılmış	-14612
▁koşullarda	-14613
▁Vin	-14614
▁3.1	-14615
▁Tipi	-14616
▁indirdiler	-14617
Bölüm	-14618
engen	-14619
▁ajan	-14620
▁aksesuarlar	-14621
▁antioksidan	-14622
▁normalde	-14623
▁yollarla	-14624
▁turda	-14625
▁gerekenler	-14626
bildirim	-14627
▁kazanın	-14628
▁gereksinimi	-14629
▁Search	-14630
▁inovasyon	-14631
wan	-14632
eksi	-14633
▁sitelerine	-14634
şir	-14635
▁CH	-14636
▁GIF	-14637
▁filminde	-14638
▁File	-14639
▁Control	-14640
▁paylaşma	-14641
▁SIM	-14642
▁işlemek	-14643
▁Melbourne	-14644
▁çocuklara	-14645
▁bomba	-14646
▁dolabı	-14647
▁Kaliteli	-14648
▁başlatma	-14649
▁değiştirilmesi	-14650
▁çıplak	-14651
▁Serbest	-14652
▁saatlerde	-14653
arkod	-14654
dıysanız	-14655
▁işlenen	-14656
▁Cambridge	-14657
▁dükkâ	-14658
▁sitedeki	-14659
tüğ	-14660
▁Yarışması	-14661
ION	-14662
▁Poli	-14663
▁eşdeğer	-14664
▁64-	-14665
▁Platformu	-14666
▁UEFA	-14667
ordon	-14668
▁VEYA	-14669
▁kısalt	-14670
▁konfigür	-14671
▁bozukluğu	-14672
/20	-14673
lun	-14674
▁IBM	-14675
lemenin	-14676
▁Britanya	-14677
▁Downtown	-14678
dong	-14679
hidrat	-14680
▁Karadağ	-14681
aks	-14682
ilmesinde	-14683
▁turuncu	-14684
▁Mun	-14685
▁Steel	-14686
▁anest	-14687
▁kars	-14688
▁Elbise	-14689
▁ihtiyaçlarınızı	-14690
▁Ipsum	-14691
▁güzerg	-14692
▁gelmez	-14693
▁azaltma	-14694
yiz	-14695
▁ded	-14696
▁IC	-14697
ızın	-14698
▁araçlarını	-14699
▁indirenler	-14700
▁krizi	-14701
▁düzenlendi	-14702
▁tipleri	-14703
▁Kongresi	-14704
▁metabol	-14705
▁bildirimleri	-14706
andy	-14707
▁Are	-14708
iyse	-14709
▁Bina	-14710
▁TM	-14711
▁fig	-14712
genel	-14713
▁aldığını	-14714
▁Uyarı	-14715
ots	-14716
▁oynadığı	-14717
▁maskesi	-14718
▁yetenekleri	-14719
▁Silahlı	-14720
▁işlenmiş	-14721
▁sergilen	-14722
▁tahr	-14723
dragon	-14724
▁İşleme	-14725
▁ExpressVPN	-14726
▁konumuna	-14727
▁MOD	-14728
▁Kılı	-14729
▁Jeff	-14730
▁Havacılık	-14731
yas	-14732
yosu	-14733
▁Hatta	-14734
▁Teh	-14735
PO	-14736
▁hastaların	-14737
▁memnuniyetini	-14738
CRETS	-14739
▁üstlendiği	-14740
esör	-14741
You	-14742
▁imal	-14743
itleri	-14744
▁Doğa	-14745
▁TEK	-14746
▁Onlara	-14747
▁müzisyen	-14748
▁gerekse	-14749
ersp	-14750
▁Göğ	-14751
▁cevizi	-14752
▁çapındaki	-14753
▁pe	-14754
dönüş	-14755
▁Çiçek	-14756
cını	-14757
▁term	-14758
▁Petrol	-14759
▁13,	-14760
▁sizleri	-14761
LEN	-14762
▁koşuyor	-14763
▁Ry	-14764
ilerinde	-14765
▁korumalı	-14766
▁analitik	-14767
▁havacılık	-14768
▁yazılımları	-14769
▁yarışı	-14770
▁bezi	-14771
▁PE	-14772
▁insani	-14773
▁tansiyon	-14774
▁saldırgan	-14775
▁vana	-14776
▁şeri	-14777
Sistem	-14778
▁Dairesi	-14779
kins	-14780
▁staj	-14781
▁çatış	-14782
DC	-14783
nal	-14784
▁30%	-14785
▁konumlanan	-14786
▁tanımlanabilir	-14787
▁%10	-14788
▁Thor	-14789
▁bağlama	-14790
▁türk	-14791
fre	-14792
▁yürüyen	-14793
▁piy	-14794
onder	-14795
anızda	-14796
▁Soğuk	-14797
▁Koordin	-14798
▁kontrolünü	-14799
esinlikle	-14800
▁çalışmanın	-14801
dyum	-14802
▁sırala	-14803
▁Dog	-14804
▁Gereksinimleri	-14805
▁pano	-14806
▁Engine	-14807
▁sunmaya	-14808
▁Recep	-14809
▁EC	-14810
imedya	-14811
▁etmesine	-14812
▁formunu	-14813
▁çıkarabilir	-14814
emon	-14815
larsa	-14816
▁Story	-14817
tifak	-14818
▁başından	-14819
Böyle	-14820
bilim	-14821
▁anlatıyor	-14822
nö	-14823
▁yav	-14824
Has	-14825
larız	-14826
ydi	-14827
▁stratejisi	-14828
▁standartlara	-14829
▁Maksimum	-14830
▁numaraları	-14831
▁müzaker	-14832
▁terim	-14833
▁Bern	-14834
Mark	-14835
▁HDMI	-14836
oss	-14837
▁Aksi	-14838
▁katında	-14839
▁rutin	-14840
etal	-14841
anacak	-14842
▁Filipinler	-14843
▁out	-14844
elenen	-14845
▁yoksul	-14846
▁konumlandır	-14847
▁bulunmamaktadır	-14848
Ot	-14849
▁ömrünü	-14850
▁havayolu	-14851
▁getirerek	-14852
▁içmek	-14853
Politika	-14854
▁Koruyucu	-14855
▁Wallet	-14856
deler	-14857
▁perde	-14858
iso	-14859
sar	-14860
▁Will	-14861
▁etkileşime	-14862
▁yapılar	-14863
izer	-14864
Serv	-14865
▁raki	-14866
ustik	-14867
▁uygulamasına	-14868
▁dönüm	-14869
▁ayrılmış	-14870
▁tasarıma	-14871
lamento	-14872
▁Tamamen	-14873
▁Lojistik	-14874
▁hamile	-14875
▁Sihirb	-14876
▁Geçerli	-14877
idget	-14878
▁okuy	-14879
▁ünif	-14880
▁ceph	-14881
vay	-14882
▁sitelerinde	-14883
nie	-14884
leyman	-14885
▁Testi	-14886
▁dünyası	-14887
▁uyuşturucu	-14888
▁saya	-14889
edecek	-14890
▁elyaf	-14891
▁olduğunun	-14892
▁Pav	-14893
▁arkasındaki	-14894
▁dondurma	-14895
▁başlangı	-14896
▁edebilirler	-14897
▁göndereceğiz	-14898
Yaz	-14899
▁50'	-14900
▁Regular	-14901
▁gerekecek	-14902
▁edebiliriz	-14903
▁Rub	-14904
▁teklifler	-14905
▁türde	-14906
▁kaydedilen	-14907
izle	-14908
▁öğüt	-14909
▁dilimi	-14910
▁free	-14911
▁Safari	-14912
▁Valley	-14913
▁Hasta	-14914
▁yürürlükteki	-14915
▁Beğen	-14916
Ab	-14917
▁macer	-14918
▁Ye	-14919
▁gran	-14920
▁İlişkin	-14921
▁Altyazılı	-14922
▁mük	-14923
▁yapılmalıdır	-14924
gy	-14925
▁setleri	-14926
ılabilecek	-14927
▁sik	-14928
▁Number	-14929
▁hesabınızda	-14930
▁kurallarına	-14931
▁Guar	-14932
▁kalınlığı	-14933
Size	-14934
side	-14935
▁Çalıştır	-14936
▁DV	-14937
organ	-14938
▁"'	-14939
layabil	-14940
forlu	-14941
▁firmasının	-14942
▁oyuncaklar	-14943
▁dokunuş	-14944
▁mekandır	-14945
▁Work	-14946
▁araçların	-14947
Hem	-14948
',	-14949
DI	-14950
Dosya	-14951
SL	-14952
mekle	-14953
▁pazarında	-14954
▁kahv	-14955
ustom	-14956
▁Belgesi	-14957
üret	-14958
▁Pre	-14959
▁sahilde	-14960
▁izleyerek	-14961
▁Şiş	-14962
▁Meme	-14963
asonik	-14964
Konum	-14965
amanın	-14966
▁Lady	-14967
noloji	-14968
▁mantık	-14969
▁uzmanlar	-14970
▁me	-14971
▁Şili	-14972
asarım	-14973
▁kızar	-14974
▁uygulamadır	-14975
▁litre	-14976
▁ziyaretçilerin	-14977
atives	-14978
▁ortamlarda	-14979
▁modelini	-14980
▁üzüm	-14981
▁Tik	-14982
▁blockchain	-14983
▁Libya	-14984
▁muhab	-14985
ayma	-14986
▁arıtma	-14987
amaşırı	-14988
▁antivirüs	-14989
▁Şampiyonası	-14990
▁ası	-14991
olution	-14992
ria	-14993
▁evlen	-14994
gor	-14995
▁kuruluşların	-14996
enna	-14997
şet	-14998
umuzda	-14999
▁imparator	-15000
aför	-15001
gate	-15002
▁Menü	-15003
▁etmektesiniz	-15004
iva	-15005
▁11'	-15006
▁AY	-15007
▁titiz	-15008
▁etkilerini	-15009
▁mühendisliği	-15010
▁televizyonlu	-15011
▁Uçuş	-15012
cus	-15013
▁She	-15014
▁alımı	-15015
▁nişan	-15016
▁şüpheli	-15017
▁Dallas	-15018
▁soruştur	-15019
▁Zen	-15020
▁dilek	-15021
▁madalya	-15022
▁modelinin	-15023
▁gevşek	-15024
▁doğruluk	-15025
▁nispeten	-15026
▁karsisinda	-15027
ularak	-15028
▁unvan	-15029
▁Directory	-15030
iga	-15031
işle	-15032
▁rejim	-15033
ework	-15034
▁kort	-15035
▁Kimyasal	-15036
▁akrilik	-15037
elisiniz	-15038
9.00	-15039
▁Yolları	-15040
▁toplantısı	-15041
▁Cancel	-15042
Cen	-15043
▁hiper	-15044
inger	-15045
▁kullanımınız	-15046
lade	-15047
▁Toptan	-15048
isten	-15049
▁almakta	-15050
elin	-15051
▁kaydırın	-15052
Quick	-15053
▁yükü	-15054
▁bağlamda	-15055
▁Sanırım	-15056
▁touch	-15057
inli	-15058
▁Tır	-15059
▁serinin	-15060
vir	-15061
▁şö	-15062
▁ca	-15063
▁9001:	-15064
tıkları	-15065
▁Belki	-15066
▁Musk	-15067
▁Quick	-15068
▁yiyor	-15069
▁School	-15070
▁gösterge	-15071
▁stili	-15072
▁Çağrı	-15073
▁kapsamak	-15074
▁Karşılaştırma	-15075
eğinin	-15076
▁özelliklerinden	-15077
▁full	-15078
▁play	-15079
▁ekley	-15080
▁UY	-15081
▁Kök	-15082
::	-15083
▁Diego	-15084
Shenzhen	-15085
▁payı	-15086
ennifer	-15087
▁Tekstil	-15088
▁mağazalar	-15089
▁lisansı	-15090
▁ağırlamaktadır	-15091
▁virüsü	-15092
ewel	-15093
▁yapısal	-15094
▁içten	-15095
▁göze	-15096
cho	-15097
yip	-15098
elop	-15099
▁hd	-15100
▁ayın	-15101
tual	-15102
▁hab	-15103
▁Soci	-15104
elerek	-15105
▁Sınıfı	-15106
ipping	-15107
Office	-15108
▁ulaşan	-15109
▁başlattı	-15110
▁hesabını	-15111
▁belirsiz	-15112
▁Brad	-15113
Travel	-15114
▁cihaza	-15115
▁Mala	-15116
▁beslen	-15117
▁Finansal	-15118
▁numun	-15119
▁momondo	-15120
▁Schengen	-15121
lett	-15122
▁karıştırma	-15123
▁Arnavutluk	-15124
▁makar	-15125
elikopter	-15126
70'	-15127
▁varil	-15128
ozisyon	-15129
▁Çekir	-15130
▁otob	-15131
▁Öncelikle	-15132
▁uyuyor	-15133
▁dönen	-15134
▁Napoli	-15135
▁yetkilileri	-15136
▁Hip	-15137
▁Hom	-15138
▁organizasyonu	-15139
▁blu	-15140
▁yapmıştır	-15141
▁lig	-15142
▁tanımlayıcı	-15143
▁formatlarını	-15144
▁Mum	-15145
▁olayları	-15146
▁tasarlandı	-15147
▁kokteyl	-15148
[...]
